<pad>	0
<s>	0
</s>	0
<unk>	0
▁क	-0
या	-1
▁स	-2
▁म	-3
्या	-4
▁प	-5
्र	-6
▁आ	-7
▁ह	-8
ार	-9
▁त	-10
▁व	-11
▁के	-12
▁द	-13
▁अ	-14
▁न	-15
▁ज	-16
र्	-17
्य	-18
ान	-19
ला	-20
▁ब	-21
ें	-22
▁र	-23
hi	-24
mr	-25
▁<	-26
ों	-27
▁उ	-28
▁ल	-29
▁कर	-30
▁है	-31
ता	-32
ने	-33
▁प्र	-34
िक	-35
▁औ	-36
ां	-37
ले	-38
▁और	-39
▁भ	-40
ना	-41
ित	-42
▁ग	-43
▁में	-44
च्या	-45
▁को	-46
वा	-47
▁श	-48
ंत	-49
▁य	-50
ात	-51
क्	-52
्ह	-53
▁की	-54
▁.	-55
स्	-56
हे	-57
▁का	-58
▁ए	-59
▁पर	-60
▁कि	-61
▁या	-62
▁से	-63
▁आहे	-64
्व	-65
▁आण	-66
▁इ	-67
चा	-68
सा	-69
ेश	-70
ती	-71
▁आणि	-72
▁हो	-73
ली	-74
ही	-75
▁सं	-76
चे	-77
िए	-78
▁त्या	-79
▁वि	-80
ून	-81
▁रा	-82
्री	-83
ल्या	-84
ते	-85
▁एक	-86
्ट	-87
से	-88
ण्या	-89
नी	-90
ची	-91
▁दि	-92
▁लिए	-93
हा	-94
ोग	-95
▁,	-96
▁सा	-97
क्ष	-98
रा	-99
त्	-100
▁दे	-101
▁ने	-102
▁नि	-103
मा	-104
▁ख	-105
री	-106
ति	-107
▁जा	-108
ष्ट	-109
▁च	-110
ठी	-111
▁स्	-112
ंद	-113
गा	-114
▁हैं	-115
▁वा	-116
▁मा	-117
णा	-118
▁भार	-119
्रा	-120
▁तु	-121
▁घ	-122
कार	-123
▁सु	-124
▁आप	-125
साठी	-126
▁पा	-127
वर	-128
ध्य	-129
▁2	-130
ेत	-131
वि	-132
के	-133
▁इस	-134
द्	-135
िय	-136
▁सम	-137
ल्	-138
▁उन	-139
ड़	-140
▁ना	-141
▁ते	-142
▁थ	-143
िया	-144
का	-145
▁यह	-146
▁फ	-147
्ष	-148
धान	-149
ास	-150
ाने	-151
▁।	-152
ील	-153
▁कार	-154
▁मंत	-155
▁राज	-156
र्व	-157
▁अप	-158
▁मु	-159
▁तुम	-160
▁ला	-161
ोज	-162
▁जो	-163
▁अस	-164
मी	-165
▁पु	-166
▁त्यां	-167
ोक	-168
▁म्ह	-169
▁1	-170
स्थ	-171
प्र	-172
रे	-173
▁ड	-174
▁उप	-175
स्त	-176
▁देश	-177
ारी	-178
दी	-179
▁किया	-180
वी	-181
▁बा	-182
िन	-183
ंग	-184
▁मह	-185
▁20	-186
ारा	-187
ंड	-188
▁भी	-189
▁ट	-190
▁हम	-191
ध्ये	-192
कर	-193
▁झ	-194
की	-195
▁करने	-196
▁उस	-197
▁भारत	-198
▁क्ष	-199
▁करण्या	-200
दा	-201
्यां	-202
वे	-203
भा	-204
ार्	-205
▁मि	-206
सी	-207
▁अध	-208
णे	-209
च्	-210
ारे	-211
▁लोक	-212
▁(	-213
▁अन	-214
▁मो	-215
द्ध	-216
टी	-217
▁तो	-218
मध्ये	-219
▁वे	-220
▁साथ	-221
मु	-222
श्	-223
▁सर	-224
्हा	-225
ेल	-226
्रीय	-227
▁ध	-228
▁यां	-229
▁आज	-230
णी	-231
▁ये	-232
▁हे	-233
▁भा	-234
▁मी	-235
▁पू	-236
देश	-237
▁तर	-238
▁हा	-239
▁स्व	-240
▁विक	-241
हीं	-242
ैं	-243
शा	-244
शी	-245
▁उन्ह	-246
▁स्थ	-247
ूप	-248
▁सर्व	-249
र्ष	-250
▁कहा	-251
ियों	-252
▁झा	-253
र्ण	-254
▁उत्	-255
तो	-256
▁नहीं	-257
▁ले	-258
▁दो	-259
▁आहेत	-260
▁क्षेत	-261
लय	-262
▁अधिक	-263
▁व्य	-264
ंध	-265
▁मे	-266
ओं	-267
▁केले	-268
पा	-269
बर	-270
▁असे	-271
र्थ	-272
्ञ	-273
्ही	-274
क्र	-275
▁नाही	-276
▁सरकार	-277
रु	-278
मान	-279
▁परि	-280
▁केंद	-281
▁ही	-282
ळे	-283
तर	-284
ाप	-285
ांग	-286
▁राष्ट	-287
▁कु	-288
जा	-289
क्त	-290
ांना	-291
▁चा	-292
न्	-293
बा	-294
गे	-295
गी	-296
त्र	-297
र्य	-298
▁पह	-299
भी	-300
पू	-301
कि	-302
▁था	-303
▁क्षेत्र	-304
तील	-305
▁दु	-306
िर	-307
▁मैं	-308
द्य	-309
तात	-310
▁201	-311
▁अपने	-312
▁गया	-313
▁आम	-314
▁म्हण	-315
▁सह	-316
▁जि	-317
ाना	-318
▁हु	-319
▁मंत्री	-320
्त	-321
जी	-322
▁जी	-323
ढ़	-324
▁निर्	-325
योग	-326
▁ठ	-327
मेश	-328
कड	-329
प्रधान	-330
▁वह	-331
धी	-332
ंतप्रधान	-333
िम	-334
▁पंतप्रधान	-335
▁वर्ष	-336
मेश्व	-337
ंतर	-338
▁काम	-339
ोंने	-340
▁परमेश्व	-341
▁तक	-342
▁प्रधान	-343
ंत्र	-344
ाय	-345
चार	-346
खा	-347
गर	-348
▁लोग	-349
क्षा	-350
लेल्या	-351
धार	-352
▁द्व	-353
णार	-354
▁रु	-355
िती	-356
िला	-357
ूर	-358
00	-359
▁गु	-360
द्र	-361
गत	-362
▁कार्य	-363
▁उन्होंने	-364
दान	-365
▁श्री	-366
च्छ	-367
तीय	-368
▁मंत्रा	-369
▁छ	-370
मुळे	-371
▁प्रति	-372
जे	-373
▁अनु	-374
▁होते	-375
बंध	-376
त्य	-377
िल	-378
▁आपल्या	-379
शे	-380
ूं	-381
▁राज्य	-382
ब्	-383
नि	-384
▁ती	-385
▁“	-386
ऱ्या	-387
▁दिया	-388
▁रूप	-389
▁सभी	-390
सार	-391
▁जात	-392
▁आय	-393
▁माझ	-394
हर	-395
ज्ञ	-396
ळा	-397
▁म्हणा	-398
ोल	-399
ेट	-400
ित्र	-401
▁सक	-402
ांनी	-403
वास	-404
ोजना	-405
▁विकास	-406
ईल	-407
सर	-408
ेव	-409
▁बी	-410
नों	-411
ोध	-412
ोर	-413
▁मान	-414
डी	-415
थे	-416
्म	-417
▁बन	-418
ळी	-419
विध	-420
ुन	-421
माण	-422
▁सि	-423
▁भारतीय	-424
ातील	-425
ण्यासाठी	-426
िका	-427
▁-	-428
टर	-429
पी	-430
िक्ष	-431
▁गो	-432
▁देख	-433
▁नवी	-434
त्व	-435
ांच्या	-436
▁मंत्रालय	-437
▁सी	-438
▁व्या	-439
ष्	-440
▁आव	-441
▁सांग	-442
▁केली	-443
ंब	-444
20	-445
▁लोगों	-446
ुर	-447
▁ऐ	-448
▁3	-449
▁शक	-450
ानी	-451
▁सुर	-452
▁जाए	-453
▁स्वा	-454
पर	-455
स्ट	-456
▁पी	-457
▁त्यांनी	-458
ूत	-459
शन	-460
▁बढ़	-461
▁ओ	-462
▁अव	-463
द्या	-464
▁करते	-465
ल्ली	-466
पास	-467
हि	-468
पूर्ण	-469
▁द्वारा	-470
दल	-471
▁ऑ	-472
्यों	-473
र्म	-474
▁दिल्ली	-475
▁केंद्र	-476
एल	-477
▁होता	-478
▁राष्ट्र	-479
▁अभ	-480
क्षण	-481
द्योग	-482
▁मोदी	-483
▁करता	-484
श्य	-485
▁हुए	-486
▁दी	-487
ेक	-488
ेंद्र	-489
्यात	-490
▁बह	-491
▁गे	-492
▁जब	-493
▁दा	-494
";	-495
कृ	-496
को	-497
क्रम	-498
▁”	-499
▁कारण	-500
▁भू	-501
्न	-502
▁संबंध	-503
▁थे	-504
▁तू	-505
झे	-506
▁पो	-507
वन	-508
श्व	-509
▁यांनी	-510
▁खा	-511
▁प्रा	-512
▁समा	-513
▁सो	-514
▁ऊ	-515
▁परमेश्वर	-516
▁शा	-517
ध्यम	-518
▁राजा	-519
जन	-520
दि	-521
चित	-522
दे	-523
▁म्हणून	-524
एस	-525
ण्यात	-526
▁मू	-527
ल्प	-528
▁घे	-529
▁मार्	-530
्स	-531
मंत	-532
▁साम	-533
▁उसके	-534
दर्	-535
र्यंत	-536
रो	-537
सं	-538
▁तुम्ही	-539
▁केंद्रीय	-540
19	-541
▁वै	-542
▁यु	-543
▁तसे	-544
▁नर	-545
▁मला	-546
▁पि	-547
किन	-548
वस्थ	-549
▁चाह	-550
▁गए	-551
▁काही	-552
▁दिव	-553
▁करण्यात	-554
श्यक	-555
िज	-556
मंत्री	-557
त्या	-558
▁जे	-559
ौर	-560
लो	-561
▁योग	-562
▁योजना	-563
शेष	-564
▁मद	-565
▁5	-566
ांचे	-567
में	-568
िट	-569
लों	-570
िंग	-571
वळ	-572
▁जै	-573
▁लेकिन	-574
▁करण्यासाठी	-575
▁तुम्ह	-576
ुत	-577
▁नरेंद्र	-578
ज्ञान	-579
▁यहो	-580
▁राष्ट्रीय	-581
▁वाढ	-582
यु	-583
▁आवश्यक	-584
▁ई	-585
▁केला	-586
▁त्यांना	-587
एम	-588
बी	-589
▁उनके	-590
▁शि	-591
कडे	-592
वेश	-593
▁उद्	-594
ठा	-595
▁अपनी	-596
हन	-597
▁सू	-598
▁तसेच	-599
क्ति	-600
▁सेवा	-601
▁भाग	-602
▁महा	-603
▁त्यांच्या	-604
▁कम	-605
व्हा	-606
पाद	-607
▁यांच्या	-608
▁घर	-609
▁बना	-610
टा	-611
▁कृ	-612
▁जिस	-613
▁इन	-614
▁क्यों	-615
वार	-616
▁आर	-617
▁प्रत्य	-618
वाद	-619
▁गा	-620
▁बै	-621
ेंगे	-622
पासून	-623
▁विशेष	-624
कों	-625
▁माध्यम	-626
▁इस्रा	-627
ंज	-628
▁हि	-629
करण	-630
हत	-631
▁उन्हें	-632
▁ता	-633
विष	-634
ये	-635
▁पास	-636
ेर	-637
ष्टी	-638
ड़ा	-639
ग्	-640
ऊन	-641
▁लाग	-642
्यान	-643
डा	-644
▁होती	-645
वर्	-646
▁करा	-647
▁रहा	-648
▁हमारे	-649
▁मन	-650
▁भारता	-651
जार	-652
▁लग	-653
▁रहे	-654
▁देव	-655
यों	-656
▁मिळ	-657
▁लाभ	-658
च्च	-659
ग्र	-660
दार	-661
▁रुप	-662
▁ज्या	-663
वान	-664
▁शिक्ष	-665
▁आले	-666
ोन	-667
▁अर्थ	-668
▁पुर	-669
▁बीच	-670
ांची	-671
टन	-672
▁माझ्या	-673
णाऱ्या	-674
▁अब	-675
▁तेव्हा	-676
▁निर्माण	-677
▁म्हणाले	-678
▁निय	-679
▁बात	-680
▁आता	-681
मध	-682
▁क्योंकि	-683
ख्य	-684
ख्या	-685
▁शु	-686
▁दोन	-687
▁दृ	-688
▁ह्या	-689
िस	-690
▁व्याप	-691
▁भर	-692
▁सब	-693
▁बे	-694
▁गई	-695
▁उत्पाद	-696
हो	-697
ोड़	-698
▁उसे	-699
मि	-700
▁संस्थ	-701
▁जन	-702
र्ग	-703
▁‘	-704
▁रख	-705
▁रेल	-706
▁वित	-707
हार	-708
▁पै	-709
▁हर	-710
▁लाख	-711
ंप	-712
श्वास	-713
▁करत	-714
▁हूं	-715
ांचा	-716
▁सांगित	-717
▁करना	-718
▁घेत	-719
▁पण	-720
▁जाता	-721
▁लक्ष	-722
व्य	-723
्रे	-724
▁आम्ही	-725
▁इस्राएल	-726
▁प्रश	-727
ोत्	-728
▁4	-729
▁डॉ	-730
▁दर	-731
▁मेरे	-732
▁चाहिए	-733
रण	-734
▁माह	-735
▁तरह	-736
▁खु	-737
मार	-738
▁नव	-739
▁2020	-740
▁थी	-741
▁दूर	-742
▁यहोवा	-743
▁दिन	-744
▁पूर्व	-745
िप	-746
▁इंड	-747
ूस	-748
▁मुझे	-749
▁समय	-750
▁त्याच्या	-751
▁:	-752
▁सुविध	-753
ांत	-754
▁किं	-755
▁विचार	-756
▁प्रदेश	-757
र्जा	-758
▁राह	-759
▁प्रकार	-760
▁रह	-761
▁करे	-762
▁";	-763
▁परमेश्वरा	-764
▁कुछ	-765
बत	-766
टे	-767
▁त्याला	-768
ार्थ	-769
ुष	-770
▁काय	-771
▁झाले	-772
यी	-773
ूक	-774
भाव	-775
▁मंद	-776
▁बाद	-777
▁स्ट	-778
ंगा	-779
▁नी	-780
▁जर	-781
▁मंत्र	-782
▁होगा	-783
▁महत्व	-784
▁मज	-785
-19	-786
▁आपण	-787
र्थिक	-788
▁शहर	-789
लया	-790
▁प्रदान	-791
▁प्रत्येक	-792
▁जाएगा	-793
स्ता	-794
ंना	-795
▁पहले	-796
पर्यंत	-797
▁कोई	-798
यार	-799
▁उसने	-800
▁अंत	-801
▁जग	-802
▁संक	-803
▁कमी	-804
▁बोल	-805
▁स्थान	-806
▁जीवन	-807
भाग	-808
▁तुझ	-809
▁ठेव	-810
शि	-811
नेक	-812
▁कोवि	-813
▁प्रधानमंत्री	-814
ुल	-815
ोजन	-816
ातून	-817
▁अनेक	-818
ड़ी	-819
▁उद्योग	-820
ात्र	-821
▁पाहि	-822
ोबर	-823
▁उपल	-824
▁माहिती	-825
▁घा	-826
पे	-827
▁आर्थिक	-828
▁अम	-829
▁बहुत	-830
ब्ध	-831
▁रोज	-832
▁जल	-833
तिक	-834
्यांना	-835
श्चित	-836
▁बि	-837
▁महिला	-838
▁सांगितले	-839
▁स्थाप	-840
▁उपलब्ध	-841
▁वाले	-842
▁समु	-843
मुख	-844
▁किए	-845
ांमध्ये	-846
राष्ट	-847
▁सकता	-848
भर	-849
▁बैठ	-850
▁येथे	-851
▁पार	-852
दारी	-853
▁सुधार	-854
▁रोग	-855
▁किंवा	-856
▁देवा	-857
ंच	-858
डे	-859
▁अशा	-860
▁बु	-861
▁विश्वास	-862
लि	-863
▁कार्या	-864
▁होईल	-865
▁कह	-866
ड़े	-867
▁2019	-868
क्ट	-869
▁?	-870
▁2018	-871
▁कार्यक्रम	-872
▁आरोग	-873
▁तीन	-874
युक्त	-875
▁पुन	-876
▁उत्तर	-877
▁त्याने	-878
▁6	-879
हाँ	-880
्हाला	-881
▁7	-882
र्प	-883
▁पूर्ण	-884
लन	-885
▁होने	-886
▁अन्य	-887
▁लोकांना	-888
ुक	-889
▁रो	-890
▁मार्ग	-891
▁असेल	-892
भार	-893
▁दिवस	-894
▁सुविधा	-895
▁अध्य	-896
्यू	-897
▁कै	-898
▁पर्य	-899
माणे	-900
▁’	-901
▁कई	-902
▁उपयोग	-903
क्ती	-904
▁फिर	-905
▁मग	-906
आर	-907
पट	-908
▁C	-909
खी	-910
▁आत्	-911
ंचा	-912
सान	-913
मिक	-914
वात	-915
घा	-916
द्दल	-917
▁कॉ	-918
च्छा	-919
▁ति	-920
वल	-921
▁तंत्र	-922
▁दिले	-923
▁आधार	-924
ृद्ध	-925
जर	-926
म्	-927
चना	-928
▁वाट	-929
प्	-930
था	-931
▁स्वत	-932
▁आली	-933
▁तुमच्या	-934
▁असल्या	-935
▁गोष्टी	-936
▁भग	-937
▁म्हणजे	-938
निया	-939
ताओं	-940
▁संर	-941
ण्याची	-942
▁ग्रा	-943
वस्था	-944
▁मुख्य	-945
प्रमाणे	-946
▁कोटी	-947
▁पुढ	-948
द्व	-949
यत्	-950
ैन	-951
▁प्राप	-952
▁दिली	-953
▁स्त	-954
▁असून	-955
▁सहकार	-956
▁असा	-957
▁जान	-958
ष्ठ	-959
बरोबर	-960
▁यात	-961
दर	-962
▁म्हणाला	-963
▁आरोग्य	-964
▁स्वच्छ	-965
बद्दल	-966
▁मजब	-967
▁इंडिया	-968
ज़	-969
▁क्र	-970
▁प्रमुख	-971
लिए	-972
▁महत्	-973
▁चर्	-974
ंक	-975
▁व्यक्त	-976
लेले	-977
िमंड	-978
स्थ्य	-979
▁इसके	-980
▁करेगा	-981
▁चांग	-982
▁खूप	-983
नो	-984
▁माण	-985
▁एका	-986
र्ट	-987
▁डा	-988
ोष	-989
स्य	-990
▁चाल	-991
▁पुत्र	-992
▁वी	-993
▁ची	-994
▁स्वास्थ्य	-995
धन	-996
▁इसलिए	-997
िकी	-998
िव	-999
भव	-1000
▁करोड़	-1001
हाय	-1002
टक	-1003
▁नागर	-1004
गार	-1005
धा	-1006
्याय	-1007
▁दर्	-1008
▁काळ	-1009
▁सार	-1010
▁)	-1011
▁इतर	-1012
▁हाथ	-1013
शु	-1014
▁रुग्	-1015
▁प्राप्त	-1016
▁यहू	-1017
▁क्षम	-1018
▁सर्	-1019
▁सद	-1020
्वे	-1021
▁करी	-1022
▁रुपये	-1023
▁मंज	-1024
▁गर	-1025
▁कृष	-1026
▁मंदिर	-1027
वित्र	-1028
▁अति	-1029
▁जाते	-1030
▁प्रयत्	-1031
वरण	-1032
▁क्या	-1033
▁कोविड	-1034
ेशन	-1035
▁राष्ट्रप	-1036
▁अध्यक्ष	-1037
तम	-1038
▁सकते	-1039
▁करतो	-1040
▁बो	-1041
वण	-1042
▁मजबूत	-1043
▁नागरिक	-1044
ंच्या	-1045
आई	-1046
▁विष	-1047
▁पंतप्रधानांनी	-1048
▁महत्वपूर्ण	-1049
▁तब	-1050
▁प्रक	-1051
▁ऊर्जा	-1052
▁सुरक्षा	-1053
▁दौर	-1054
▁अंतर	-1055
▁कार्यालय	-1056
▁चार	-1057
▁असलेल्या	-1058
▁मंत्रिमंड	-1059
▁टा	-1060
▁सहयोग	-1061
▁देशा	-1062
▁जिन	-1063
▁झाली	-1064
▁रही	-1065
र्गत	-1066
▁बारे	-1067
▁मोठ	-1068
ंट	-1069
▁सुरु	-1070
▁प्रयत्न	-1071
▁विविध	-1072
शल	-1073
▁बढ़ा	-1074
्यांनी	-1075
पर्	-1076
ांस	-1077
▁किसी	-1078
मे	-1079
वले	-1080
▁सबसे	-1081
▁संबंधित	-1082
मिल	-1083
ढा	-1084
▁नाम	-1085
वरी	-1086
▁वस्त	-1087
वेळी	-1088
▁देखील	-1089
▁बदल	-1090
▁श्र	-1091
▁जाने	-1092
▁मैंने	-1093
▁दौरान	-1094
▁पाठ	-1095
र्त	-1096
▁अवसर	-1097
▁चे	-1098
▁नियम	-1099
▁दुनिया	-1100
▁समझ	-1101
यक	-1102
ात्म	-1103
▁पवित्र	-1104
ंतु	-1105
▁होत	-1106
▁मिल	-1107
यर	-1108
▁जास्त	-1109
▁मित्र	-1110
▁बां	-1111
▁महाम	-1112
नात	-1113
▁आला	-1114
▁व्यापार	-1115
▁आन	-1116
▁हवा	-1117
▁भगवान	-1118
यन	-1119
000	-1120
एं	-1121
▁19	-1122
ुरू	-1123
▁हजार	-1124
दर्श	-1125
▁मदत	-1126
ांसाठी	-1127
काश	-1128
▁पड	-1129
▁जु	-1130
▁कल्या	-1131
▁केल्या	-1132
ूल	-1133
▁दोनों	-1134
वून	-1135
▁जेव	-1136
▁इसे	-1137
▁व्यक्ति	-1138
▁देने	-1139
ूरी	-1140
▁10	-1141
िन्न	-1142
▁करून	-1143
▁कौ	-1144
▁लि	-1145
▁गरी	-1146
▁परिष	-1147
▁ज्ञ	-1148
▁8	-1149
▁हमें	-1150
▁वापर	-1151
▁विकस	-1152
न्न	-1153
वड	-1154
सि	-1155
कडून	-1156
▁बार	-1157
क्षी	-1158
▁चित्र	-1159
यास	-1160
▁एम	-1161
भग	-1162
▁आगे	-1163
▁तरी	-1164
व्या	-1165
▁करेंगे	-1166
▁ओर	-1167
ID	-1168
▁चर्चा	-1169
▁मध्ये	-1170
▁करणे	-1171
▁अशी	-1172
बाबत	-1173
स्ते	-1174
▁स्थित	-1175
ंची	-1176
▁माम	-1177
▁उनकी	-1178
शोध	-1179
▁सामा	-1180
▁एन	-1181
▁शरी	-1182
▁9	-1183
▁विभाग	-1184
▁येत	-1185
जू	-1186
▁झाला	-1187
ेड	-1188
र्स	-1189
▁तुझ्या	-1190
▁तुम्हाला	-1191
▁कोण	-1192
▁क्षमता	-1193
▁शुरू	-1194
मधील	-1195
▁तहत	-1196
▁मुल	-1197
▁विकसित	-1198
▁आवा	-1199
ियन	-1200
जिक	-1201
▁जैसे	-1202
ूंगा	-1203
▁खिला	-1204
आय	-1205
▁आई	-1206
▁आवश्यकता	-1207
▁धन	-1208
ंदर	-1209
▁फि	-1210
▁निर	-1211
स्कृ	-1212
▁निर्म	-1213
▁पहु	-1214
39	-1215
▁रेल्वे	-1216
▁क्षेत्रात	-1217
ोजित	-1218
▁साल	-1219
▁पाया	-1220
ध्या	-1221
▁चु	-1222
▁आया	-1223
▁प्रभ	-1224
हास	-1225
▁व्यव	-1226
▁निर्ण	-1227
ृह	-1228
▁संरक्षण	-1229
▁CO	-1230
ात्मक	-1231
▁मौ	-1232
शील	-1233
▁शे	-1234
ंभ	-1235
▁तयार	-1236
्यांच्या	-1237
▁लिया	-1238
▁शामिल	-1239
▁कल्याण	-1240
▁सौ	-1241
▁हुआ	-1242
▁विभ	-1243
▁आद	-1244
▁उत्पादन	-1245
VID	-1246
स्कार	-1247
पूर्व	-1248
नंतर	-1249
▁भे	-1250
▁संयुक्त	-1251
▁सां	-1252
▁निक	-1253
▁बांध	-1254
▁विश्व	-1255
ियम	-1256
▁आमच्या	-1257
▁प्रोत्	-1258
श्च	-1259
▁दिला	-1260
्रो	-1261
▁भविष	-1262
▁पे	-1263
▁विभिन्न	-1264
▁प्रोत्सा	-1265
▁गरीब	-1266
▁आनंद	-1267
ंह	-1268
▁परिय	-1269
▁COVID	-1270
▁आपके	-1271
▁मिळा	-1272
धे	-1273
▁लॉ	-1274
▁करें	-1275
▁महान	-1276
▁सार्व	-1277
▁मूल	-1278
▁परियोजना	-1279
त्ती	-1280
इन	-1281
▁शिक्षा	-1282
रिक	-1283
स्थित	-1284
▁युवा	-1285
वाय	-1286
▁कंप	-1287
▁प्रक्र	-1288
▁ब्र	-1289
▁15	-1290
पणे	-1291
▁नवीन	-1292
ाती	-1293
▁यासाठी	-1294
▁पद	-1295
▁ऑफ	-1296
पुर	-1297
▁देशात	-1298
▁पाहिजे	-1299
षण	-1300
▁आदि	-1301
बद्ध	-1302
क्षित	-1303
▁संशोध	-1304
▁सच	-1305
ोट	-1306
गतिक	-1307
▁पाह	-1308
▁प्रयास	-1309
▁उच्च	-1310
▁I	-1311
कीय	-1312
▁ढ	-1313
▁क्षेत्रों	-1314
▁संख्या	-1315
▁तै	-1316
तन	-1317
▁लगभग	-1318
वत	-1319
▁सहाय	-1320
ुष्य	-1321
▁दोन्ही	-1322
▁बनाने	-1323
▁मार	-1324
▁परंतु	-1325
विषयी	-1326
▁2017	-1327
▁मुला	-1328
▁जागतिक	-1329
▁अर्थव्य	-1330
&#	-1331
39;	-1332
&#39;	-1333
करी	-1334
्ल	-1335
▁परी	-1336
ण्याचा	-1337
प्त	-1338
▁१	-1339
▁माल	-1340
▁आयोजित	-1341
▁पर्या	-1342
ैस	-1343
▁पृ	-1344
ोजने	-1345
▁बस	-1346
▁नई	-1347
▁खिलाफ	-1348
▁टक्	-1349
▁परिणा	-1350
▁सामाजिक	-1351
▁दुस	-1352
▁कराय	-1353
▁विज्ञान	-1354
▁आज्ञ	-1355
▁पिछ	-1356
णारे	-1357
निश्चित	-1358
▁जारी	-1359
▁दृष्ट	-1360
▁हों	-1361
ण्याचे	-1362
▁वेग	-1363
▁असते	-1364
▁अधिकार	-1365
▁आक	-1366
▁नौ	-1367
▁ट्र	-1368
▁बच्च	-1369
ंगे	-1370
▁सुनिश्चित	-1371
▁गां	-1372
▁देशों	-1373
लेम	-1374
▁जाती	-1375
▁प्रभाव	-1376
▁नेत	-1377
▁किसान	-1378
म्म	-1379
▁कर्म	-1380
▁येश	-1381
▁केवल	-1382
वारी	-1383
▁भूमि	-1384
▁अपना	-1385
▁;	-1386
जनिक	-1387
खे	-1388
धिक	-1389
ल्म	-1390
ियान	-1391
▁पानी	-1392
्वी	-1393
▁जीव	-1394
▁हमारी	-1395
▁बच्चों	-1396
▁सात	-1397
▁केलेल्या	-1398
▁अग	-1399
ताना	-1400
एफ	-1401
▁करुन	-1402
ांवर	-1403
▁शिक	-1404
▁भागी	-1405
▁पिता	-1406
▁विद्या	-1407
खर	-1408
▁मृ	-1409
▁येशू	-1410
▁विस्त	-1411
ंचे	-1412
ुसार	-1413
▁सार्वजनिक	-1414
ासन	-1415
▁जेव्हा	-1416
ांड	-1417
धि	-1418
▁मदद	-1419
▁योजने	-1420
▁वर	-1421
▁चौ	-1422
क्षम	-1423
द्वारे	-1424
▁औष	-1425
वासी	-1426
▁योग्य	-1427
▁प्रशिक्ष	-1428
ित्	-1429
▁उद्देश	-1430
शलेम	-1431
▁परिणाम	-1432
▁प्रसार	-1433
▁तुम्हारे	-1434
▁उपाय	-1435
ळ्या	-1436
▁कर्	-1437
▁कान	-1438
होत	-1439
मो	-1440
▁आस	-1441
▁यो	-1442
चन	-1443
▁सैन	-1444
क्स	-1445
▁देता	-1446
फा	-1447
ेंट	-1448
कारी	-1449
राष्ट्रीय	-1450
▁आहोत	-1451
▁घोष	-1452
ध्	-1453
पूर	-1454
हित	-1455
▁देण्यात	-1456
ंबई	-1457
▁प्रे	-1458
▁आए	-1459
▁बाहर	-1460
▁वृद्ध	-1461
▁संपूर्ण	-1462
▁बता	-1463
▁पूरा	-1464
▁ऐक	-1465
▁तुला	-1466
▁प्रकल्प	-1467
▁आपले	-1468
▁झालेल्या	-1469
▁संघ	-1470
▁त्याचे	-1471
▁दाख	-1472
▁असल्याचे	-1473
▁आदमी	-1474
▁झाल्या	-1475
ज्	-1476
▁घेऊन	-1477
मीण	-1478
▁संब	-1479
▁अल	-1480
▁होतो	-1481
ाते	-1482
ग्रह	-1483
▁मंत्रालया	-1484
ंनी	-1485
▁यहाँ	-1486
चल	-1487
▁यात्रा	-1488
▁दक्ष	-1489
▁उसकी	-1490
▁अनुसार	-1491
▁शेत	-1492
एन	-1493
हरा	-1494
▁डिज	-1495
▁दूस	-1496
▁प्रग	-1497
वक	-1498
▁इत	-1499
▁निर्णय	-1500
▁महारा	-1501
▁बैठक	-1502
▁आज्ञा	-1503
तीने	-1504
▁12	-1505
▁टी	-1506
▁गुजर	-1507
▁जवळ	-1508
ब्द	-1509
▁प्रमाण	-1510
▁परिवार	-1511
स्प	-1512
शिया	-1513
▁फिल्म	-1514
तिहास	-1515
▁आंतर	-1516
▁प्रौ	-1517
भे	-1518
▁गति	-1519
्याने	-1520
▁गेल्या	-1521
पै	-1522
र्ड	-1523
▁नाहीत	-1524
ंदा	-1525
ेंबर	-1526
▁ग्रामीण	-1527
▁मै	-1528
▁प्रक्रिया	-1529
▁तेल	-1530
▁शरीर	-1531
▁चिक	-1532
▁पाप	-1533
ापन	-1534
▁चल	-1535
▁हिस्	-1536
▁पृथ	-1537
एँ	-1538
▁नदी	-1539
त्ता	-1540
▁भूम	-1541
▁मुंबई	-1542
टु	-1543
▁इं	-1544
▁करु	-1545
सम	-1546
▁याह	-1547
▁संधी	-1548
िटल	-1549
▁पिछले	-1550
▁होणार	-1551
▁वन	-1552
▁जाईल	-1553
▁तंत्रज्ञान	-1554
▁स्वी	-1555
▁अला	-1556
्याच्या	-1557
रुष	-1558
ंती	-1559
▁संबोध	-1560
▁पृथ्वी	-1561
▁भाव	-1562
▁गर्	-1563
देशी	-1564
वरील	-1565
▁मेरी	-1566
मक	-1567
▁यदि	-1568
▁हुई	-1569
मीटर	-1570
▁प्रौद्योग	-1571
ट्ट	-1572
▁किलो	-1573
िता	-1574
▁रुग्ण	-1575
▁एव	-1576
राष्ट्र	-1577
मार्	-1578
भूत	-1579
▁वित्त	-1580
म्यान	-1581
▁मर	-1582
▁आपको	-1583
▁सुरू	-1584
▁भूमिका	-1585
्यता	-1586
▁गेले	-1587
▁गृह	-1588
रू	-1589
▁पुरस्कार	-1590
▁यहूदा	-1591
▁योगदान	-1592
▁शां	-1593
▁सामने	-1594
▁येईल	-1595
▁उठ	-1596
▁घड	-1597
▁रक्त	-1598
▁उपस्थित	-1599
▁समस	-1600
▁नए	-1601
सु	-1602
▁ध्यान	-1603
▁चि	-1604
▁लो	-1605
▁अं	-1606
ासा	-1607
▁करू	-1608
पेक्षा	-1609
मान्य	-1610
▁राज्यों	-1611
▁भेट	-1612
▁प्रयोग	-1613
ण्याच्या	-1614
▁आध	-1615
झा	-1616
साय	-1617
▁कुटु	-1618
पु	-1619
▁व्हा	-1620
्ड	-1621
▁यावेळी	-1622
,000	-1623
पाल	-1624
▁आठ	-1625
▁प्रणा	-1626
▁सफ	-1627
▁मुलगा	-1628
इल	-1629
टना	-1630
▁अलावा	-1631
▁सूचना	-1632
▁च्या	-1633
▁याज	-1634
र्च	-1635
▁विकासा	-1636
तियों	-1637
मन	-1638
▁वाली	-1639
ॉल	-1640
नाथ	-1641
यू	-1642
▁अगर	-1643
▁डि	-1644
यं	-1645
▁पीएम	-1646
▁परिवर्	-1647
ल्ले	-1648
स्त्र	-1649
शत	-1650
ूह	-1651
▁डिजिटल	-1652
▁स्प	-1653
▁जय	-1654
▁मूर्	-1655
▁बाजार	-1656
▁व्यक्ती	-1657
▁पुन्हा	-1658
▁समाज	-1659
▁आयोग	-1660
▁रोजगार	-1661
▁शब्द	-1662
▁महत्वा	-1663
▁समावेश	-1664
सह	-1665
▁हमने	-1666
▁छो	-1667
▁धोर	-1668
),	-1669
▁पत्	-1670
▁देखा	-1671
▁सचिव	-1672
▁पर्यटन	-1673
▁मत	-1674
▁!	-1675
▁मध	-1676
▁अभि	-1677
▁प्रकाश	-1678
नीय	-1679
▁फे	-1680
▁एकत्र	-1681
▁जोड	-1682
▁वर्षों	-1683
▁करण्याची	-1684
▁पुरुष	-1685
पण	-1686
▁चित्रपट	-1687
▁पुढे	-1688
▁लोकांनी	-1689
लक	-1690
▁ठर	-1691
फी	-1692
▁शक्ति	-1693
▁ठिका	-1694
▁उद्या	-1695
▁राष्ट्रपति	-1696
▁न्याय	-1697
ोव	-1698
▁निवड	-1699
▁मंड	-1700
▁त्याचा	-1701
▁मानव	-1702
▁गुंत	-1703
▁व्यवस्थ	-1704
▁दिस	-1705
▁काढ	-1706
▁सरकारने	-1707
▁किलोमीटर	-1708
▁ऐसा	-1709
▁पूरी	-1710
▁भविष्य	-1711
▁दक्षि	-1712
▁यहां	-1713
▁माझे	-1714
▁समझौ	-1715
▁बढ़ावा	-1716
▁भारतात	-1717
▁स्थापित	-1718
शय	-1719
▁मोठ्या	-1720
▁करीत	-1721
▁केवळ	-1722
▁त्यांचे	-1723
▁सिंह	-1724
▁आह	-1725
िक्स	-1726
▁बाब	-1727
खंड	-1728
▁रक्षा	-1729
राम	-1730
▁कृषि	-1731
▁मामलों	-1732
▁सर्वात	-1733
▁प्रौद्योगिकी	-1734
▁प्रभु	-1735
▁बंद	-1736
हेर	-1737
▁उद्य	-1738
▁सोड	-1739
▁मनुष्य	-1740
▁मात्र	-1741
▁आत	-1742
▁प्रोत्साहन	-1743
▁लगा	-1744
▁जिसमें	-1745
दर्शन	-1746
▁होगी	-1747
▁कोणी	-1748
▁महाराष्ट	-1749
खाली	-1750
▁शोध	-1751
▁स्तर	-1752
▁२	-1753
पैकी	-1754
▁समर्थ	-1755
्यास	-1756
▁प्रेर	-1757
▁संदेश	-1758
▁गुंतवण	-1759
▁समुद्र	-1760
▁अड	-1761
▁पर्व	-1762
▁आत्मा	-1763
जवळ	-1764
थील	-1765
ूट	-1766
जों	-1767
▁बेट	-1768
▁डी	-1769
▁तैयार	-1770
▁पहि	-1771
▁बच्	-1772
▁संशोधन	-1773
▁अर्थव्यवस्था	-1774
▁करतात	-1775
▁प्रशिक्षण	-1776
▁नव्ह	-1777
यला	-1778
▁वं	-1779
▁टक्के	-1780
निर्	-1781
▁संग	-1782
द्धा	-1783
▁M	-1784
ोप	-1785
▁निर्मिती	-1786
ुरी	-1787
ण्यास	-1788
▁जाना	-1789
इट	-1790
▁पर्यंत	-1791
बे	-1792
इयों	-1793
▁11	-1794
ॉन	-1795
भागी	-1796
▁संस्था	-1797
वणी	-1798
▁सक्षम	-1799
▁ग्र	-1800
▁सीमा	-1801
▁माध्यमातून	-1802
▁गांधी	-1803
ल्ला	-1804
वली	-1805
▁प्रणाली	-1806
▁विस्तार	-1807
कु	-1808
▁बंध	-1809
न्स	-1810
▁संस	-1811
▁परत	-1812
▁व्यवस्था	-1813
▁क्षेत्रा	-1814
▁मंजूरी	-1815
▁खो	-1816
▁नस	-1817
ेंस	-1818
▁दौ	-1819
▁खरे	-1820
▁आंतरराष्ट्रीय	-1821
▁प्रतिनि	-1822
▁गुजरात	-1823
▁मार्च	-1824
लब	-1825
▁तुम्हें	-1826
रिक्त	-1827
▁बल्	-1828
▁परिषद	-1829
▁वैश्व	-1830
▁कुल	-1831
राष्ट्रप	-1832
▁जून	-1833
▁वास्त	-1834
दला	-1835
▁आने	-1836
▁अधिकारी	-1837
क्टर	-1838
▁कधी	-1839
ांनो	-1840
▁सहकार्य	-1841
त्वा	-1842
▁भागीदारी	-1843
▁संबोधित	-1844
▁प्रवेश	-1845
▁भारताच्या	-1846
राज	-1847
ल्लेख	-1848
▁टे	-1849
▁उल्लेख	-1850
तीत	-1851
हरी	-1852
▁आत्म	-1853
▁माझा	-1854
▁30	-1855
▁जोर	-1856
क्षीय	-1857
▁P	-1858
▁होऊ	-1859
▁आपल्याला	-1860
▁परमेश्वराने	-1861
▁बँ	-1862
▁तुल	-1863
▁समर्प	-1864
▁बनाया	-1865
▁कुटुंब	-1866
▁निश्चित	-1867
▁वैश्विक	-1868
ऱ्यां	-1869
▁कहते	-1870
▁करो	-1871
दय	-1872
an	-1873
ैल	-1874
▁आयु	-1875
▁ताकि	-1876
▁यामुळे	-1877
▁देशातील	-1878
ंस	-1879
▁रे	-1880
घाटन	-1881
लाई	-1882
▁पाणी	-1883
▁नाव	-1884
▁समस्या	-1885
▁उपराष्ट्रप	-1886
ातल्या	-1887
▁&#39;	-1888
▁गरज	-1889
तु	-1890
रावर	-1891
▁कृषी	-1892
▁वेळ	-1893
▁रुपया	-1894
▁कप	-1895
▁अच्छ	-1896
गरी	-1897
▁पश्च	-1898
▁25	-1899
▁करारा	-1900
▁सुरक्षित	-1901
▁उठा	-1902
ब्र	-1903
▁बैं	-1904
▁सम्	-1905
▁दिनों	-1906
▁जाऊ	-1907
▁अन्न	-1908
▁शौ	-1909
▁शकतो	-1910
▁दोस्त	-1911
▁महाराष्ट्र	-1912
▁एखा	-1913
स्थान	-1914
िरा	-1915
मीन	-1916
▁24	-1917
▁देण्यासाठी	-1918
▁नंतर	-1919
ांच	-1920
▁तेथे	-1921
▁लागू	-1922
▁अनुभव	-1923
▁महामारी	-1924
ित्त	-1925
▁जिन्ह	-1926
▁आधारित	-1927
णारा	-1928
स्थिती	-1929
▁मुद्	-1930
▁आणखी	-1931
▁कोरो	-1932
यल	-1933
▁याहवे	-1934
▁जिल	-1935
▁एस	-1936
▁वार	-1937
कट	-1938
▁त्यांची	-1939
▁फा	-1940
▁स्थिति	-1941
▁मध्य	-1942
▁निवेश	-1943
▁प्रार्थ	-1944
ानों	-1945
वला	-1946
▁साध	-1947
पणा	-1948
ुनिक	-1949
▁नगर	-1950
▁प्रस्ता	-1951
तों	-1952
▁करणार	-1953
▁मृत्य	-1954
मेंट	-1955
बल	-1956
▁14	-1957
▁बेह	-1958
▁याद	-1959
▁गुण	-1960
मीर	-1961
▁प्रभा	-1962
▁रेलवे	-1963
श्र	-1964
ांला	-1965
▁नियंत्र	-1966
काम	-1967
▁संस्कृ	-1968
▁करार	-1969
▁व्यवहार	-1970
देख	-1971
हून	-1972
▁पं	-1973
▁कौशल	-1974
▁जिसे	-1975
कडा	-1976
▁चिकित्	-1977
▁18	-1978
▁याजक	-1979
▁राम	-1980
▁मही	-1981
▁नये	-1982
▁पार्	-1983
▁काळात	-1984
▁जन्	-1985
▁घोषणा	-1986
-1	-1987
▁होंगे	-1988
बि	-1989
▁दावी	-1990
▁समार	-1991
▁टाक	-1992
▁परा	-1993
▁गेला	-1994
लेली	-1995
▁संकल्प	-1996
▁परीक्षण	-1997
▁स्थापना	-1998
दन	-1999
▁बड़ी	-2000
▁उपचार	-2001
▁तथा	-2002
▁खुद	-2003
कृत	-2004
तून	-2005
▁शिक्षण	-2006
लं	-2007
▁उद्घाटन	-2008
▁पुरव	-2009
▁मिशन	-2010
▁बच्चे	-2011
▁बढ़ाने	-2012
▁त्याची	-2013
▁बहु	-2014
▁नेतृ	-2015
▁ऊपर	-2016
▁पालन	-2017
▁विमान	-2018
ँच	-2019
▁"	-2020
▁बाहेर	-2021
▁माग	-2022
ध्द	-2023
▁समृद्ध	-2024
▁संप	-2025
▁ज्ञान	-2026
▁समुदा	-2027
▁वृद्धि	-2028
▁रोजी	-2029
तंत्र	-2030
▁पहा	-2031
्ला	-2032
▁अभियान	-2033
ोड	-2034
▁पद्ध	-2035
▁दक्षिण	-2036
ात्	-2037
▁परिवर्तन	-2038
▁दू	-2039
ंबा	-2040
ेशा	-2041
▁द्या	-2042
▁प्रार्थना	-2043
▁वित्	-2044
▁उत्प	-2045
▁पत्र	-2046
▁अमेर	-2047
▁50	-2048
▁संसा	-2049
▁समान	-2050
िड	-2051
▁अर्	-2052
▁व्यापक	-2053
▁13	-2054
▁इच्छा	-2055
▁स्मार	-2056
वाह	-2057
▁सरकारी	-2058
▁स्वागत	-2059
▁सामान्य	-2060
▁पेट	-2061
▁सध्या	-2062
▁राष्ट्रपती	-2063
टले	-2064
ियाँ	-2065
▁यश	-2066
▁वित्तीय	-2067
▁स्वीकार	-2068
▁शांति	-2069
हान	-2070
▁`	-2071
▁दृष्टी	-2072
▁S	-2073
▁समर्थन	-2074
मती	-2075
▁कला	-2076
▁वाहत	-2077
▁जैसा	-2078
ंसा	-2079
▁सप	-2080
▁फाय	-2081
▁सहभागी	-2082
▁वचन	-2083
विक	-2084
▁भावना	-2085
▁देते	-2086
▁करती	-2087
क्रमा	-2088
▁सदस्य	-2089
लू	-2090
▁संवाद	-2091
ज्ञानिक	-2092
▁पाच	-2093
▁पूरे	-2094
▁वर्त	-2095
▁मूल्य	-2096
▁करायला	-2097
▁अह	-2098
▁त्याच	-2099
ुट	-2100
▁बच	-2101
▁रुग्णा	-2102
डू	-2103
दम	-2104
लेला	-2105
▁संत	-2106
▁बल्कि	-2107
रों	-2108
▁संचा	-2109
▁सम्म	-2110
▁चिकित्सा	-2111
▁एल	-2112
ियो	-2113
▁करण्याचे	-2114
▁शै	-2115
ार्ट	-2116
▁धोरण	-2117
नाच्या	-2118
▁दोस्तों	-2119
▁हवाई	-2120
▁त्यामुळे	-2121
शिष्ट	-2122
ष्ट्रीय	-2123
▁स्वयं	-2124
ूण	-2125
ड़क	-2126
▁प्रभावी	-2127
▁सग	-2128
▁रात	-2129
्राष्ट्रीय	-2130
ांक	-2131
▁आयोजन	-2132
मत	-2133
भात	-2134
ढे	-2135
▁देत	-2136
भू	-2137
▁एप्र	-2138
▁सम्मान	-2139
▁सुल	-2140
▁येणार	-2141
ईट	-2142
देखील	-2143
नुसार	-2144
काळ	-2145
▁अर्प	-2146
सव	-2147
▁आजार	-2148
रिया	-2149
णीय	-2150
▁तुझे	-2151
▁रि	-2152
▁व्ह	-2153
▁येथील	-2154
ोह	-2155
▁त्व	-2156
▁सत	-2157
▁आकर्ष	-2158
▁आल्या	-2159
ऱ्यांना	-2160
ड़ों	-2161
▁किसानों	-2162
▁अफ	-2163
▁यरु	-2164
क्रिय	-2165
▁उसका	-2166
▁पक्ष	-2167
▁अंतर्राष्ट्रीय	-2168
ेलन	-2169
▁आशा	-2170
िपक्षीय	-2171
▁वर्षात	-2172
▁पर्यावरण	-2173
▁डो	-2174
▁हस्ता	-2175
वेत	-2176
शान	-2177
▁कल	-2178
▁सरा	-2179
▁पड़	-2180
▁मना	-2181
▁घेतला	-2182
▁भाष	-2183
▁उपक्रम	-2184
▁खात	-2185
▁करतील	-2186
▁आपला	-2187
▁कंपन	-2188
▁शत्र	-2189
स्ती	-2190
▁वृ	-2191
विले	-2192
▁पोहो	-2193
काल	-2194
▁त्यांचा	-2195
▁A	-2196
▁बड़े	-2197
सिद्ध	-2198
▁जनते	-2199
▁प्रस्ताव	-2200
▁21	-2201
ांशी	-2202
▁अंम	-2203
▁अंग	-2204
▁वैज्ञानिक	-2205
नेट	-2206
ोरे	-2207
▁मिळेल	-2208
सिक	-2209
▁नका	-2210
▁महिन	-2211
▁मेरा	-2212
क्षे	-2213
▁विद्यार्थ	-2214
।";	-2215
्याला	-2216
▁भोजन	-2217
▁सहायता	-2218
▁इथे	-2219
▁कोरोना	-2220
▁स्वच्छता	-2221
स्क	-2222
▁निर्देश	-2223
▁दिशा	-2224
बाद	-2225
▁नीति	-2226
▁फार	-2227
▁शी	-2228
▁वर्	-2229
▁बनाए	-2230
▁स्पर्	-2231
▁अधिका	-2232
▁दुष्ट	-2233
कू	-2234
▁ठे	-2235
िज्य	-2236
▁100	-2237
▁चाच	-2238
▁लव	-2239
ाच्या	-2240
▁स्वतंत्र	-2241
▁आपली	-2242
▁पायाभूत	-2243
▁द्विपक्षीय	-2244
▁तकनी	-2245
ंबर	-2246
▁दिल	-2247
▁लक्षात	-2248
▁वाच	-2249
▁चुन	-2250
पान	-2251
दर्शक	-2252
▁मंजुरी	-2253
ोर्ट	-2254
णिज्य	-2255
▁नीचे	-2256
▁उत्तम	-2257
▁कानून	-2258
▁समर्पित	-2259
ar	-2260
▁स्वर्ग	-2261
▁नष्ट	-2262
▁धन्य	-2263
रोध	-2264
▁सम्मेलन	-2265
ळख	-2266
▁जंग	-2267
▁संपर्	-2268
▁शेतक	-2269
▁देशाच्या	-2270
▁बेहतर	-2271
पूर्वी	-2272
▁छात्र	-2273
▁संदर्	-2274
वण्यासाठी	-2275
▁निका	-2276
▁बुन	-2277
▁खर्च	-2278
▁डे	-2279
बंधन	-2280
▁खास	-2281
▁हात	-2282
▁शांत	-2283
▁-19	-2284
▁पहल	-2285
▁बरे	-2286
▁रखा	-2287
▁मात	-2288
▁नाश	-2289
▁निम	-2290
▁पोर्ट	-2291
▁आग	-2292
श्वर	-2293
▁इससे	-2294
▁सकती	-2295
▁नम	-2296
▁वाणिज्य	-2297
▁पेश	-2298
▁सफल	-2299
किंग	-2300
▁अज	-2301
▁मित्रांनो	-2302
िश	-2303
▁देवाने	-2304
ठे	-2305
▁खरी	-2306
ल्स	-2307
▁होना	-2308
▁यांना	-2309
▁ऐसे	-2310
▁वाईट	-2311
▁म्हटले	-2312
▁ट्रे	-2313
िरी	-2314
▁दुर्	-2315
▁परिषदे	-2316
▁N	-2317
▁अंतर्गत	-2318
▁202	-2319
▁लक्ष्य	-2320
▁खे	-2321
▁चांगले	-2322
ृत	-2323
शिवाय	-2324
▁वैद्य	-2325
▁आम्हाला	-2326
ल्ड	-2327
▁16	-2328
▁याचा	-2329
in	-2330
▁सुंदर	-2331
▁दुसऱ्या	-2332
▁बचा	-2333
▁जन्म	-2334
▁न्या	-2335
▁सश	-2336
▁विन	-2337
▁उद्देश्य	-2338
सो	-2339
वाई	-2340
्यांची	-2341
कर्	-2342
▁संकट	-2343
णारी	-2344
▁कोणत्या	-2345
▁अतिरिक्त	-2346
▁1.	-2347
▁नेह	-2348
▁बताया	-2349
▁सुधारणा	-2350
▁देगा	-2351
ज्ञाना	-2352
▁दरम्यान	-2353
▁यरुशलेम	-2354
ज्ज	-2355
वहन	-2356
▁एवं	-2357
वू	-2358
उन	-2359
ंदी	-2360
▁वर्ग	-2361
▁भु	-2362
▁लॉकडा	-2363
म्मू	-2364
▁अत्य	-2365
्यावर	-2366
▁बड़ा	-2367
▁मंत्रिमंडळ	-2368
ैर	-2369
स्वी	-2370
▁प्रतिबद्ध	-2371
▁करण्याच्या	-2372
चीन	-2373
▁बाल	-2374
रित	-2375
▁संपर्क	-2376
ंद्र	-2377
▁ऑन	-2378
▁पोहोच	-2379
न्फ	-2380
▁सन्	-2381
ियादी	-2382
पन	-2383
रुद्ध	-2384
ूर्	-2385
▁अतिशय	-2386
▁बैठकी	-2387
▁पश्चिम	-2388
▁बुनियादी	-2389
▁सामना	-2390
▁समाधान	-2391
▁औषध	-2392
▁करण्याचा	-2393
▁मुक्त	-2394
▁0	-2395
▁वाप	-2396
स्तान	-2397
▁स्पष्ट	-2398
▁पर्यटक	-2399
चर	-2400
▁मिस	-2401
▁पौ	-2402
▁बुद्ध	-2403
▁कैसे	-2404
▁समझौता	-2405
▁'	-2406
▁प्रसिद्ध	-2407
▁चुनौ	-2408
▁एफ	-2409
▁सला	-2410
▁इसका	-2411
▁जरूर	-2412
▁सहित	-2413
▁वर्तमान	-2414
▁दया	-2415
्याचा	-2416
▁पहुंच	-2417
▁प्रेम	-2418
कारात्मक	-2419
्यांमध्ये	-2420
दों	-2421
▁17	-2422
▁नेहमी	-2423
र्फ	-2424
▁चला	-2425
▁रखने	-2426
▁प्रयोगशा	-2427
स्पर	-2428
▁समूह	-2429
ंतर्गत	-2430
▁मंत्रिमंडल	-2431
श्मीर	-2432
▁घेतली	-2433
▁यी	-2434
▁करके	-2435
▁मिला	-2436
▁लेने	-2437
▁क्षेत्रातील	-2438
्रिक	-2439
▁वैद्यकीय	-2440
एच	-2441
▁बिना	-2442
जावणी	-2443
वृ	-2444
▁तल	-2445
▁जम्मू	-2446
▁धो	-2447
मारे	-2448
▁छोड़	-2449
▁यीशु	-2450
लबजावणी	-2451
चीत	-2452
ुकी	-2453
▁पाहिले	-2454
▁असतो	-2455
णासाठी	-2456
शेने	-2457
▁आधुनिक	-2458
▁समज	-2459
▁ऋ	-2460
▁नवा	-2461
▁असतात	-2462
▁दिवशी	-2463
सू	-2464
▁नेतृत्व	-2465
▁ठिकाणी	-2466
▁उत्पन्न	-2467
▁तुम्हांला	-2468
▁गिर	-2469
▁एकूण	-2470
▁करीन	-2471
▁पूर्वी	-2472
▁तेरा	-2473
▁अंमलबजावणी	-2474
ष्क	-2475
▁उदा	-2476
▁लागत	-2477
▁मॉ	-2478
सारख्या	-2479
लीन	-2480
एसटी	-2481
▁हमेशा	-2482
▁घाल	-2483
▁रंग	-2484
▁उससे	-2485
▁दर्श	-2486
▁युद्ध	-2487
्यांचे	-2488
▁पहिल्या	-2489
▁ओळख	-2490
▁आवाहन	-2491
▁लघ	-2492
▁विभा	-2493
▁अभ्यास	-2494
दू	-2495
ळून	-2496
▁दूसरे	-2497
▁गण	-2498
▁सूर्य	-2499
▁अधिकारियों	-2500
▁देशभर	-2501
▁एप्रिल	-2502
▁आयुष	-2503
▁महीने	-2504
▁परियोजनाओं	-2505
▁निधी	-2506
ंख	-2507
▁नुक	-2508
▁उत्त	-2509
▁हृ	-2510
▁बिज	-2511
▁बातचीत	-2512
▁वें	-2513
▁कदम	-2514
▁सामंज	-2515
वाल	-2516
▁असो	-2517
▁प्रयासों	-2518
▁मध्यम	-2519
मार्ग	-2520
द्रा	-2521
्ले	-2522
▁अध्यक्षता	-2523
▁इत्या	-2524
▁खाली	-2525
▁स्टार्ट	-2526
▁प्या	-2527
▁अभिन	-2528
▁आव्ह	-2529
▁सके	-2530
यां	-2531
▁अप्र	-2532
टल	-2533
थी	-2534
▁ताक	-2535
▁मोठी	-2536
्रि	-2537
▁लवकर	-2538
▁परिस्थिती	-2539
▁जगा	-2540
▁हित	-2541
▁पता	-2542
▁उदाहर	-2543
▁इतिहास	-2544
बाब	-2545
▁आँ	-2546
ऊद	-2547
▁मिले	-2548
▁नव्या	-2549
केल	-2550
िनी	-2551
▁200	-2552
नाव	-2553
▁शकते	-2554
▁सामंजस्य	-2555
▁करताना	-2556
हां	-2557
▁सौर	-2558
▁दिखा	-2559
▁निर्यात	-2560
▁खेल	-2561
▁सक्रिय	-2562
▁पैदा	-2563
▁मोठे	-2564
▁लाभार्थ	-2565
▁माझी	-2566
मधून	-2567
गड	-2568
-20	-2569
▁जगह	-2570
्याची	-2571
▁सेना	-2572
विद्या	-2573
▁एज	-2574
▁सुमारे	-2575
वाब	-2576
▁आहात	-2577
▁जिल्ह	-2578
▁महिलाओं	-2579
▁गुंतवणूक	-2580
चान	-2581
▁दाऊद	-2582
▁यू	-2583
दिष्ट	-2584
▁श्रे	-2585
ड़ने	-2586
▁वेळी	-2587
अंतर्गत	-2588
धान्य	-2589
▁प्राचीन	-2590
▁धर्म	-2591
ेक्षा	-2592
▁शिखर	-2593
अप	-2594
▁आशी	-2595
▁जुल	-2596
▁जहा	-2597
वर्धन	-2598
सल	-2599
ंदन	-2600
▁जमीन	-2601
वर्ष	-2602
▁दिल्या	-2603
▁राहि	-2604
▁तेजी	-2605
▁बदला	-2606
▁कठ	-2607
संद	-2608
ुओं	-2609
णाच्या	-2610
सत	-2611
धारित	-2612
▁साझा	-2613
▁वाता	-2614
▁प्रबंधन	-2615
▁घ्या	-2616
▁करावे	-2617
▁करणाऱ्या	-2618
थमिक	-2619
▁वस्तू	-2620
हीत	-2621
▁स्म	-2622
▁प्रश्	-2623
▁आधी	-2624
▁यरू	-2625
▁वाहतूक	-2626
क्क	-2627
▁अच्छा	-2628
▁नियंत्रण	-2629
ोगे	-2630
▁भाइयों	-2631
▁प्रकारे	-2632
ल्क	-2633
▁``	-2634
्याह	-2635
▁नों	-2636
▁दृष्टिक	-2637
सारखे	-2638
▁कार्यान	-2639
▁प्राथमिक	-2640
▁मोठा	-2641
▁गड	-2642
▁हिस्सा	-2643
लाइन	-2644
▁भ्र	-2645
▁कार्यान्व	-2646
▁तंत्रज्ञाना	-2647
▁आलेल्या	-2648
▁जहां	-2649
▁आशीर्	-2650
▁रण	-2651
▁दें	-2652
णाला	-2653
▁आवाज	-2654
▁लाल	-2655
▁यांचे	-2656
ांब	-2657
लेक्ट	-2658
▁सेवक	-2659
▁सुन	-2660
▁सड़क	-2661
▁दृष्टि	-2662
▁शासन	-2663
▁प्रगती	-2664
्याचे	-2665
▁जाणार	-2666
▁आपकी	-2667
तिहासिक	-2668
▁यरूशलेम	-2669
ईन	-2670
▁अवधि	-2671
▁प्रगति	-2672
लाव	-2673
▁जयंती	-2674
▁डाल	-2675
▁असतील	-2676
▁जाएगी	-2677
▁होतील	-2678
▁विज	-2679
ेच्या	-2680
णू	-2681
▁उनका	-2682
स्कृतिक	-2683
▁प्रतिशत	-2684
साद	-2685
▁वंश	-2686
▁रहने	-2687
००	-2688
▁निवास	-2689
▁टन	-2690
▁घरा	-2691
▁तत्	-2692
▁सदस	-2693
▁खुशी	-2694
खित	-2695
▁संगठ	-2696
▁ऐतिहासिक	-2697
▁सरकारच्या	-2698
▁शकत	-2699
▁परिवहन	-2700
ग्री	-2701
▁कॅ	-2702
▁हाला	-2703
▁अच्छी	-2704
ोम	-2705
▁जुलै	-2706
ूद	-2707
▁पीछ	-2708
▁पुढील	-2709
▁घाटन	-2710
▁चांगल्या	-2711
▁सिर	-2712
▁ज्ञापन	-2713
▁मान्यता	-2714
▁करील	-2715
वण्यात	-2716
▁ईश्वर	-2717
▁बधा	-2718
▁महि	-2719
▁माणसा	-2720
ांज	-2721
▁उभार	-2722
▁बधाई	-2723
▁आशीर्वाद	-2724
▁पट	-2725
▁इसी	-2726
▁इलेक्ट	-2727
▁उदाहरण	-2728
▁न्याया	-2729
▁अथ	-2730
▁31	-2731
▁प्रवास	-2732
▁सकारात्मक	-2733
क्षर	-2734
▁गौर	-2735
▁वेदी	-2736
िमित्त	-2737
ैंड	-2738
▁गुणव	-2739
▁मांस	-2740
▁प्रसारण	-2741
▁केंद्रित	-2742
ंमध्ये	-2743
▁सांस्कृतिक	-2744
▁जल्	-2745
▁अस्प	-2746
दु	-2747
▁शक्य	-2748
▁सैनिक	-2749
▁सें	-2750
गु	-2751
▁बैंक	-2752
▁माणूस	-2753
ूँ	-2754
्यांचा	-2755
▁रू	-2756
▁छोटे	-2757
्यांवर	-2758
▁शकतात	-2759
▁डॉक्टर	-2760
▁प्रशंसा	-2761
ंता	-2762
▁पदार्थ	-2763
हरे	-2764
▁गं	-2765
डिया	-2766
▁2016	-2767
▁मौजू	-2768
▁नियमित	-2769
▁समी	-2770
▁इत्यादी	-2771
▁दश	-2772
▁यावर	-2773
▁प्रतिक	-2774
ोस	-2775
िष्ठ	-2776
▁कभी	-2777
▁फ्र	-2778
▁आहेस	-2779
‍या	-2780
▁कार्यक्रमा	-2781
▁प्रदर्शन	-2782
▁व्याव	-2783
▁अलग	-2784
▁कल्प	-2785
म्मी	-2786
ूर्ति	-2787
▁गंगा	-2788
्रास	-2789
▁कामा	-2790
संधान	-2791
▁इथ	-2792
क्शन	-2793
▁किन	-2794
ीन	-2795
at	-2796
ग्रहा	-2797
भाल	-2798
शाली	-2799
▁नोंद	-2800
▁अनुसंधान	-2801
▁खाद्य	-2802
▁दावीद	-2803
एगा	-2804
▁जातो	-2805
ताल	-2806
▁पॅ	-2807
ेद	-2808
▁कळ	-2809
वों	-2810
▁हाल	-2811
▁लोकां	-2812
▁वाटते	-2813
▁शक्ती	-2814
▁कोणत्याही	-2815
▁करेल	-2816
▁फै	-2817
▁पुस्त	-2818
भीर	-2819
वाला	-2820
▁शहरों	-2821
▁यांचा	-2822
▁फक्त	-2823
▁येते	-2824
▁वितरण	-2825
▁गतिविध	-2826
▁धन्यवाद	-2827
.0	-2828
▁तुलना	-2829
▁शुभे	-2830
ष्टा	-2831
▁उनसे	-2832
ंगी	-2833
.5	-2834
रत	-2835
▁भागात	-2836
▁एखाद्या	-2837
ियां	-2838
▁राहा	-2839
▁उम्मी	-2840
▁उद्दिष्ट	-2841
30	-2842
हिम	-2843
▁कट	-2844
▁वरिष्ठ	-2845
हना	-2846
ल्पा	-2847
▁जाण	-2848
▁जिसके	-2849
▁22	-2850
-2	-2851
टने	-2852
गिरी	-2853
ठीक	-2854
▁कने	-2855
▁महोत्	-2856
▁असताना	-2857
▁समारोह	-2858
▁तीस	-2859
▁विषय	-2860
स्ट्र	-2861
▁उपकरण	-2862
▁परमेश्वराच्या	-2863
▁जित	-2864
▁ठीक	-2865
▁गुरु	-2866
िकल	-2867
▁पोह	-2868
ात्मा	-2869
▁मंदिरा	-2870
्ये	-2871
▁धा	-2872
▁किती	-2873
▁ली	-2874
▁शुभ	-2875
▁वातावरण	-2876
साथ	-2877
ोब	-2878
▁D	-2879
▁पहली	-2880
▁वाला	-2881
▁स्वतः	-2882
थम	-2883
▁गि	-2884
क्ता	-2885
▁तुमचा	-2886
▁दूंगा	-2887
▁स्वातंत्र	-2888
ऊल	-2889
▁प्रदर्श	-2890
▁देतो	-2891
▁चीज	-2892
▁रोक	-2893
▁अर	-2894
▁उद्यम	-2895
इड	-2896
▁सुना	-2897
▁हिमा	-2898
▁शुभेच्छा	-2899
व्ह	-2900
▁28	-2901
▁कंपनी	-2902
▁उम्मीद	-2903
ंटे	-2904
▁लघु	-2905
▁वहाँ	-2906
▁सर्वे	-2907
▁देवाच्या	-2908
अर	-2909
लंब	-2910
ित्व	-2911
▁बरो	-2912
▁भाई	-2913
▁मेट	-2914
▁जहाँ	-2915
▁जाएंगे	-2916
▁संसाधन	-2917
▁न्यू	-2918
▁नाय	-2919
तेखाली	-2920
▁स्थानी	-2921
▁यांची	-2922
▁दौरा	-2923
▁इज़	-2924
▁भाषण	-2925
▁काल	-2926
कृष्ट	-2927
▁कायम	-2928
▁प्रस	-2929
▁दृष्टिको	-2930
न्व	-2931
▁लढा	-2932
सायिक	-2933
▁भीतर	-2934
कां	-2935
▁यहु	-2936
मर	-2937
▁दवा	-2938
▁सिद्ध	-2939
as	-2940
तः	-2941
▁जिन्होंने	-2942
▁ऑग	-2943
▁महत्त्व	-2944
▁लेकर	-2945
▁राजस्थान	-2946
▁मूसा	-2947
▁औद्योग	-2948
▁ब्रिक्स	-2949
्टी	-2950
▁एकम	-2951
▁अध्यक्षतेखाली	-2952
▁घरे	-2953
काळी	-2954
▁दिए	-2955
▁याची	-2956
▁यंत्र	-2957
▁सामर्थ	-2958
गो	-2959
▁डॉल	-2960
▁दर्शन	-2961
▁आपूर्ति	-2962
▁राही	-2963
▁मामले	-2964
di	-2965
▁मंच	-2966
▁आदिवासी	-2967
र्न	-2968
ेला	-2969
रल	-2970
ॉक	-2971
▁अंध	-2972
कात	-2973
▁हवे	-2974
▁असलेले	-2975
▁भूमी	-2976
▁त्यात	-2977
▁गंभीर	-2978
ढी	-2979
राइल	-2980
▁तरीके	-2981
▁अत्यंत	-2982
▁पुरवठा	-2983
▁युवक	-2984
▁शोक	-2985
▁1,	-2986
द्री	-2987
▁संदे	-2988
▁स्त्री	-2989
▁परस्पर	-2990
ष्ण	-2991
ड्या	-2992
▁वाह	-2993
▁गोष्ट	-2994
रूप	-2995
चारी	-2996
त्मक	-2997
्राम	-2998
▁शुद्ध	-2999
▁संक्रम	-3000
▁गुणवत्ता	-3001
▁लोकांच्या	-3002
▁देना	-3003
▁घेतले	-3004
▁रोगी	-3005
▁करूंगा	-3006
▁बळ	-3007
पत्र	-3008
▁दह	-3009
▁स्क	-3010
▁माहीत	-3011
ियर	-3012
▁नागरिकों	-3013
ढावा	-3014
▁आमचे	-3015
▁संग्रहा	-3016
▁प्रभावित	-3017
▁औद्योगिक	-3018
▁निकाल	-3019
िक्	-3020
▁शुरु	-3021
er	-3022
ढ़ा	-3023
▁अभिया	-3024
▁उपायय	-3025
▁26	-3026
▁जाओ	-3027
▁प्रेरणा	-3028
▁छात्रों	-3029
▁प्रतिनिध	-3030
▁माणस	-3031
▁मोबा	-3032
▁संबंधों	-3033
▁उपराष्ट्रपती	-3034
▁एमएस	-3035
▁वर्षे	-3036
नान	-3037
▁थो	-3038
▁परंप	-3039
▁मिसर	-3040
ल्याने	-3041
▁जानकारी	-3042
▁राख	-3043
▁म्हणतो	-3044
▁महात्मा	-3045
50	-3046
त्ति	-3047
▁तुमचे	-3048
▁युवाओं	-3049
धारण	-3050
ँचा	-3051
र्गिक	-3052
▁मुझ	-3053
▁लंब	-3054
्यातील	-3055
वधान	-3056
▁रणनी	-3057
▁प्रती	-3058
▁विदेशी	-3059
▁पुल	-3060
▁एक्स	-3061
▁आपने	-3062
▁विशा	-3063
मंड	-3064
▁फॉ	-3065
▁ख्रि	-3066
रीय	-3067
▁बाय	-3068
▁अर्पण	-3069
▁चाचणी	-3070
एमई	-3071
मति	-3072
विद्यालय	-3073
ब्ल	-3074
▁बजा	-3075
▁इसकी	-3076
▁सभा	-3077
▁लहान	-3078
त्त	-3079
▁पांच	-3080
▁आढावा	-3081
▁प्रमाणात	-3082
▁बल	-3083
▁कॉन्फ	-3084
▁व्यावसायिक	-3085
▁आदर	-3086
▁जमा	-3087
▁आतंक	-3088
▁ढांचे	-3089
▁वीं	-3090
▁गेली	-3091
मारी	-3092
मिनी	-3093
▁शास	-3094
▁शिष	-3095
▁शहरी	-3096
वर्षी	-3097
बू	-3098
लित	-3099
▁आभार	-3100
▁सुलभ	-3101
▁ऑगस्ट	-3102
ैसर्गिक	-3103
जरा	-3104
▁प्रत्यक्ष	-3105
▁अभी	-3106
कान	-3107
▁क्रम	-3108
क्या	-3109
राच्या	-3110
▁दृष्टीने	-3111
दया	-3112
▁होऊन	-3113
▁जबकि	-3114
▁यशस्वी	-3115
▁लढ	-3116
▁गाँ	-3117
▁इंटर	-3118
▁इच्छ	-3119
▁द्वार	-3120
▁साझे	-3121
▁बरोबर	-3122
▁रस्ते	-3123
▁शुरुआ	-3124
▁जम	-3125
▁लौ	-3126
▁प्रभू	-3127
▁हमारा	-3128
दूत	-3129
▁संभाव	-3130
तार	-3131
राध	-3132
▁बिजली	-3133
▁विभागा	-3134
▁पत्थ	-3135
प्प	-3136
▁चीजों	-3137
▁दिशेने	-3138
▁प्रश्न	-3139
रुन	-3140
▁थेट	-3141
▁होतात	-3142
▁करेगी	-3143
ोव्ह	-3144
▁निपट	-3145
ांमुळे	-3146
निर्माण	-3147
▁मृत्यु	-3148
▁पशु	-3149
▁नैसर्गिक	-3150
ुण	-3151
▁इला	-3152
▁2014	-3153
▁पहचान	-3154
▁कार्यान्वयन	-3155
मंत्र	-3156
▁इसमें	-3157
▁प्रशासन	-3158
त्री	-3159
▁आराम	-3160
बह	-3161
.20	-3162
▁आकार	-3163
▁महत्त्वा	-3164
▁निकल	-3165
ायला	-3166
कालीन	-3167
▁काळजी	-3168
▁सेवाओं	-3169
वेल	-3170
कल्प	-3171
नाला	-3172
वेदन	-3173
▁हृदय	-3174
▁मुख्यमंत्री	-3175
समोर	-3176
कांना	-3177
▁लगे	-3178
बिनेट	-3179
िनियम	-3180
▁योजन	-3181
▁विशिष्ट	-3182
▁सर्वेक्षण	-3183
पात	-3184
▁उचल	-3185
▁दहशत	-3186
▁फायदा	-3187
जात	-3188
▁आव्हान	-3189
▁नुकसान	-3190
▁जबाब	-3191
डर	-3192
लम	-3193
▁आढ	-3194
▁अंतिम	-3195
▁सराहना	-3196
्यो	-3197
▁मोशे	-3198
▁मंत्रिमंडळा	-3199
▁इज़राइल	-3200
र्भात	-3201
▁जमिनी	-3202
ायी	-3203
ड़ाई	-3204
▁मिस्र	-3205
▁उड	-3206
▁लाने	-3207
▁म्हणजेच	-3208
सभा	-3209
▁जिससे	-3210
्यासाठी	-3211
क्ष्म	-3212
▁होत्या	-3213
▁बाजू	-3214
ार्मिक	-3215
▁समुदाय	-3216
▁प्रोत्साहित	-3217
लग	-3218
▁भाषा	-3219
▁23	-3220
▁एकी	-3221
▁यांच्यात	-3222
प्ता	-3223
▁गैर	-3224
▁मुले	-3225
ेटा	-3226
▁तिच्या	-3227
▁सहा	-3228
▁मंत्रालयाने	-3229
▁चालू	-3230
▁संस्कृति	-3231
▁स्वामी	-3232
▁स्थानीय	-3233
ियल	-3234
वासा	-3235
▁व्यवस्थापन	-3236
▁ज़	-3237
▁राहील	-3238
▁फल	-3239
▁याच	-3240
▁स्थिर	-3241
▁मीडिया	-3242
दृ	-3243
▁सर्वश	-3244
▁ज्यादा	-3245
▁समीक्षा	-3246
यरस	-3247
ाचे	-3248
▁निहार	-3249
▁एकत्रित	-3250
▁27	-3251
ॉर्ड	-3252
▁नको	-3253
▁जानते	-3254
▁३	-3255
▁उद्यान	-3256
कृति	-3257
▁गाव	-3258
▁बोला	-3259
▁–	-3260
▁अश	-3261
▁ताकत	-3262
▁सेवन	-3263
▁धार्मिक	-3264
▁नेट	-3265
▁हस्ते	-3266
▁नवाचार	-3267
▁देखने	-3268
सन	-3269
म्र	-3270
▁जानेवारी	-3271
▁उभ	-3272
्रोल	-3273
▁कर्ज	-3274
▁खरेदी	-3275
▁पात	-3276
▁विश्	-3277
▁भारतातील	-3278
दित	-3279
▁प्रेरित	-3280
▁B	-3281
नाचे	-3282
▁उर्	-3283
▁दूध	-3284
▁ठेवा	-3285
▁सत्र	-3286
ल्यावर	-3287
ट्टी	-3288
▁बिल	-3289
▁पीछे	-3290
▁करावा	-3291
▁देखभाल	-3292
र्घ	-3293
▁आदान	-3294
▁सोने	-3295
कता	-3296
▁मीटर	-3297
▁प्रस्त	-3298
▁प्रतिबंध	-3299
▁निर्धारित	-3300
वित	-3301
▁छा	-3302
▁धु	-3303
▁गैस	-3304
▁आवास	-3305
▁सन्मान	-3306
▁पसर	-3307
▁महस	-3308
▁देऊ	-3309
▁पोहच	-3310
बरोबरच	-3311
..	-3312
▁तेज	-3313
▁आकाश	-3314
▁चालना	-3315
▁अभिनंदन	-3316
वर्क	-3317
▁राष्ट्रा	-3318
▁उपराष्ट्रपति	-3319
▁माता	-3320
▁हर्ष	-3321
▁नेताओं	-3322
▁स्मार्ट	-3323
मण	-3324
्षिक	-3325
▁पुरुषों	-3326
▁निजी	-3327
▁बंगा	-3328
▁यहूदी	-3329
▁आँख	-3330
▁समित	-3331
▁धर	-3332
▁ऐसी	-3333
▁इमार	-3334
▁विद्य	-3335
▁जीएसटी	-3336
▁सर्वोत्	-3337
▁संस्थानों	-3338
▁सेव	-3339
▁लांब	-3340
क्षणिक	-3341
▁नावा	-3342
▁तों	-3343
▁वर्षी	-3344
▁कहता	-3345
पूर्वक	-3346
▁अधिनियम	-3347
▁संस्थान	-3348
▁जातील	-3349
ov	-3350
▁सतत	-3351
▁राहत	-3352
▁करण्यास	-3353
सेल	-3354
▁आग्रह	-3355
▁दृष्टिकोण	-3356
ंडी	-3357
ैव	-3358
्यु	-3359
दरम्यान	-3360
▁पोर्टल	-3361
ेने	-3362
▁जाऊन	-3363
▁मण	-3364
▁वड	-3365
▁लागले	-3366
▁अर्थव्यवस्थ	-3367
▁रिप	-3368
कृतिक	-3369
एंगे	-3370
▁कवर	-3371
▁भवन	-3372
▁विषा	-3373
यिक	-3374
▁40	-3375
▁थांब	-3376
▁बिहार	-3377
देन	-3378
▁बँक	-3379
▁साझेदारी	-3380
▁एकदा	-3381
▁जातात	-3382
ुती	-3383
थून	-3384
▁उत्सा	-3385
al	-3386
▁शहा	-3387
सोबत	-3388
▁सांगतो	-3389
▁बघ	-3390
▁जीवित	-3391
▁कल्पना	-3392
माने	-3393
▁रखते	-3394
्टेंबर	-3395
▁ऋण	-3396
▁अना	-3397
▁विदेश	-3398
बळ	-3399
िओ	-3400
स्व	-3401
▁पलि	-3402
▁तरुण	-3403
▁मास्क	-3404
▁मुद्दों	-3405
▁डाला	-3406
बो	-3407
ॉट	-3408
▁पासून	-3409
▁परंपरा	-3410
▁संदर्भ	-3411
▁माँ	-3412
▁मिन	-3413
▁तलवार	-3414
▁प्रार	-3415
▁शैक्षणिक	-3416
▁सेंटर	-3417
▁मिळाली	-3418
ळू	-3419
▁स्थिती	-3420
▁लॉकडाउन	-3421
दना	-3422
ातार	-3423
▁वेगाने	-3424
▁कैबिनेट	-3425
▁क्री	-3426
▁विरा	-3427
▁जिसने	-3428
ासून	-3429
▁स्थापन	-3430
▁उत्कृष्ट	-3431
▁अत्या	-3432
▁प्रथम	-3433
▁हस्ताक्षर	-3434
▁साइ	-3435
▁जागा	-3436
सुद्धा	-3437
▁असेही	-3438
▁सप्टेंबर	-3439
▁शत	-3440
▁समन्व	-3441
▁मानसिक	-3442
यचे	-3443
जारी	-3444
लावधी	-3445
▁R	-3446
▁29	-3447
▁तेरे	-3448
▁श्रम	-3449
▁सर्वांना	-3450
गाव	-3451
र्श	-3452
्रॉन	-3453
▁तुझी	-3454
.4	-3455
▁मांग	-3456
▁चरण	-3457
मधल्या	-3458
राई	-3459
▁कालावधी	-3460
ाची	-3461
▁समिती	-3462
▁प्रकल्पा	-3463
▁मसी	-3464
▁भेजा	-3465
▁तुमची	-3466
▁G	-3467
णाचे	-3468
नाचा	-3469
▁प्राकृतिक	-3470
▁त्रास	-3471
केज	-3472
ऊंगा	-3473
▁घटक	-3474
▁देणे	-3475
▁वारा	-3476
▁भारताचे	-3477
▁नग	-3478
दियों	-3479
वरुन	-3480
▁घटना	-3481
▁दर्द	-3482
▁रहता	-3483
▁विधे	-3484
▁नायडू	-3485
▁नोव्ह	-3486
▁शेतकरी	-3487
▁गडकरी	-3488
▁दिलेल्या	-3489
माल	-3490
▁जण	-3491
▁जवाब	-3492
▁मसीह	-3493
▁विशाल	-3494
▁शुरुआत	-3495
▁स्वतंत्रता	-3496
विटी	-3497
क्टोबर	-3498
▁2022	-3499
▁तपास	-3500
स्त्रा	-3501
वादी	-3502
▁वेब	-3503
▁अग्र	-3504
▁बैठकीत	-3505
ब्ज	-3506
ारण	-3507
ेशी	-3508
▁पत्नी	-3509
▁विध	-3510
राब	-3511
▁जला	-3512
▁पूजा	-3513
▁वाहन	-3514
▁संभव	-3515
▁ग्राह	-3516
▁देखते	-3517
▁नोव्हेंबर	-3518
▁भारती	-3519
▁गट	-3520
▁मॉड	-3521
▁मांड	-3522
▁लेवी	-3523
नासाठी	-3524
▁निहारना	-3525
▁राब	-3526
▁ठेवले	-3527
▁मात्रा	-3528
फ्ट	-3529
▁तिथे	-3530
फ्	-3531
ॅट	-3532
▁अगदी	-3533
▁संसद	-3534
▁बहा	-3535
▁अर्थात	-3536
▁स्थानिक	-3537
भाष	-3538
▁बलि	-3539
▁स्थानों	-3540
▁विद्यापी	-3541
▁आढळ	-3542
▁वाज	-3543
शुद्ध	-3544
▁जंगल	-3545
▁शकेल	-3546
▁लगातार	-3547
ब्रु	-3548
सेना	-3549
▁असं	-3550
▁खरीद	-3551
▁ग्राम	-3552
▁महामार्	-3553
डु	-3554
ृंख	-3555
▁कार्	-3556
इस	-3557
▁दहा	-3558
▁होम	-3559
▁गोवा	-3560
▁डिस	-3561
▁बौ	-3562
▁प्ले	-3563
▁सै	-3564
ंसाठी	-3565
▁जागर	-3566
▁रस्त	-3567
▁बहनों	-3568
▁चां	-3569
विषयक	-3570
▁सलाह	-3571
▁गतिविधियों	-3572
▁प्रतिबद्धता	-3573
सों	-3574
▁अली	-3575
▁शेव	-3576
▁द्रा	-3577
▁बंगाल	-3578
▁श्रद्ध	-3579
▁प्रो	-3580
▁चाहते	-3581
▁यामध्ये	-3582
▁खत	-3583
▁अंदा	-3584
शू	-3585
ेस	-3586
डियो	-3587
▁सफलता	-3588
▁विरासत	-3589
▁देशां	-3590
कट्	-3591
▁दला	-3592
▁इकट्	-3593
ब्रुवारी	-3594
ळव	-3595
▁कित	-3596
▁पहुँच	-3597
▁टीम	-3598
▁तिला	-3599
▁सल्ला	-3600
गम	-3601
हीर	-3602
▁बंधू	-3603
▁एंड	-3604
▁फेब्रुवारी	-3605
गल	-3606
नेत	-3607
▁२०	-3608
भूमी	-3609
▁एमएसएमई	-3610
▁प्रवासी	-3611
फार	-3612
▁उपा	-3613
▁जिन्हें	-3614
▁चम	-3615
▁अनि	-3616
▁वार्षिक	-3617
ार्ड	-3618
▁गौरव	-3619
▁कौशल्य	-3620
▁उपयुक्त	-3621
▁परमेश्वराला	-3622
▁येतील	-3623
ंवर	-3624
वादा	-3625
▁रास्ते	-3626
▁दूरी	-3627
ाराच्या	-3628
▁अरु	-3629
▁लाया	-3630
▁सुबह	-3631
▁हस्त	-3632
दायक	-3633
▁बंदर	-3634
▁हवामान	-3635
▁इलेक्ट्रॉन	-3636
▁मधु	-3637
▁रोगियों	-3638
जि	-3639
▁सही	-3640
▁आदेश	-3641
ेचे	-3642
णाचा	-3643
▁स्त्र	-3644
▁करावी	-3645
▁परिसर	-3646
▁पुनर्	-3647
▁हल	-3648
▁काफी	-3649
▁कामगार	-3650
▁येणाऱ्या	-3651
▁क्षेत्रीय	-3652
गढ़	-3653
कामना	-3654
▁आसियान	-3655
▁घेण्यात	-3656
स्टर	-3657
▁रोख	-3658
▁शकता	-3659
▁75	-3660
▁तट	-3661
सायन	-3662
न्द्र	-3663
▁उत्स	-3664
▁वाढव	-3665
▁वायु	-3666
▁दीर्घ	-3667
ीप	-3668
र्क	-3669
क्सी	-3670
▁कुठ	-3671
▁बने	-3672
▁भारताने	-3673
हू	-3674
लाम	-3675
▁ऑक्टोबर	-3676
ँड	-3677
पद	-3678
▁मेड	-3679
संबंध	-3680
▁अथवा	-3681
.2	-3682
▁पार्क	-3683
लीस	-3684
▁क्ल	-3685
▁झार	-3686
▁त्र	-3687
▁सरकारों	-3688
▁तास	-3689
▁लॉन्	-3690
नाची	-3691
▁पीढ़	-3692
▁लगता	-3693
▁कुमार	-3694
▁पर्वत	-3695
▁श्रमिक	-3696
▁रस	-3697
▁बनव	-3698
निर्भर	-3699
▁देखो	-3700
प्रदान	-3701
रीत	-3702
श्वत	-3703
▁जाग	-3704
व्र	-3705
▁उसी	-3706
▁तकनीकी	-3707
▁म्हणूनच	-3708
▁संकेत	-3709
▁विश्वविद्यालय	-3710
घड	-3711
णसी	-3712
▁समाप्त	-3713
▁डर	-3714
▁वास्तव	-3715
▁घरों	-3716
ंदोल	-3717
▁कर्मचारी	-3718
जब	-3719
वंत	-3720
करणीय	-3721
▁मूल्या	-3722
ृती	-3723
▁मनुष	-3724
▁रहते	-3725
▁क्रोध	-3726
▁माणसे	-3727
.1	-3728
▁थीं	-3729
▁दिल्लीत	-3730
▁70	-3731
▁डों	-3732
▁स्रो	-3733
▁इस्राए	-3734
▁हूँ	-3735
▁सर्वो	-3736
▁जागरूक	-3737
▁सूक्ष्म	-3738
▁खोल	-3739
▁मिलियन	-3740
▁फर	-3741
▁अप्रैल	-3742
▁नया	-3743
ृंखला	-3744
▁शुभकामना	-3745
▁प्रतिनिधी	-3746
▁आंध	-3747
▁सिं	-3748
▁त्वचा	-3749
▁योजनाओं	-3750
▁उभे	-3751
▁आमचा	-3752
▁निरंतर	-3753
▁परमेश्वराचा	-3754
ोरी	-3755
▁जल्द	-3756
▁मूर्ख	-3757
▁व्यवसाय	-3758
▁झु	-3759
▁ऑनलाइन	-3760
▁होणाऱ्या	-3761
क्षक	-3762
वीन	-3763
▁दास	-3764
▁सोडून	-3765
▁संचालन	-3766
▁पूछ	-3767
▁दर्जा	-3768
▁वर्षा	-3769
▁घात	-3770
▁पाळ	-3771
▁उनमें	-3772
ांतर्गत	-3773
▁फु	-3774
ndi	-3775
नाटक	-3776
▁जलवा	-3777
▁जगातील	-3778
▁संभावना	-3779
▁चले	-3780
▁नेटवर्क	-3781
▁मल	-3782
▁पैसे	-3783
▁शत्रू	-3784
▁मार्गा	-3785
▁रात्री	-3786
▁अपेक्षा	-3787
▁भारताला	-3788
▁जसे	-3789
▁एशिया	-3790
विण्यासाठी	-3791
▁उंच	-3792
▁डेटा	-3793
▁तुझा	-3794
▁कायदा	-3795
▁तीव्र	-3796
▁वर्षां	-3797
▁चुनौतियों	-3798
बु	-3799
िटी	-3800
▁काप	-3801
यान	-3802
▁विवरण	-3803
▁मेट्रो	-3804
स्करण	-3805
▁उचित	-3806
▁अंतरा	-3807
याह	-3808
▁राजमार्ग	-3809
▁श्रद्धांज	-3810
▁अपराध	-3811
▁देंगे	-3812
▁प्रिय	-3813
▁चिंता	-3814
▁येऊन	-3815
नेस	-3816
▁आशिया	-3817
▁शुल्क	-3818
on	-3819
ांश	-3820
▁राजधान	-3821
▁राज्यात	-3822
्यूट	-3823
▁आंदोल	-3824
रेल	-3825
▁अगले	-3826
▁लड़ाई	-3827
म्मे	-3828
▁अशुद्ध	-3829
▁देशाला	-3830
ेंशन	-3831
▁पर्वता	-3832
▁विशेषज्ञ	-3833
▁पथ	-3834
▁री	-3835
▁दोष	-3836
▁हिर	-3837
▁बेटे	-3838
▁परीक्षा	-3839
▁रिपोर्ट	-3840
▁ब्ल	-3841
▁मूर्ती	-3842
▁देईल	-3843
▁पेट्रोल	-3844
पथ	-3845
▁60	-3846
▁नागरी	-3847
▁लॉन्च	-3848
मर्श	-3849
▁युग	-3850
▁सूर	-3851
▁टक्क	-3852
▁शाश्वत	-3853
▁नै	-3854
▁काट	-3855
▁लिम	-3856
▁कामगिरी	-3857
याला	-3858
▁खून	-3859
▁हरिया	-3860
▁मार्गदर्शक	-3861
▁मई	-3862
काला	-3863
▁किमी	-3864
▁खड़ा	-3865
▁केलेले	-3866
▁गरीबों	-3867
संख्या	-3868
▁वाराणसी	-3869
▁विरुद्ध	-3870
▁आतापर्यंत	-3871
▁गठ	-3872
▁बज	-3873
▁व्यक्तियों	-3874
यारी	-3875
▁रेड	-3876
▁चंद्र	-3877
▁बाबेल	-3878
▁डिसेंबर	-3879
ंपर	-3880
वेग	-3881
िर्म	-3882
▁रिक	-3883
▁साफ	-3884
ध्यक्ष	-3885
▁जाहीर	-3886
▁पत्थर	-3887
▁बौद्ध	-3888
▁गर्व	-3889
िब	-3890
▁घेण्यासाठी	-3891
जोर	-3892
डून	-3893
▁दृढ	-3894
▁रक्षण	-3895
▁विधेयक	-3896
णु	-3897
शास	-3898
▁आमंत्र	-3899
▁मृत्यू	-3900
▁भागीदार	-3901
घे	-3902
▁आते	-3903
▁आकां	-3904
▁जगभर	-3905
▁लक्षण	-3906
▁कर्नाटक	-3907
पि	-3908
▁जैसी	-3909
काच्या	-3910
▁हाथों	-3911
▁हिस्से	-3912
▁चीन	-3913
▁अल्प	-3914
▁वापस	-3915
▁सत्य	-3916
▁तुम्हारा	-3917
▁श्रृंखला	-3918
णाची	-3919
पुढे	-3920
▁भि	-3921
▁कोल	-3922
▁याच्या	-3923
▁विमानत	-3924
▁सुरुवात	-3925
▁बोलत	-3926
▁सामर्थ्य	-3927
▁आयात	-3928
▁कुशल	-3929
ारीरिक	-3930
▁भारताची	-3931
▁प्रकारच्या	-3932
यात	-3933
ापासून	-3934
▁संस्कृती	-3935
▁विषाणू	-3936
मिन	-3937
वें	-3938
▁मेंढ	-3939
▁महिमा	-3940
▁निर्मा	-3941
णावर	-3942
▁प्रशास	-3943
▁भुगत	-3944
▁हिंद	-3945
▁शारीरिक	-3946
▁समिति	-3947
प्रकार	-3948
▁दूसरी	-3949
▁कार्यों	-3950
ri	-3951
बन	-3952
▁घरी	-3953
▁जैव	-3954
▁जलवायु	-3955
▁सर्वोच्च	-3956
▁खोज	-3957
▁सशक्त	-3958
▁अस्पताल	-3959
▁शांतता	-3960
▁*	-3961
▁ईशान	-3962
संदर्भात	-3963
th	-3964
िटेड	-3965
▁साह	-3966
▁वीडियो	-3967
▁सहाय्य	-3968
.3	-3969
▁बर	-3970
▁आपका	-3971
▁घंटे	-3972
▁मैदान	-3973
▁उत्तरा	-3974
▁एच	-3975
▁दस	-3976
▁कोर	-3977
▁अजून	-3978
▁आयुष्य	-3979
▁बलिदान	-3980
▁अमेरिका	-3981
नगर	-3982
्वर	-3983
▁पक	-3984
▁तां	-3985
▁2015	-3986
▁गर्भ	-3987
▁सैन्य	-3988
▁शिक्षक	-3989
▁अच्छे	-3990
▁घोषित	-3991
सीसी	-3992
राज्य	-3993
▁जहाज	-3994
▁जिम्मे	-3995
▁निष्	-3996
▁उल	-3997
▁कार्ड	-3998
▁ट्रेन	-3999
▁करणारे	-4000
्डा	-4001
▁आख	-4002
▁चर	-4003
ानंतर	-4004
▁कोविद	-4005
▁मागणी	-4006
▁संचार	-4007
ांतर	-4008
▁हास	-4009
गरानी	-4010
▁जगात	-4011
▁साथी	-4012
▁कॉर्प	-4013
▁उद्योज	-4014
▁लिमिटेड	-4015
▁त्यानंतर	-4016
▁खाज	-4017
▁कर्त	-4018
▁कनेक्ट	-4019
▁झारखंड	-4020
▁राजधानी	-4021
▁सर्वोत्तम	-4022
ंकि	-4023
्रिया	-4024
▁ऐकले	-4025
▁चाहता	-4026
▁पुनरु	-4027
▁कर्मचा	-4028
▁तत्व	-4029
▁बोलते	-4030
▁येतात	-4031
▁पर्याप्त	-4032
▁५	-4033
म्प	-4034
न्या	-4035
▁दान	-4036
ब्ल्यू	-4037
▁शुभार	-4038
▁छु	-4039
▁वाग	-4040
▁दरवा	-4041
▁पातळी	-4042
▁यिर्म	-4043
▁महामार्ग	-4044
▁एली	-4045
▁मुख	-4046
▁सहज	-4047
▁ग्री	-4048
▁चांगली	-4049
▁पद्धती	-4050
▁समझौते	-4051
तेच्या	-4052
▁महसूस	-4053
.6	-4054
चं	-4055
माग	-4056
व्ही	-4057
ानुसार	-4058
▁निगरानी	-4059
▁परिवारों	-4060
▁संग्रहालय	-4061
डि	-4062
फत	-4063
ोट्या	-4064
▁अवस्थ	-4065
▁कोणीही	-4066
▁आतंकवाद	-4067
▁स्तरावर	-4068
शनल	-4069
▁एकमेक	-4070
निंग	-4071
▁सेवे	-4072
▁हाता	-4073
▁संदेष्ट	-4074
▁प्रारंभ	-4075
▁देशातल्या	-4076
▁इस्राएलच्या	-4077
▁निघ	-4078
▁जबाबदारी	-4079
टकों	-4080
▁येऊ	-4081
▁खाने	-4082
▁आश्वास	-4083
▁इकट्ठा	-4084
▁समुद्री	-4085
प्न	-4086
▁किस	-4087
▁निकट	-4088
▁सारी	-4089
▁मान्य	-4090
ेशनल	-4091
▁यून	-4092
▁सित	-4093
▁हाती	-4094
▁कृती	-4095
▁आत्मनिर्भर	-4096
▁वेळे	-4097
▁होणे	-4098
देशक	-4099
वाही	-4100
यत	-4101
▁शाह	-4102
▁पोषण	-4103
▁लागेल	-4104
▁निरा	-4105
▁दिसून	-4106
▁संसाध	-4107
▁साध्य	-4108
जण	-4109
▁शौल	-4110
शीलता	-4111
▁संगठन	-4112
स्टी	-4113
▁बोर्ड	-4114
▁उत्साह	-4115
▁स्वातंत्र्य	-4116
वीत	-4117
▁मरी	-4118
▁वेळा	-4119
▁दिखाई	-4120
▁निम्न	-4121
▁पात्र	-4122
▁मानले	-4123
पाळ	-4124
▁झोप	-4125
▁बांग	-4126
▁स्थल	-4127
▁हालांकि	-4128
ंटी	-4129
▁भुगतान	-4130
▁उत्पादों	-4131
▁सुविधाओं	-4132
.7	-4133
▁गल	-4134
▁म्हणतात	-4135
स्टम	-4136
▁प्रस्तुत	-4137
प्रिय	-4138
▁आश्च	-4139
▁गरजे	-4140
▁स्मरण	-4141
▁स्वप्न	-4142
▁वास्तविक	-4143
▁अटल	-4144
▁कसे	-4145
▁उतर	-4146
▁कैं	-4147
▁ताप	-4148
▁भेज	-4149
▁नेता	-4150
▁मानवी	-4151
▁वृक्ष	-4152
▁चांगला	-4153
▁प्ला	-4154
▁उर्वर	-4155
▁जिसका	-4156
▁भगिनी	-4157
▁शुभारंभ	-4158
ूब	-4159
▁चांदी	-4160
▁सरदार	-4161
▁पॉ	-4162
ळ्यात	-4163
▁आणले	-4164
▁चुनाव	-4165
▁जिलों	-4166
▁2019-20	-4167
▁माना	-4168
▁देणार	-4169
उंड	-4170
▁मुद	-4171
स्टिक	-4172
▁मुली	-4173
▁लोकांचा	-4174
▁अमित	-4175
▁लगाने	-4176
ra	-4177
▁निभा	-4178
▁आकर्षित	-4179
▁सदस्यों	-4180
▁फैस	-4181
वृत्ती	-4182
▁क्रीडा	-4183
ंनो	-4184
▁वजन	-4185
▁सांगा	-4186
▁संदर्भात	-4187
▁रुग्णालया	-4188
▁लाव	-4189
िस्तान	-4190
ाचा	-4191
दाना	-4192
en	-4193
es	-4194
गामी	-4195
तांना	-4196
▁शुभकामनाएं	-4197
▁प्रतिक्रिया	-4198
स्वर	-4199
▁देऊन	-4200
▁विकासासाठी	-4201
तरी	-4202
▁बेथ	-4203
▁यूर	-4204
▁मदती	-4205
याच्या	-4206
▁कधीही	-4207
▁विरोध	-4208
▁बचत	-4209
संख्य	-4210
▁तोंड	-4211
▁दल	-4212
▁उजा	-4213
▁आहार	-4214
▁यात्र	-4215
▁सहकारी	-4216
▁प्राधिक	-4217
▁भ्रष्टा	-4218
▁गी	-4219
▁वस	-4220
▁डाय	-4221
▁वीर	-4222
▁स्मारक	-4223
▁मंत्रिमंडळाने	-4224
▁नक्	-4225
▁शहरा	-4226
▁मिळणार	-4227
▁पद्धतीने	-4228
TI	-4229
▁तुलनेत	-4230
ोगी	-4231
▁पोल	-4232
▁स्वाक्ष	-4233
▁ग्	-4234
बंदी	-4235
▁प्रतिष्ठ	-4236
▁मार्गदर्शन	-4237
नाम	-4238
▁लिहि	-4239
▁वेगवेग	-4240
जु	-4241
ेन	-4242
चारा	-4243
नावर	-4244
र्जी	-4245
▁येतो	-4246
▁संक्रमण	-4247
▁४	-4248
▁कौन	-4249
▁साप	-4250
▁अबी	-4251
▁यही	-4252
▁लें	-4253
▁अंतरिक्ष	-4254
▁अख	-4255
▁अभिमान	-4256
▁त्यावर	-4257
▁पूर्वज	-4258
▁बाजारपे	-4259
जल	-4260
▁तरफ	-4261
▁गाँव	-4262
▁नव्हे	-4263
▁नवीकरणीय	-4264
गीत	-4265
वाश	-4266
ेवर	-4267
ंपरिक	-4268
▁आसानी	-4269
नर	-4270
▁उंची	-4271
▁सिंग	-4272
▁प्यार	-4273
▁स्टेशन	-4274
▁देवी	-4275
ड़ियों	-4276
विरुद्ध	-4277
र्गा	-4278
▁सुख	-4279
▁महत्त्वपूर्ण	-4280
कल	-4281
पो	-4282
▁उज	-4283
▁तिस	-4284
▁अफ्री	-4285
▁घरेलू	-4286
▁राहिला	-4287
▁प्रयोगशाला	-4288
▁तार	-4289
▁लाइ	-4290
▁पाहा	-4291
▁वितरित	-4292
▁श्रेणी	-4293
▁आश्वासन	-4294
▁प्रदेशात	-4295
.8	-4296
लाईन	-4297
▁उद	-4298
▁गॅ	-4299
▁उपायों	-4300
▁देवाची	-4301
भारत	-4302
▁घेऊ	-4303
▁जेथे	-4304
▁दुख	-4305
▁मधुमे	-4306
▁राहिले	-4307
ल्यानंतर	-4308
▁पेट्रोलियम	-4309
▁बनाई	-4310
▁वहां	-4311
▁जरूरत	-4312
▁खंड	-4313
▁खड़े	-4314
▁जनता	-4315
▁शाऊल	-4316
▁अध्ययन	-4317
▁बीमारी	-4318
ेत्र	-4319
▁शपथ	-4320
चित्र	-4321
▁सिंगा	-4322
▁विचारों	-4323
टका	-4324
▁मुलांना	-4325
ष्टि	-4326
▁बीज	-4327
▁बुद्धि	-4328
▁मोबाइल	-4329
▁मागे	-4330
▁विजय	-4331
▁मुद्रा	-4332
▁2018-19	-4333
▁ढा	-4334
▁फी	-4335
ोरेट	-4336
▁जाव	-4337
▁याचे	-4338
ेचा	-4339
▁तुर	-4340
▁बीमार	-4341
▁प्रसाद	-4342
▁आश्चर्य	-4343
▁हस्तांतर	-4344
▁वीज	-4345
िविटी	-4346
▁कॉले	-4347
▁नौकर	-4348
▁शकणार	-4349
▁हार	-4350
▁सप्ता	-4351
्यांसाठी	-4352
▁गर्म	-4353
▁समाजा	-4354
▁नव्हते	-4355
▁पार्श्व	-4356
स्म	-4357
शाला	-4358
▁फॉर	-4359
▁अमेरिक	-4360
▁प्रत्ये	-4361
▁सादर	-4362
▁कोरिया	-4363
लात	-4364
शाही	-4365
▁फुट	-4366
▁भारी	-4367
▁अनुमति	-4368
▁मंत्रालयाच्या	-4369
▁रोड	-4370
▁निवडण	-4371
▁पुलिस	-4372
▁बदलाव	-4373
▁त्यावेळी	-4374
▁महिन्यात	-4375
▁मंदिरात	-4376
दिन	-4377
तेचा	-4378
▁सोच	-4379
रोज	-4380
▁बाळ	-4381
▁तक्र	-4382
▁आसपास	-4383
▁संख्य	-4384
▁कंपनियों	-4385
▁देशांच्या	-4386
क्कम	-4387
▁नाग	-4388
▁प्री	-4389
▁आदर्श	-4390
▁आंदोलन	-4391
▁शक्यता	-4392
कडील	-4393
▁कोशि	-4394
▁डॉलर	-4395
चाल	-4396
जित	-4397
▁भय	-4398
▁ठार	-4399
▁भागा	-4400
▁खुश	-4401
▁वेत	-4402
▁महत्वाचे	-4403
▁परमेश्वराची	-4404
विन	-4405
▁बर्	-4406
▁कर्मचार	-4407
▁ज्यामुळे	-4408
▁प्राधान्य	-4409
▁शिम	-4410
▁आमची	-4411
▁शौचा	-4412
▁सकें	-4413
ळाच्या	-4414
▁कार्यक्रमात	-4415
▁आरा	-4416
▁कां	-4417
▁खाते	-4418
िसू	-4419
▁उपभ	-4420
▁द्वीप	-4421
▁राज्यमंत्री	-4422
▁पहला	-4423
▁साठी	-4424
▁देखरे	-4425
▁शेतकऱ्यांना	-4426
ौन	-4427
▁पेर	-4428
▁अनुमान	-4429
▁संध्या	-4430
▁समन्वय	-4431
ानिमित्त	-4432
▁लोकांचे	-4433
▁प्राथमिकता	-4434
ंजी	-4435
वरून	-4436
▁अश्	-4437
▁Indi	-4438
ल्ल्या	-4439
▁अवलंब	-4440
▁चीजें	-4441
▁एयर	-4442
▁खरो	-4443
▁बेटी	-4444
▁मेहन	-4445
▁साधन	-4446
्यायला	-4447
▁अनुक	-4448
▁गोयल	-4449
▁जिले	-4450
▁लोकप्रिय	-4451
पटा	-4452
▁(1	-4453
ऱ्यांनी	-4454
▁देशभरात	-4455
ल्ल	-4456
▁35	-4457
▁आसा	-4458
▁निघा	-4459
▁राहू	-4460
▁राजनी	-4461
▁लागला	-4462
प्रकारे	-4463
▁जख	-4464
▁तला	-4465
▁धर्	-4466
त्रिक	-4467
▁पाँच	-4468
▁मौसम	-4469
▁निपटने	-4470
▁पारंपरिक	-4471
▁नागरिकांना	-4472
लेट	-4473
▁वज	-4474
▁कोशिश	-4475
स्तर	-4476
▁पाड	-4477
▁बजट	-4478
▁अधिसू	-4479
▁संबंधी	-4480
▁कार्यरत	-4481
मोर	-4482
ॉर्म	-4483
▁पोट	-4484
▁स्वरूप	-4485
▁पाय	-4486
▁टप्प	-4487
▁राष्ट्रों	-4488
भि	-4489
▁घाटी	-4490
▁हासिल	-4491
▁मौजूदा	-4492
▁हर्षवर्धन	-4493
हीम	-4494
▁सर्वा	-4495
▁पेक्षा	-4496
▁उघड	-4497
▁भव्य	-4498
▁याला	-4499
▁आयुर्व	-4500
▁स्वस्थ	-4501
▁कनेक्टिविटी	-4502
▁जुलाई	-4503
▁दिवसा	-4504
द्द	-4505
करिता	-4506
▁विवे	-4507
▁•	-4508
ंडा	-4509
▁चक्र	-4510
▁पंचा	-4511
▁पंजा	-4512
देव	-4513
▁पित	-4514
▁चढ़ा	-4515
▁देण्याची	-4516
▁योजनेअंतर्गत	-4517
न्द	-4518
▁याको	-4519
▁बुराई	-4520
▁सकाळी	-4521
▁जागरूकता	-4522
▁प्रावधान	-4523
ay	-4524
रोप	-4525
्वान	-4526
ण्ड	-4527
िर्	-4528
ुति	-4529
सारखा	-4530
▁असलेली	-4531
ंकन	-4532
▁लॉकडाऊन	-4533
ंकर	-4534
बला	-4535
लेस	-4536
▁उत	-4537
▁कश्मीर	-4538
वट	-4539
▁छह	-4540
▁लु	-4541
▁रचना	-4542
▁शिकाय	-4543
▁संघर्ष	-4544
,5	-4545
▁असू	-4546
▁इलाज	-4547
▁बुला	-4548
▁सामग्री	-4549
ीय	-4550
वाणी	-4551
▁वायरस	-4552
दरा	-4553
▁कठोर	-4554
▁पटेल	-4555
▁देवाला	-4556
▁अहम	-4557
-18	-4558
्राइ	-4559
▁वाटत	-4560
▁सामु	-4561
न्ना	-4562
▁जानता	-4563
▁सहभाग	-4564
▁मनुष्यबळ	-4565
कर्ता	-4566
▁जवान	-4567
▁भांड	-4568
▁मुंह	-4569
▁समोर	-4570
▁आंध्र	-4571
▁मौजूद	-4572
▁अगस्त	-4573
▁शीर्ष	-4574
▁केंद्रा	-4575
▁कर्मचारियों	-4576
▁500	-4577
▁जनतेला	-4578
▁पुस्तक	-4579
ोबत	-4580
▁जिल्हा	-4581
खन	-4582
▁U	-4583
िवा	-4584
याने	-4585
▁रखी	-4586
▁मारा	-4587
▁काढून	-4588
▁खाजगी	-4589
शास्त्र	-4590
ंधन	-4591
▁कौत	-4592
▁दीवार	-4593
▁कोविंद	-4594
▁सप्ताह	-4595
▁उपाययोजना	-4596
▁एड	-4597
▁टो	-4598
▁उठाए	-4599
▁बनने	-4600
▁महोत्स	-4601
▁पंतप्रधानांच्या	-4602
▁दैन	-4603
▁शान	-4604
ष्मान	-4605
▁जावे	-4606
▁आह्वान	-4607
▁पूर	-4608
▁आपत्ती	-4609
▁उत्पादक	-4610
्हे	-4611
▁लढाई	-4612
संबंधी	-4613
▁आभ	-4614
▁बरा	-4615
व्यात	-4616
▁परिषदेत	-4617
तीला	-4618
तेने	-4619
▁अद्	-4620
▁विप	-4621
▁भीड़	-4622
▁श्रीलं	-4623
▁धी	-4624
▁रथ	-4625
▁भूत	-4626
▁मत्	-4627
▁आगामी	-4628
▁कौतुक	-4629
▁शब्दों	-4630
▁नेत्यांनी	-4631
्रेड	-4632
▁मोड	-4633
▁सुव	-4634
▁लंबे	-4635
▁पार्श्वभूमी	-4636
▁घट	-4637
▁संय	-4638
▁पंजाब	-4639
▁मर्या	-4640
▁लागते	-4641
▁नौसेना	-4642
▁पाण्या	-4643
or	-4644
▁बाग	-4645
▁बचाव	-4646
ॉप	-4647
▁टिक	-4648
▁धोका	-4649
▁पोस्ट	-4650
▁मिळते	-4651
▁शास्त्र	-4652
केट	-4653
▁उभय	-4654
▁दार	-4655
▁दुष्	-4656
▁स्थायी	-4657
▁अनुकूल	-4658
▁एकीकृत	-4659
▁त्यासाठी	-4660
▁घृ	-4661
▁खुले	-4662
▁निस	-4663
▁बैल	-4664
▁जिथे	-4665
▁जिनके	-4666
▁जुड़े	-4667
▁पुष्क	-4668
▁कायद्या	-4669
▁विस्तृत	-4670
▁इका	-4671
▁आजारा	-4672
▁सांगत	-4673
▁तपासणी	-4674
थि	-4675
▁मित्रों	-4676
▁आमंत्रित	-4677
बार	-4678
▁बॉ	-4679
ांती	-4680
▁अग्	-4681
▁वंशज	-4682
▁रहेगा	-4683
▁लोकांची	-4684
ासी	-4685
िये	-4686
▁शो	-4687
▁लवकरच	-4688
ंगिक	-4689
▁सुझा	-4690
▁सशस्त्र	-4691
▁हरियाणा	-4692
▁उपास	-4693
▁प्रकृति	-4694
फ़	-4695
▁सभ	-4696
▁मुका	-4697
▁रखना	-4698
▁T	-4699
गाह	-4700
▁आसान	-4701
▁अध्या	-4702
▁सामान	-4703
▁उत्तराखंड	-4704
▁गुंतवणुकी	-4705
सागर	-4706
स्वरूप	-4707
▁ठिकाण	-4708
▁पुष्कळ	-4709
▁हिमाचल	-4710
ऱ्यांच्या	-4711
▁झाल्यावर	-4712
फे	-4713
याम	-4714
ार्ज	-4715
▁घरात	-4716
▁तीर्थ	-4717
▁परवान	-4718
▁नेहमीच	-4719
▁नोंदणी	-4720
▁मिळाले	-4721
नाश	-4722
ूबर	-4723
राला	-4724
▁नाथ	-4725
▁उज्ज	-4726
▁व्हावे	-4727
▁केस	-4728
▁मेक	-4729
▁भेटी	-4730
▁उपलब्धता	-4731
▁चुनौती	-4732
▁श्रद्धांजलि	-4733
भुत	-4734
▁झू	-4735
▁अहर	-4736
▁पाव	-4737
▁रोटी	-4738
▁जिवंत	-4739
▁श्रीमती	-4740
▁आलो	-4741
▁नित	-4742
▁सहन	-4743
▁आराख	-4744
ीव	-4745
▁H	-4746
त्म	-4747
बादी	-4748
क्षेप	-4749
?";	-4750
ंश	-4751
▁मालदी	-4752
किस्तान	-4753
बाम	-4754
▁कारख	-4755
▁नमूद	-4756
िय्याह	-4757
▁आँखों	-4758
▁पारदर्	-4759
▁मुद्दे	-4760
▁कार्यालया	-4761
माला	-4762
्यून	-4763
▁आवड	-4764
▁सीम	-4765
▁खरोखर	-4766
▁पराभव	-4767
▁देशवास	-4768
▁पैमाने	-4769
▁विनंती	-4770
▁वालों	-4771
,4	-4772
▁आफ	-4773
▁पदक	-4774
▁तेरी	-4775
▁राहणार	-4776
▁कृपा	-4777
▁स्रोत	-4778
▁महोत्सव	-4779
▁आकांक्षा	-4780
▁देवाचे	-4781
घर	-4782
▁/	-4783
तान	-4784
विड	-4785
▁बाज	-4786
▁शेती	-4787
▁निवार	-4788
▁नेशनल	-4789
▁प्रतीक	-4790
तेचे	-4791
▁अधर्म	-4792
▁तुम्हारी	-4793
▁मंत्रिमंडळाची	-4794
षित	-4795
त्रा	-4796
▁तिने	-4797
▁साधला	-4798
▁अवसरों	-4799
▁अंतरावर	-4800
ध्दा	-4801
▁अधि	-4802
▁दूत	-4803
प्रती	-4804
▁अंदर	-4805
क्टूबर	-4806
त्याने	-4807
▁विषयक	-4808
▁कॉन्फर	-4809
▁मेडिकल	-4810
▁वस्तूं	-4811
▁कब	-4812
▁इतके	-4813
▁उन्न	-4814
▁ग्राहक	-4815
▁विद्यापीठ	-4816
फ्त	-4817
▁झील	-4818
▁जिला	-4819
▁जनवरी	-4820
▁लोकशाही	-4821
▁ख्रिस्ता	-4822
▁पर्यटकों	-4823
जो	-4824
ाला	-4825
▁सोन	-4826
▁होकर	-4827
स्तरीय	-4828
्वा	-4829
▁फोन	-4830
शलक्ष	-4831
▁गहरा	-4832
▁सिटी	-4833
▁कमजोर	-4834
आधी	-4835
ेलो	-4836
▁तप	-4837
ड़ित	-4838
▁वन्य	-4839
▁विचारले	-4840
डक	-4841
पीई	-4842
▁ठा	-4843
▁भौ	-4844
▁रोम	-4845
▁आपाप	-4846
▁उद्ध	-4847
▁जानवर	-4848
▁करायचे	-4849
▁बाजूला	-4850
▁भारताचा	-4851
▁विद्यार्थी	-4852
करून	-4853
▁उड़	-4854
▁संग्रह	-4855
तल	-4856
त्तीस	-4857
▁छोटी	-4858
▁पुणे	-4859
▁चेहरे	-4860
▁यासारख्या	-4861
▁भ्रष्टाचार	-4862
▁तकनीक	-4863
▁सितंबर	-4864
▁लै	-4865
▁80	-4866
▁जिनमें	-4867
आप	-4868
गृह	-4869
दूर	-4870
▁छि	-4871
▁अर्ज	-4872
▁बाकी	-4873
▁महासं	-4874
▁मिळाला	-4875
एक	-4876
▁बाबी	-4877
▁समग्र	-4878
ँकि	-4879
आईडी	-4880
ांकडून	-4881
▁संतुल	-4882
▁सध्याच्या	-4883
▁फूट	-4884
▁बर्फ	-4885
▁भंड	-4886
▁पेड़	-4887
▁मिळत	-4888
▁आयुर्वेद	-4889
कुमार	-4890
▁दूसरा	-4891
▁प्रमा	-4892
▁दशलक्ष	-4893
▁अक्टूबर	-4894
▁राज्यपाल	-4895
▁हिज	-4896
▁आम्ह	-4897
▁जपान	-4898
▁वाळव	-4899
तिरिक्त	-4900
▁2017-18	-4901
दात	-4902
नेस्	-4903
ितीय	-4904
▁सीओ	-4905
▁वेतन	-4906
▁अनुदान	-4907
▁दावीदा	-4908
▁पुजारी	-4909
▁स्पर्ध	-4910
▁परिवर्त	-4911
▁विनिर्माण	-4912
चक	-4913
डेट	-4914
▁धार	-4915
शासित	-4916
▁ऊँचा	-4917
▁नसेल	-4918
▁पेंशन	-4919
▁हालाँकि	-4920
उस	-4921
कोप	-4922
▁घु	-4923
▁तरत	-4924
▁तमिल	-4925
▁त्याग	-4926
▁मोहिम	-4927
▁जवळपास	-4928
25	-4929
धित	-4930
▁गॅस	-4931
▁ड्र	-4932
▁तिर	-4933
▁साकार	-4934
▁मालदीव	-4935
▁वायू	-4936
कारक	-4937
ोत्तर	-4938
्रेंस	-4939
▁घाबर	-4940
▁श्	-4941
▁गती	-4942
▁आठवण	-4943
लाच्या	-4944
.9	-4945
चने	-4946
सेस	-4947
▁ऐप	-4948
▁पैर	-4949
त्कार	-4950
▁रखें	-4951
▁आयुष्मान	-4952
▁K	-4953
स्पर्	-4954
▁चुके	-4955
▁दिग्	-4956
▁सहमत	-4957
▁कैंसर	-4958
▁सागरी	-4959
▁राजनाथ	-4960
▁प्रसन्न	-4961
▁बांधकाम	-4962
रील	-4963
▁150	-4964
▁मोज	-4965
▁चाहे	-4966
▁सिने	-4967
▁साजरा	-4968
II	-4969
पीय	-4970
दायी	-4971
▁ओडि	-4972
▁क्षमा	-4973
▁रसायन	-4974
▁सचिवा	-4975
▁दृष्टीको	-4976
करोग	-4977
▁बारा	-4978
▁विजे	-4979
▁राजकीय	-4980
▁महामहिम	-4981
,7	-4982
▁आपदा	-4983
▁ट्रै	-4984
प्रदेश	-4985
▁इनमें	-4986
▁बढ़ाया	-4987
▁व्यवस्थाप	-4988
▁J	-4989
▁90	-4990
▁नोक	-4991
▁कामका	-4992
▁बढ़ती	-4993
च्चा	-4994
▁गुन	-4995
▁चुकी	-4996
▁अडच	-4997
▁साब	-4998
▁डोंग	-4999
▁लिखा	-5000
▁वेदना	-5001
▁काहीही	-5002
▁बिलियन	-5003
▁पिक	-5004
▁बाबा	-5005
विण्यात	-5006
▁प्राणी	-5007
▁कॉन्फरन्स	-5008
िप्	-5009
▁लौट	-5010
▁कोणाला	-5011
▁असम	-5012
▁सुश	-5013
चारिक	-5014
त्मिक	-5015
▁प्रकारचे	-5016
आब	-5017
▁मरण	-5018
▁सज्ज	-5019
▁पाहून	-5020
▁प्रदू	-5021
ांपासून	-5022
▁नकोस	-5023
▁येशूने	-5024
▁चाचण्या	-5025
▁मित्रहो	-5026
,6	-5027
डो	-5028
टली	-5029
रुप	-5030
शूर	-5031
▁अरब	-5032
▁इरा	-5033
▁इथल्या	-5034
▁जवळजवळ	-5035
▁परामर्श	-5036
याँ	-5037
र्ज	-5038
▁अवि	-5039
▁कदा	-5040
▁हाँ	-5041
विधान	-5042
▁बँके	-5043
▁लेते	-5044
▁पहिला	-5045
ME	-5046
ंशी	-5047
ॉजी	-5048
ोरम	-5049
▁फंड	-5050
▁कच	-5051
▁टै	-5052
▁भाऊ	-5053
▁अद्भुत	-5054
▁रास्ता	-5055
▁उपस्थिति	-5056
,1	-5057
▁37	-5058
श्रम	-5059
▁अका	-5060
▁जलद	-5061
▁शेवट	-5062
▁मिलकर	-5063
▁संवेदन	-5064
▁यंत्रणा	-5065
▁हिस्सों	-5066
पादन	-5067
▁उभा	-5068
▁पूर्णपणे	-5069
समा	-5070
▁एकता	-5071
▁तुमसे	-5072
ित्स	-5073
▁साय	-5074
▁मधील	-5075
▁संगीत	-5076
▁गांवों	-5077
▁निर्मित	-5078
▁सातत्याने	-5079
▁सगळे	-5080
▁देखरेख	-5081
ताप	-5082
दोन	-5083
▁चमक	-5084
▁आबादी	-5085
▁सिर्फ	-5086
▁हितधार	-5087
▁धोरणात्मक	-5088
दो	-5089
▁पेय	-5090
.2020	-5091
▁उपग्रह	-5092
▁संरचना	-5093
▁सिंहास	-5094
ूम	-5095
ूहिक	-5096
▁बजे	-5097
▁उम्र	-5098
▁तरतूद	-5099
▁मुलगे	-5100
क्तिमान	-5101
▁संसाधनों	-5102
▁कार्यकारी	-5103
सीय	-5104
दाबाद	-5105
▁ओडिशा	-5106
कर्ताओं	-5107
डीओ	-5108
ेगा	-5109
िडिओ	-5110
▁देती	-5111
▁समृद्धि	-5112
▁सामूहिक	-5113
▁प्राधिकरण	-5114
▁नजर	-5115
▁पावले	-5116
▁शिकार	-5117
,8	-5118
▁६	-5119
मेर	-5120
▁मनात	-5121
▁जाणून	-5122
▁परदेशी	-5123
▁पीड़ित	-5124
▁प्रतिभा	-5125
▁हेच	-5126
▁काळा	-5127
▁बळकट	-5128
▁वाचा	-5129
▁सारे	-5130
▁मुझसे	-5131
▁दिव्या	-5132
▁सृ	-5133
▁दिख	-5134
▁मृत	-5135
▁सीख	-5136
▁कुंभ	-5137
▁भरपूर	-5138
▁अंतराळ	-5139
▁सम्मानित	-5140
▁देशांमध्ये	-5141
ST	-5142
जीव	-5143
स्ति	-5144
▁कशा	-5145
▁जोख	-5146
▁वडील	-5147
▁सीएस	-5148
ांपैकी	-5149
▁सिस्टम	-5150
▁वेगवेगळ्या	-5151
ोवती	-5152
▁प्लेट	-5153
▁मधुमेह	-5154
▁माननीय	-5155
▁काश्मीर	-5156
घात	-5157
ोवर	-5158
िनार	-5159
▁शाम	-5160
लिखित	-5161
▁घडवून	-5162
▁प्राण	-5163
▁खी	-5164
ंचाई	-5165
▁फैल	-5166
वाच्या	-5167
▁अब्रा	-5168
▁यहुवे	-5169
▁कर्करोग	-5170
▁व्हिडिओ	-5171
ओयू	-5172
थ्य	-5173
▁साठ	-5174
▁देईन	-5175
▁मूल्यांकन	-5176
फॉर्म	-5177
▁पक्षी	-5178
▁परवानगी	-5179
▁होण्याची	-5180
▁सर्वशक्तिमान	-5181
शिला	-5182
▁अहा	-5183
देशिक	-5184
▁सूची	-5185
▁Indias	-5186
ल्यामुळे	-5187
▁लाभार्थियों	-5188
▁फू	-5189
ब्दी	-5190
▁आठवड	-5191
▁परेश	-5192
▁सिक्	-5193
▁शेतकऱ्यां	-5194
त्तर	-5195
▁राय	-5196
▁साख	-5197
▁जापान	-5198
▁नवंबर	-5199
▁बनाना	-5200
▁मेहनत	-5201
णार्या	-5202
▁आघा	-5203
▁लंबा	-5204
▁सीधे	-5205
▁वस्तुओं	-5206
▁त्याचबरोबर	-5207
ेज	-5208
मिळ	-5209
याचे	-5210
▁नवे	-5211
▁होण्यासाठी	-5212
▁पंजी	-5213
▁अर्थसं	-5214
▁दौऱ्या	-5215
▁मिलेगी	-5216
▁भारतीयों	-5217
▁केंद्रशासित	-5218
म्ब	-5219
णाचल	-5220
यंकर	-5221
▁प्ल	-5222
धिकार	-5223
▁तुम्हा	-5224
▁सचिवालय	-5225
ोषण	-5226
▁सिल	-5227
ंदर्य	-5228
▁रखता	-5229
▁वाढत	-5230
▁उत्सव	-5231
▁उर्जा	-5232
▁लाभार्थी	-5233
ंगत	-5234
किल	-5235
जनक	-5236
▁नक	-5237
▁प्रच	-5238
▁तुमने	-5239
▁अश्शूर	-5240
▁पुराने	-5241
ंथ	-5242
▁डोक	-5243
निमित्त	-5244
▁प्रवाह	-5245
▁प्रादेशिक	-5246
्‍	-5247
ताच	-5248
▁कठी	-5249
प्रेस	-5250
वियों	-5251
▁घृणा	-5252
▁कमांड	-5253
▁शकतील	-5254
▁छत्तीस	-5255
▁संघटने	-5256
▁सौंदर्य	-5257
ww	-5258
वतो	-5259
▁खि	-5260
▁घाट	-5261
▁सिय	-5262
▁कपड़े	-5263
▁प्रका	-5264
▁प्राय	-5265
▁असलेला	-5266
▁चिकित्स	-5267
▁विमानतळ	-5268
▁दिव्यांग	-5269
▁प्रदर्शित	-5270
▁सव	-5271
▁गाय	-5272
▁कठीण	-5273
▁लाइन	-5274
▁शिष्य	-5275
▁आकर्षण	-5276
▁खात्री	-5277
▁बाबतीत	-5278
▁असणाऱ्या	-5279
▁व्यापारी	-5280
ंभा	-5281
र्ती	-5282
▁गोल	-5283
▁कपडे	-5284
▁टेली	-5285
▁इच्छित	-5286
▁केंद्रों	-5287
▁१९	-5288
▁पां	-5289
▁रिस	-5290
विष्ट	-5291
▁दृश्य	-5292
▁ब्रिट	-5293
▁समस्याओं	-5294
भाग्य	-5295
▁किनार	-5296
कीम	-5297
▁चो	-5298
लाही	-5299
▁धूप	-5300
▁पुत्रों	-5301
▁संविधान	-5302
हेब	-5303
▁PM	-5304
▁लेख	-5305
▁मछ	-5306
▁लप	-5307
न्नई	-5308
▁कुठे	-5309
▁भयंकर	-5310
▁राजाओं	-5311
▁विविधता	-5312
ii	-5313
▁दगड	-5314
▁किमान	-5315
▁विक्र	-5316
▁नियुक्त	-5317
दंड	-5318
लास	-5319
ान्स	-5320
सारखी	-5321
▁जेणे	-5322
ताच्या	-5323
ल्याचे	-5324
ांमधील	-5325
▁वस्त्र	-5326
▁अफ्रीका	-5327
▁कक्ष	-5328
▁श्वास	-5329
▁याबाबत	-5330
ज़र	-5331
▁शम	-5332
▁अपे	-5333
▁राशि	-5334
▁व्यवसा	-5335
▁तांत्रिक	-5336
हम	-5337
कार्	-5338
नाडु	-5339
हायला	-5340
▁संसर्ग	-5341
▁बिन	-5342
▁कदाचित	-5343
▁मिलेगा	-5344
▁महत्वाची	-5345
▁कटि	-5346
▁युर	-5347
▁अधोरे	-5348
▁भारतीया	-5349
▁कॉर्पोरेट	-5350
▁बें	-5351
▁विल	-5352
रुध्द	-5353
▁अस्त	-5354
▁घेता	-5355
▁नामक	-5356
▁चारों	-5357
▁जुड़ा	-5358
▁सुद्धा	-5359
▁सन	-5360
▁जीत	-5361
▁मौत	-5362
▁गर्भा	-5363
▁उत्तरे	-5364
▁दिवसात	-5365
▁चक	-5366
▁कोट	-5367
▁दुसरा	-5368
▁अनुरोध	-5369
▁शौचालय	-5370
▁रणनीतिक	-5371
गान	-5372
तेची	-5373
गीकरण	-5374
▁माणसाला	-5375
▁संपत्ती	-5376
▁परमेश्वराचे	-5377
फर	-5378
लिक	-5379
▁आओ	-5380
▁फळ	-5381
▁स्थळ	-5382
्रेष्ठ	-5383
▁मैत्री	-5384
▁प्रतिमा	-5385
▁कार्र	-5386
▁ठेवून	-5387
▁पड़ता	-5388
▁कार्यक्रमों	-5389
गाल	-5390
वाण	-5391
विली	-5392
▁सदी	-5393
▁सोशल	-5394
▁स्तंभ	-5395
▁बाजारपेठ	-5396
▁सर्वाधिक	-5397
▁व्यक्तिगत	-5398
▁ठरेल	-5399
▁दृढ़	-5400
▁आघाडी	-5401
▁करणारा	-5402
पालन	-5403
▁बाव	-5404
▁शिव	-5405
▁अभिष	-5406
▁वाणी	-5407
▁सहायक	-5408
▁किनारे	-5409
▁राज्ये	-5410
and	-5411
राचे	-5412
वावे	-5413
ेडकर	-5414
▁अल्	-5415
▁खूब	-5416
▁खेळ	-5417
▁कामे	-5418
▁जांच	-5419
▁मनश्	-5420
▁लगाया	-5421
▁मत्स्य	-5422
▁हजारों	-5423
▁वेबिनार	-5424
▁जाणाऱ्या	-5425
▁गाठ	-5426
▁इतकी	-5427
▁लड़ने	-5428
▁संवर्धन	-5429
▁प्रतिस्पर्	-5430
▁प्रयोगशाळा	-5431
is	-5432
टाच्या	-5433
▁हल्ला	-5434
▁चेन्नई	-5435
▁उपाययोजन	-5436
▁उल्लेखनीय	-5437
▁असता	-5438
▁राजाने	-5439
▁कोळ	-5440
▁होय	-5441
▁पाठि	-5442
▁कोणते	-5443
▁फिल्मों	-5444
,2	-5445
अल	-5446
▁चढ	-5447
▁तय	-5448
िव्ह	-5449
▁मिली	-5450
▁राजनीतिक	-5451
,3	-5452
्‍या	-5453
▁पैकेज	-5454
▁तंत्रज्ञानाचा	-5455
,9	-5456
काता	-5457
▁वाद	-5458
ांकित	-5459
▁घेणे	-5460
पचारिक	-5461
▁स्कूल	-5462
▁ईशान्य	-5463
▁अमेरिकी	-5464
▁करारावर	-5465
▁अधोरेखित	-5466
काचे	-5467
र्जे	-5468
▁संगठनों	-5469
▁असल्यामुळे	-5470
▁प्रस्तावित	-5471
▁शेर	-5472
शक्ती	-5473
▁जोड़	-5474
्लादेश	-5475
▁दिशान	-5476
▁कॉन्फ्रेंस	-5477
AR	-5478
खल	-5479
ौल	-5480
फाई	-5481
वणे	-5482
पीसी	-5483
▁हारून	-5484
▁पहाड़ी	-5485
▁भगिनींनो	-5486
लु	-5487
वै	-5488
ापित	-5489
▁ऐका	-5490
▁वस्तु	-5491
▁राहतील	-5492
▁संचालक	-5493
▁संबोधन	-5494
▁कार्रवाई	-5495
▁पार्श्वभूमीवर	-5496
▁गरम	-5497
पोर्ट	-5498
▁अब्ज	-5499
▁औषधे	-5500
वीआईडी	-5501
▁करोगे	-5502
▁ऑनलाईन	-5503
▁मूर्ति	-5504
▁राजाला	-5505
▁महत्वाच्या	-5506
पीजी	-5507
प्रा	-5508
▁मशी	-5509
▁मां	-5510
▁शराब	-5511
▁अनावरण	-5512
▁डॉलर्स	-5513
क्चर	-5514
▁नेले	-5515
▁मॉडल	-5516
▁दुर्ग	-5517
▁सरोवर	-5518
▁इंडियन	-5519
▁देवाचा	-5520
▁आणण्यासाठी	-5521
▁मंदिराच्या	-5522
इम	-5523
पती	-5524
प्रति	-5525
▁कोणती	-5526
▁शक्तिशाली	-5527
▁वध	-5528
▁डाक	-5529
▁द्र	-5530
दायिक	-5531
▁रहती	-5532
▁निरोगी	-5533
▁सरकारचे	-5534
▁स्वदेशी	-5535
▁नो	-5536
वाना	-5537
्वित	-5538
▁एक्	-5539
▁अभूत	-5540
▁अम्म	-5541
▁उपकर	-5542
▁दवाओं	-5543
इंग	-5544
जेत	-5545
िर्देश	-5546
▁कराया	-5547
▁पीढ़ी	-5548
▁साधारण	-5549
▁तमिलनाडु	-5550
▁अभूतपूर्व	-5551
▁दिशानिर्देश	-5552
it	-5553
▁घो	-5554
▁हॉ	-5555
ज्ञा	-5556
ड़कों	-5557
▁अनिवार	-5558
▁अरुणाचल	-5559
▁भविष्यात	-5560
▁L	-5561
ट्स	-5562
पीएफ	-5563
▁मानक	-5564
▁स्कू	-5565
▁प्रचार	-5566
▁निम्नलिखित	-5567
लांग	-5568
▁चुका	-5569
▁कराराला	-5570
कश	-5571
ंका	-5572
पति	-5573
ळीत	-5574
संबर	-5575
▁एकाच	-5576
▁यहूद	-5577
▁व्हि	-5578
▁सत्या	-5579
)।	-5580
फल	-5581
सब	-5582
परी	-5583
ैली	-5584
्ती	-5585
ैर्य	-5586
▁नार	-5587
▁पहुँचा	-5588
ंव	-5589
षा	-5590
सूर	-5591
▁पुढा	-5592
▁आध्या	-5593
▁बाबुल	-5594
▁परिणामस्वरूप	-5595
og	-5596
ांसह	-5597
▁इंडो	-5598
▁एवढे	-5599
▁ग्रह	-5600
▁बाधा	-5601
▁एखादा	-5602
▁तेलंग	-5603
▁छोट्या	-5604
▁तत्त्व	-5605
▁त्वरित	-5606
▁बोलताना	-5607
मैं	-5608
▁दाय	-5609
वायला	-5610
▁बीमा	-5611
▁सुनी	-5612
तेसाठी	-5613
▁तेथील	-5614
ापर्यंत	-5615
▁ज्यांना	-5616
▁राष्ट्राध्यक्ष	-5617
▁एजें	-5618
▁केरल	-5619
▁तारी	-5620
▁ब्रा	-5621
▁रहें	-5622
▁कर्तव्य	-5623
▁स्पर्धा	-5624
▁त्यांच्यावर	-5625
चि	-5626
कूब	-5627
▁आइ	-5628
▁फस	-5629
▁मेजब	-5630
▁अडचणी	-5631
▁ज्यात	-5632
▁रोकने	-5633
च्चार	-5634
▁अवशेष	-5635
▁आध्यात्मिक	-5636
▁सर्वश्रेष्ठ	-5637
थान	-5638
▁नॅ	-5639
▁तलाश	-5640
ग्रस्त	-5641
▁चेहरा	-5642
▁शानदार	-5643
▁वैशिष्ट	-5644
IC	-5645
रोधी	-5646
▁काशी	-5647
▁कोणता	-5648
▁बदलने	-5649
ढ़े	-5650
सात	-5651
ेची	-5652
▁जागी	-5653
▁दररोज	-5654
▁कटिबद्ध	-5655
ग्ध	-5656
▁विमा	-5657
ख्यिकी	-5658
▁तरीही	-5659
▁बढ़ने	-5660
▁वंचित	-5661
चालन	-5662
▁माइ	-5663
▁वाटा	-5664
▁विपण	-5665
ताब्दी	-5666
▁पैरों	-5667
▁खेत	-5668
▁जुन	-5669
▁गुफा	-5670
▁भेंट	-5671
▁शांती	-5672
▁उत्सुक	-5673
▁कोलकाता	-5674
वजी	-5675
विर	-5676
िना	-5677
्डी	-5678
▁केर	-5679
▁कड़ी	-5680
▁बारह	-5681
▁रोजग	-5682
▁सलाम	-5683
▁तयारी	-5684
▁प्रथा	-5685
▁शिकवण	-5686
ल्‍	-5687
▁२०१	-5688
▁छोटा	-5689
▁सेंट	-5690
▁दिसंबर	-5691
▁सहकार्या	-5692
▁मोह	-5693
तालों	-5694
▁ईमान	-5695
▁उपभो	-5696
▁बलों	-5697
▁अंदाज	-5698
▁आम्हांला	-5699
▁जितेंद्र	-5700
▁अधिकाऱ्यां	-5701
ad	-5702
लोम	-5703
राचा	-5704
वाहा	-5705
▁सोल	-5706
▁पुरे	-5707
▁इस्ते	-5708
▁खालील	-5709
▁स्तुती	-5710
▁इस्तेमाल	-5711
▁अस्पतालों	-5712
18	-5713
टो	-5714
▁F	-5715
र्मा	-5716
▁आती	-5717
▁पाऊल	-5718
▁मारले	-5719
▁पत्रकार	-5720
▁विशेषतः	-5721
▁अनिवार्य	-5722
क्न	-5723
जाती	-5724
▁रैं	-5725
▁दाखव	-5726
▁नसते	-5727
▁भिंती	-5728
▁सत्ता	-5729
▁द्वारे	-5730
▁उपकरणों	-5731
▁रिकॉर्ड	-5732
▁देशभरातील	-5733
▁कॉर	-5734
▁अद्य	-5735
ण्यावर	-5736
▁जोखिम	-5737
▁येत्या	-5738
▁रुपयांची	-5739
▁सिद्धांत	-5740
▁नियंत्रित	-5741
षक	-5742
ेश्वर	-5743
▁मंडळ	-5744
▁देतात	-5745
▁लाखों	-5746
▁व्यायाम	-5747
▁माझ्यावर	-5748
-21	-5749
जूद	-5750
▁आंख	-5751
▁चुना	-5752
▁बावजूद	-5753
▁देण्याचे	-5754
▁प्रतिष्ठित	-5755
har	-5756
▁लक	-5757
प्पा	-5758
▁भूक	-5759
▁पृष्ठ	-5760
▁स्थिरता	-5761
▁सर्वांनी	-5762
माणिक	-5763
▁पाठ्य	-5764
▁ह्याच्या	-5765
▁पैसा	-5766
▁सबका	-5767
▁रक्कम	-5768
▁पुष्टि	-5769
▁शिकायत	-5770
▁मुकाबला	-5771
गण	-5772
▁36	-5773
इटिस	-5774
▁आईटी	-5775
▁नाविन	-5776
▁पलिश्	-5777
▁विक्री	-5778
▁स्तरीय	-5779
▁याशिवाय	-5780
,0	-5781
40	-5782
ेंडर	-5783
▁अंधे	-5784
▁असले	-5785
SME	-5786
एसए	-5787
ार्म	-5788
▁पड़ा	-5789
▁बेटा	-5790
▁अवश्य	-5791
▁दरवाजे	-5792
▁बुलाया	-5793
▁मनश्शे	-5794
▁मूत्र	-5795
▁याकूब	-5796
▁रोगों	-5797
▁द्यावे	-5798
▁सीओवीआईडी	-5799
▁अंतरराष्ट्रीय	-5800
ृति	-5801
सेवा	-5802
▁पीने	-5803
▁चर्चे	-5804
▁वाटचाल	-5805
▁इलेक्ट्रॉनिक	-5806
ur	-5807
ईम	-5808
▁32	-5809
▁तोड	-5810
▁दोघ	-5811
▁सेट	-5812
▁स्टार्टअप	-5813
ब्ब	-5814
तेला	-5815
▁वाहि	-5816
▁आपापल्या	-5817
▁बांग्लादेश	-5818
धीश	-5819
▁लेन	-5820
▁कहीं	-5821
▁निती	-5822
▁मिलता	-5823
▁उज्ज्व	-5824
▁झालेले	-5825
▁पातळीवर	-5826
ळावर	-5827
सीटी	-5828
▁नेम	-5829
▁भरा	-5830
▁हेत	-5831
▁नगरी	-5832
▁उसमें	-5833
▁सगळ्या	-5834
▁द्राक्ष	-5835
▁बुद्धिमान	-5836
ारस	-5837
▁वजह	-5838
▁अहरोन	-5839
▁संचालित	-5840
▁स्वाक्षऱ्या	-5841
ल्थ	-5842
▁NI	-5843
लियों	-5844
▁मिलने	-5845
डब्ल्यू	-5846
▁आजच्या	-5847
▁कालावधीत	-5848
कै	-5849
त्ये	-5850
ैमान	-5851
▁अन्	-5852
▁बेल	-5853
▁वही	-5854
▁यानी	-5855
▁पहिले	-5856
▁उपयोगी	-5857
▁वाळवंट	-5858
ंटों	-5859
न्तु	-5860
ोपीय	-5861
▁काउ	-5862
▁किर	-5863
▁अक्ष	-5864
▁नारा	-5865
▁नींव	-5866
▁शिफार	-5867
▁ख्रिस्त	-5868
▁यावर्षी	-5869
▁दुः	-5870
▁केरळ	-5871
▁मातृ	-5872
▁सागर	-5873
▁नाहीस	-5874
▁विषया	-5875
विश्वास	-5876
▁निदेशक	-5877
▁लोकसभा	-5878
▁एक्सप्रेस	-5879
जरी	-5880
टान	-5881
सेफ	-5882
क्का	-5883
▁फैला	-5884
▁ठेवला	-5885
▁तैनात	-5886
▁धान्य	-5887
▁स्पर्श	-5888
▁पर्यटना	-5889
▁राजकुमार	-5890
ँचे	-5891
पाला	-5892
▁दशक	-5893
▁हवी	-5894
वर्ती	-5895
ार्ता	-5896
ासाठी	-5897
▁अस्थ	-5898
▁तोड़	-5899
▁प्रक्रिय	-5900
ार्द	-5901
▁कसा	-5902
▁खान	-5903
▁जनरल	-5904
▁नक्की	-5905
▁स्नान	-5906
▁केलेली	-5907
▁शस्त्र	-5908
▁कुठल्या	-5909
▁त्याच्यावर	-5910
विला	-5911
▁बाई	-5912
▁मनो	-5913
मुक्त	-5914
▁श्रमिकों	-5915
▁धार्मिकता	-5916
नातून	-5917
मिळना	-5918
▁सामुदायिक	-5919
▁विकासाच्या	-5920
ब्बा	-5921
▁तित	-5922
▁देखी	-5923
▁पकड़	-5924
▁क्रेड	-5925
▁मंजूर	-5926
▁सुरेश	-5927
▁आकर्षक	-5928
▁मोबाईल	-5929
मधे	-5930
लीय	-5931
वता	-5932
ेंज	-5933
▁एम्स	-5934
▁धारा	-5935
▁दुसरी	-5936
▁प्रोट	-5937
▁राहून	-5938
▁प्रवासा	-5939
▁लोकतंत्र	-5940
▁जिम्मेदारी	-5941
▁करीब	-5942
▁गोळा	-5943
▁हिंसा	-5944
▁परिषदेच्या	-5945
▁बद	-5946
▁हड	-5947
वाचे	-5948
▁रवि	-5949
▁जल्दी	-5950
▁निदान	-5951
▁साहित	-5952
▁चित्रपटा	-5953
▁प्रतिसाद	-5954
▁श्रीलंका	-5955
▁सांगितल्या	-5956
.\	-5957
किम	-5958
दाब	-5959
▁अडथ	-5960
▁जरी	-5961
▁बनी	-5962
▁एकात्म	-5963
▁नव्हता	-5964
▁महासागर	-5965
▁जेट	-5966
▁इसने	-5967
▁प्रसं	-5968
▁मिश्र	-5969
▁सुधारण	-5970
▁चमत्कार	-5971
▁सुलैमान	-5972
▁जिल्ह्यात	-5973
नु	-5974
यण	-5975
▁ऊर्जे	-5976
▁पक्षों	-5977
▁उद्योजक	-5978
बान	-5979
पीएम	-5980
▁अंड	-5981
▁उभर	-5982
▁करनी	-5983
▁तारीख	-5984
▁शत्रूं	-5985
▁वचनबद्ध	-5986
ध्व	-5987
राव	-5988
लमोन	-5989
ांति	-5990
▁कैद	-5991
▁पहाड़	-5992
▁कार्यक्षम	-5993
▁क्षेत्राला	-5994
बलि	-5995
▁डोळ	-5996
तीच्या	-5997
▁दुर्घ	-5998
▁रणनीति	-5999
▁सर्वसा	-6000
▁दिनानिमित्त	-6001
कीन	-6002
याचा	-6003
▁फसल	-6004
▁यावे	-6005
▁इमारत	-6006
▁नावाने	-6007
▁मुख्या	-6008
▁क्रेडिट	-6009
▁गांधीजी	-6010
▁पाहिजेत	-6011
▁इलेक्ट्रॉनिक्स	-6012
▁E	-6013
प्ट	-6014
▁पाल	-6015
▁माजी	-6016
▁स्पे	-6017
▁प्रकट	-6018
▁यहोया	-6019
▁पत	-6020
▁माय	-6021
▁हल्	-6022
▁कमतर	-6023
▁तुरंत	-6024
▁क्षेत्रातल्या	-6025
जय	-6026
र्चा	-6027
▁198	-6028
▁अमा	-6029
▁कोश	-6030
▁चौक	-6031
▁डेव	-6032
▁डिजा	-6033
▁पिढी	-6034
▁आलेले	-6035
▁देशाची	-6036
▁प्रामाणिक	-6037
ंबू	-6038
र्द	-6039
▁अय	-6040
▁वळ	-6041
स्टीट	-6042
▁निरी	-6043
▁सदैव	-6044
▁गुलाम	-6045
▁पीपीई	-6046
▁म्यान	-6047
▁येशूला	-6048
▁निवडणूक	-6049
गंध	-6050
▁ताब	-6051
▁दबा	-6052
▁संच	-6053
▁बंदरगाह	-6054
▁अहमदाबाद	-6055
▁स्त्रिया	-6056
▁९	-6057
हारी	-6058
▁कारा	-6059
▁लागतो	-6060
▁व्यास	-6061
▁सड़कों	-6062
▁संस्करण	-6063
IB	-6064
▁तळ	-6065
ढ्या	-6066
भूमि	-6067
▁नमु	-6068
▁अवगत	-6069
▁खोटे	-6070
▁छाया	-6071
▁मिळू	-6072
▁ऊँचाई	-6073
▁विपणन	-6074
▁शलमोन	-6075
▁सुझाव	-6076
▁अधिकांश	-6077
▁कर्मियों	-6078
▁V	-6079
वीं	-6080
▁सण	-6081
निर्म	-6082
▁जेवण	-6083
▁यहोश	-6084
▁सापड	-6085
▁गावात	-6086
स्ट्रेल	-6087
▁उद्धार	-6088
▁कुटुंबा	-6089
▁पर्यावर	-6090
▁योजनेच्या	-6091
व्व	-6092
▁हट	-6093
▁असत	-6094
▁मंग	-6095
▁ग्लो	-6096
▁पाने	-6097
▁पारदर्शक	-6098
▁वैज्ञानिकों	-6099
▁इन्फ	-6100
▁मनोर	-6101
रुस्ती	-6102
वतंत्र	-6103
▁प्रां	-6104
▁नेतृत्वा	-6105
▁इफ्	-6106
शालोम	-6107
▁रूग्	-6108
▁लगेच	-6109
्यांमार	-6110
▁ट्रांस	-6111
▁उपक्रमा	-6112
▁प्रतियोग	-6113
▁वर्षाच्या	-6114
ed	-6115
आयटी	-6116
▁अनुसर	-6117
▁समूहों	-6118
▁रुग्णालय	-6119
गन	-6120
िनल	-6121
डीला	-6122
▁दोहरा	-6123
▁पारित	-6124
▁करण्याबाबत	-6125
▁विद्यार्थ्यांना	-6126
▁o	-6127
▁७	-6128
gov	-6129
▁भव	-6130
डीपी	-6131
▁रहना	-6132
▁सहमती	-6133
▁अपेक्षित	-6134
▁असल्याने	-6135
▁आवश्यकताओं	-6136
जीन	-6137
▁199	-6138
▁फिल	-6139
▁भरो	-6140
▁आपणा	-6141
शाच्या	-6142
▁शहरात	-6143
▁दरवर्षी	-6144
▁विवेकान	-6145
▁हस्तक्षेप	-6146
▁रोखण्यासाठी	-6147
ुरा	-6148
▁आजा	-6149
▁बातों	-6150
▁समुद्रा	-6151
▁दहशतवादा	-6152
▁यात्रियों	-6153
▁हितधारकों	-6154
कडी	-6155
▁बिक	-6156
धुनिक	-6157
▁किंमत	-6158
▁बैंकों	-6159
िले	-6160
▁Mo	-6161
▁उदय	-6162
▁भेद	-6163
स्ट्री	-6164
▁सिनेमा	-6165
▁देशांना	-6166
▁पाठ्यक्रम	-6167
फु	-6168
ळाचे	-6169
▁चिन	-6170
▁चुक	-6171
▁गिला	-6172
▁पाहत	-6173
▁फरवरी	-6174
▁याकोब	-6175
गोल	-6176
▁टुक	-6177
▁अधीन	-6178
▁मानवता	-6179
▁वृद्धी	-6180
▁सावधान	-6181
▁परिचालन	-6182
▁रुपयांच्या	-6183
श्म	-6184
ोबार	-6185
▁पाहता	-6186
▁नदीच्या	-6187
▁म्यानमार	-6188
कला	-6189
▁अंक	-6190
▁गठन	-6191
क्तिक	-6192
फारिश	-6193
▁खादी	-6194
▁खूपच	-6195
▁शिशु	-6196
▁अभिषेक	-6197
▁अबशालोम	-6198
▁सिफारिश	-6199
▁सुरक्षे	-6200
ai	-6201
शिप	-6202
ज्या	-6203
पर्य	-6204
▁चढ़	-6205
▁उर्वरक	-6206
▁पाठिंबा	-6207
दोम	-6208
लाब	-6209
▁नब	-6210
▁कच्	-6211
▁चीनी	-6212
▁टपाल	-6213
▁एजेंस	-6214
▁आधारशिला	-6215
▁राज्यांना	-6216
▁यांच्यातील	-6217
▁पस	-6218
मिता	-6219
▁MSME	-6220
▁टर्म	-6221
▁साक्षी	-6222
▁देणाऱ्या	-6223
▁ठेवण्यासाठी	-6224
ch	-6225
तल्या	-6226
▁लेना	-6227
▁संभा	-6228
▁बातें	-6229
▁ट्रस्ट	-6230
▁लोकांसाठी	-6231
▁पलिश्तियों	-6232
रीन	-6233
ूने	-6234
▁खाना	-6235
▁त्वचे	-6236
▁लांबी	-6237
मिळनाडू	-6238
विरुध्द	-6239
▁याह्वे	-6240
▁रुग्णाला	-6241
सभ	-6242
ंजन	-6243
▁बू	-6244
पिंग	-6245
▁किट	-6246
कालिक	-6247
▁निगम	-6248
▁नेते	-6249
▁विटा	-6250
▁सृजन	-6251
▁सोबत	-6252
▁उठाया	-6253
▁मंडळी	-6254
▁समाविष्ट	-6255
▁इस्राएलचा	-6256
▁खनि	-6257
▁खत्म	-6258
▁झुंड	-6259
▁विधान	-6260
▁तापमान	-6261
▁म्हणाली	-6262
▁दावीदाने	-6263
▁विवेकानंद	-6264
र्फे	-6265
लिंग	-6266
▁गरजा	-6267
▁भेड़	-6268
▁विसर	-6269
▁दुर्ल	-6270
▁मुफ्त	-6271
▁लेंगे	-6272
▁कनेक्शन	-6273
▁निवृत्ती	-6274
▁घेतलेल्या	-6275
▁अत्याधुनिक	-6276
मह	-6277
▁लड़	-6278
▁गेलो	-6279
▁छाती	-6280
▁बहाद	-6281
▁रात्र	-6282
▁प्रदूषण	-6283
▁म्यांमार	-6284
▁राजाच्या	-6285
▁राहणाऱ्या	-6286
नल	-6287
▁धू	-6288
पमेंट	-6289
▁चलने	-6290
▁निधन	-6291
▁बारी	-6292
▁वनस्प	-6293
▁देशांनी	-6294
▁केल्याने	-6295
17	-6296
फाय	-6297
ोसी	-6298
▁दफ	-6299
ांडा	-6300
▁इंग	-6301
▁तेच	-6302
▁बाळग	-6303
क्रिया	-6304
पाच्या	-6305
▁देवता	-6306
▁सहमति	-6307
▁क्रिया	-6308
▁खरोखरच	-6309
थाम	-6310
▁राग	-6311
▁अनुसू	-6312
▁कॉलेज	-6313
▁टाकले	-6314
▁परदेश	-6315
▁योजनेचा	-6316
▁यापूर्वी	-6317
▁बीस	-6318
▁मसा	-6319
▁मील	-6320
▁जर्म	-6321
▁दिसत	-6322
▁यज्ञ	-6323
▁टेक्न	-6324
▁समजून	-6325
▁जोड़ने	-6326
▁प्रवाश	-6327
▁सुवर्ण	-6328
CC	-6329
ओगे	-6330
ानु	-6331
▁45	-6332
▁ईय	-6333
▁गौ	-6334
▁पीक	-6335
▁पॉल	-6336
▁अहाब	-6337
▁आएगा	-6338
▁कष्ट	-6339
▁दर्ज	-6340
▁शैली	-6341
▁निघून	-6342
▁येथून	-6343
▁ज्याला	-6344
▁जाण्यासाठी	-6345
ॉम	-6346
▁खज	-6347
लग्न	-6348
▁तेव	-6349
त्रिम	-6350
वल्या	-6351
ोलॉजी	-6352
▁पारि	-6353
▁पाहू	-6354
▁बाढ़	-6355
▁याने	-6356
वृत्ति	-6357
▁कोयला	-6358
▁शताब्दी	-6359
▁प्रकाशित	-6360
▁प्रतिनिधित्व	-6361
ॉर	-6362
निट	-6363
पार	-6364
नेस्सर	-6365
▁धर्मी	-6366
▁नेपाळ	-6367
▁स्थला	-6368
▁गरजेचे	-6369
▁समानता	-6370
▁माझ्याकडे	-6371
▁कन	-6372
▁जैन	-6373
▁बंग	-6374
▁करणा	-6375
▁अहवाल	-6376
▁उठाने	-6377
▁उपहार	-6378
▁पोलीस	-6379
▁पलिष्ट	-6380
▁इंटरनेट	-6381
▁तिसऱ्या	-6382
▁पाठविले	-6383
▁सुधारों	-6384
▁पाकिस्तान	-6385
IS	-6386
ल्य	-6387
▁टू	-6388
▁ठोस	-6389
▁फिट	-6390
▁श्व	-6391
▁साद	-6392
▁बंधन	-6393
▁गुप्त	-6394
▁पेशकश	-6395
▁मिळून	-6396
▁गाड्या	-6397
▁स्वयंसे	-6398
▁हस्तांतरण	-6399
▁(2	-6400
▁रॉ	-6401
सिंग	-6402
▁भूल	-6403
▁मिनट	-6404
▁इंस्टीट	-6405
▁त्यातून	-6406
▁मुलाकात	-6407
▁परिषदेचे	-6408
▁सांख्यिकी	-6409
FF	-6410
तुम	-6411
पया	-6412
्डे	-6413
कारा	-6414
ासार	-6415
▁एंटी	-6416
▁कहना	-6417
▁सारा	-6418
ंबेडकर	-6419
▁फाउंड	-6420
▁वय	-6421
▁दीन	-6422
▁गिरा	-6423
▁नाते	-6424
ान्वित	-6425
िकीकरण	-6426
्यामीन	-6427
पक	-6428
तेवर	-6429
▁आपसे	-6430
▁नीती	-6431
▁कोळसा	-6432
▁पॅकेज	-6433
▁दक्षता	-6434
▁पड़ोसी	-6435
▁ज्यांनी	-6436
▁प्रकाशन	-6437
▁विद्युती	-6438
स्ट्रेलिया	-6439
▁यांच्याशी	-6440
ैम	-6441
▁65	-6442
▁आना	-6443
ांतून	-6444
▁साली	-6445
▁सुगंध	-6446
▁सूचित	-6447
▁समारंभ	-6448
▁लाभान्वित	-6449
▁प्रसंस्करण	-6450
▁पंतप्रधानांचे	-6451
▁34	-6452
थ्या	-6453
▁जाएँ	-6454
▁पडले	-6455
ांबाबत	-6456
▁खासगी	-6457
▁महीनों	-6458
▁विश्ले	-6459
प्रमाणेच	-6460
▁प्रमाणावर	-6461
अलग	-6462
▁42	-6463
▁आर्	-6464
ांकडे	-6465
▁आर्ट	-6466
▁मंचा	-6467
्यातून	-6468
▁हिंदी	-6469
▁2020-21	-6470
परि	-6471
स्‍	-6472
्राव	-6473
▁बळी	-6474
▁रिज	-6475
▁हाच	-6476
▁काना	-6477
▁बादल	-6478
▁घालून	-6479
▁तरीकों	-6480
▁भागातील	-6481
▁देण्याच्या	-6482
▁देशांतर्गत	-6483
▁कथा	-6484
▁काग	-6485
▁फ्ल	-6486
▁दिवा	-6487
▁दुःख	-6488
समावेश	-6489
▁घंटों	-6490
▁डेविड	-6491
▁रशिया	-6492
▁अर्पित	-6493
▁आराखडा	-6494
ांपेक्षा	-6495
▁अब्राहा	-6496
▁वाहतुकी	-6497
मंत्र्यांनी	-6498
▁त्याचप्रमाणे	-6499
id	-6500
▁मॅ	-6501
▁इन्	-6502
▁ध्व	-6503
▁विश	-6504
▁हटा	-6505
▁खराब	-6506
▁वर्ण	-6507
्यांशी	-6508
▁दूरसं	-6509
▁वारसा	-6510
▁पेशेवर	-6511
▁मदतीने	-6512
▁सांगून	-6513
▁याविषयी	-6514
ोजे	-6515
▁नात	-6516
▁आसाम	-6517
▁टीका	-6518
▁अक्षय	-6519
▁देतील	-6520
▁रस्ता	-6521
▁सारख्या	-6522
▁अध्यादेश	-6523
▁आत्मविश्वास	-6524
ion	-6525
फिक	-6526
▁अँ	-6527
क्रो	-6528
▁ईंधन	-6529
▁टाका	-6530
▁जोडणी	-6531
▁नेपाल	-6532
▁परमाण	-6533
▁मानना	-6534
▁सस्ती	-6535
▁उभारणी	-6536
▁कलाकार	-6537
▁दहशतवाद	-6538
▁ठेवण्यात	-6539
▁मार्गावर	-6540
▁केल्यानंतर	-6541
▁आयकर	-6542
▁चर्च	-6543
▁तज्ञ	-6544
द्वारा	-6545
▁कार्म	-6546
▁बनवले	-6547
▁इमारती	-6548
▁स्तुति	-6549
▁जरूरतों	-6550
▁न्यायाधीश	-6551
उट	-6552
ह्न	-6553
▁55	-6554
पोषण	-6555
ब्रा	-6556
मागे	-6557
स्मा	-6558
▁यादी	-6559
▁बनाता	-6560
▁बोलला	-6561
▁हृदया	-6562
▁खूबसूर	-6563
▁ग्लोबल	-6564
▁जमिनीवर	-6565
▁प्रतिनिधियों	-6566
काचा	-6567
बिया	-6568
लाचे	-6569
▁पौल	-6570
▁बरेच	-6571
▁बोली	-6572
▁मतलब	-6573
▁गरीबी	-6574
▁मासिक	-6575
▁म्हणणे	-6576
▁विकल्प	-6577
▁फाउंडेशन	-6578
▁यासंदर्भात	-6579
▁33	-6580
▁इंट	-6581
▁येणे	-6582
▁लकड़ी	-6583
▁सीमित	-6584
क्षेत्र	-6585
▁देण्या	-6586
▁कृत्रिम	-6587
▁मंत्रियों	-6588
इप	-6589
ळण	-6590
रण्य	-6591
सभेत	-6592
▁ऐकू	-6593
▁आधुन	-6594
▁क्षण	-6595
▁अंग्रे	-6596
▁परमाणु	-6597
▁संलग्न	-6598
▁गणराज्य	-6599
▁सिंहासन	-6600
▁महत्वाचा	-6601
गां	-6602
नाने	-6603
▁औषधी	-6604
▁जागे	-6605
▁मणिप	-6606
▁मालम	-6607
▁स्तन	-6608
▁दैनिक	-6609
▁विकार	-6610
्यपूर्ण	-6611
▁निर्मला	-6612
▁विभागाच्या	-6613
पीएस	-6614
▁194	-6615
▁गुना	-6616
▁थोडे	-6617
▁आवाज़	-6618
▁मानतो	-6619
▁एलपीजी	-6620
▁हज	-6621
कावर	-6622
▁मरा	-6623
▁काले	-6624
▁पड़े	-6625
▁पुरा	-6626
▁वापरा	-6627
▁निवारण	-6628
▁करण्यावर	-6629
▁निर्माता	-6630
▁निवासियों	-6631
घ्र	-6632
दिव	-6633
आईटी	-6634
▁अस्	-6635
▁चट्ट	-6636
▁सांस	-6637
▁जगाला	-6638
▁भरोसा	-6639
▁हेल्थ	-6640
▁मोशेने	-6641
▁प्रकारची	-6642
▁१०	-6643
वाने	-6644
▁नरे	-6645
▁साडे	-6646
स्थानी	-6647
स्परिक	-6648
▁बढ़ते	-6649
▁सुभाष	-6650
▁घराण्या	-6651
▁इस्राएली	-6652
▁उद्देशाने	-6653
▁प्रतिनिधिमंड	-6654
▁नाक	-6655
▁पंख	-6656
▁लसी	-6657
▁दाहि	-6658
▁खर्चा	-6659
▁बेटों	-6660
▁कोणताही	-6661
▁उत्पादने	-6662
▁झूठ	-6663
▁कधीच	-6664
▁किरण	-6665
▁डोळे	-6666
▁तनाव	-6667
▁वेगळे	-6668
▁तक्रार	-6669
▁मिलाकर	-6670
▁विशेषत	-6671
▁देण्याचा	-6672
▁संकल्पना	-6673
▁पारस्परिक	-6674
▁झाल्यानंतर	-6675
▁सर्वसमावेश	-6676
▁हथ	-6677
▁1000	-6678
▁दुसरे	-6679
▁हिमालय	-6680
▁निमंत्र	-6681
▁झाल्याचे	-6682
▁महत्वाकां	-6683
▁मंत्र्यांनी	-6684
▁क्षेत्रामध्ये	-6685
प्रस	-6686
▁ऑपर	-6687
▁मधे	-6688
▁हमी	-6689
▁पट्ट	-6690
▁माती	-6691
▁हंगा	-6692
▁गोत्र	-6693
▁स्वप्	-6694
▁संख्येने	-6695
▁संवेदनशील	-6696
▁अर्थसंकल्प	-6697
थॉन	-6698
कीया	-6699
▁गेह	-6700
▁धान	-6701
सर्या	-6702
▁उड्डा	-6703
▁लागली	-6704
▁संतोष	-6705
जातियों	-6706
▁जेणेकरून	-6707
▁यहूदियों	-6708
RA	-6709
▁फ़	-6710
एनएस	-6711
▁पंच	-6712
▁मूळ	-6713
▁रामा	-6714
▁आनंदी	-6715
▁उपकरणे	-6716
▁कामकाज	-6717
▁व्हावी	-6718
यती	-6719
ल्फ	-6720
▁48	-6721
वानी	-6722
▁बेड	-6723
▁तोमर	-6724
▁सपने	-6725
▁इंजीन	-6726
▁गवाही	-6727
▁सौभाग्य	-6728
▁वाढवण्यासाठी	-6729
रेट	-6730
डीआर	-6731
पुरव	-6732
▁बाह	-6733
▁औषधि	-6734
▁निया	-6735
▁व्ही	-6736
▁यहोशू	-6737
▁वाटेल	-6738
▁पीढ़ियों	-6739
▁विकासाला	-6740
▁यहूदाच्या	-6741
▁संग्रहालया	-6742
▁अम्	-6743
▁इको	-6744
▁खां	-6745
▁गेट	-6746
▁तिक	-6747
▁दैव	-6748
▁मोक	-6749
▁शिल	-6750
▁सद्	-6751
ासंगिक	-6752
▁जोडले	-6753
▁निर्णया	-6754
▁प्रासंगिक	-6755
ँस	-6756
टेक	-6757
▁झाड	-6758
▁बंधु	-6759
▁लंबी	-6760
▁सिखा	-6761
▁तेथून	-6762
▁निंदा	-6763
▁जीवनात	-6764
▁जुन्या	-6765
▁देशाचे	-6766
▁अत्यधिक	-6767
▁इच्छितो	-6768
▁प्रोटोक	-6769
▁इंस्टीट्यूट	-6770
कून	-6771
ूपी	-6772
ज़ार	-6773
दुखी	-6774
▁इंद	-6775
▁सोप	-6776
▁हरी	-6777
ल्‍ली	-6778
ांबरोबर	-6779
▁प्रदेशातील	-6780
▁केल्याबद्दल	-6781
रोन	-6782
▁महल	-6783
द्वार	-6784
▁मोफत	-6785
▁वाढवि	-6786
▁जगभरात	-6787
▁परेशान	-6788
▁ह्याला	-6789
तू	-6790
करा	-6791
▁38	-6792
दाता	-6793
▁अकाद	-6794
▁किले	-6795
▁गावा	-6796
▁ज्ये	-6797
▁प्रि	-6798
णामुळे	-6799
दराबाद	-6800
▁ढांचा	-6801
▁डिजाइन	-6802
▁मान्यवर	-6803
▁परिस्थितीत	-6804
डन	-6805
एनए	-6806
साइट	-6807
▁जाल	-6808
हाय्य	-6809
▁पाठी	-6810
▁बहुता	-6811
▁समर्पण	-6812
▁मार्गाने	-6813
▁शं	-6814
▁सॉ	-6815
▁मिश	-6816
िलियन	-6817
▁अनंत	-6818
▁रद्द	-6819
▁दिल्‍ली	-6820
▁आयुष्यात	-6821
▁ह्यांच्या	-6822
ॅप	-6823
ॉड	-6824
कोट	-6825
ज्य	-6826
सीए	-6827
ोन्	-6828
▁पकड	-6829
स्तीत	-6830
▁मुळे	-6831
▁जोड़ा	-6832
▁पूंजी	-6833
▁शासित	-6834
▁पाठवले	-6835
▁सिंगापुर	-6836
चिक	-6837
▁चयन	-6838
साहेब	-6839
▁नियु	-6840
▁बालक	-6841
▁जरूरी	-6842
▁मिलती	-6843
▁इतक्या	-6844
▁सेवकों	-6845
▁स्क्री	-6846
▁प्रतियोगिता	-6847
र्भ	-6848
▁क्व	-6849
▁शही	-6850
▁शाप	-6851
▁हाय	-6852
▁उपदेश	-6853
▁मागील	-6854
▁वाढेल	-6855
▁पाण्यात	-6856
रीच	-6857
▁नज	-6858
▁सख	-6859
डेकर	-6860
सीएम	-6861
▁तीसरे	-6862
स्थापित	-6863
▁देवदूत	-6864
▁कोणतीही	-6865
▁प्रथाओं	-6866
▁तंत्रज्ञानाच्या	-6867
▁बोस	-6868
▁अपील	-6869
▁करायची	-6870
▁कोणतेही	-6871
▁ज्येष्ठ	-6872
▁सरकारला	-6873
▁पृथ्वीवर	-6874
▁प्रशिक्षित	-6875
▁s	-6876
मेल	-6877
ज्जी	-6878
▁पचा	-6879
▁इतनी	-6880
▁मरीज	-6881
क्ताओं	-6882
नेशिया	-6883
▁उपासना	-6884
▁झालेली	-6885
▁रहेंगे	-6886
▁श्रेष्ठ	-6887
▁सुविधाएं	-6888
▁तामिळनाडू	-6889
▁सर्वसमावेशक	-6890
चानक	-6891
▁गंग	-6892
▁कठिन	-6893
▁कहानी	-6894
▁युक्त	-6895
▁भंडारण	-6896
▁रोमांच	-6897
▁होण्याचा	-6898
▁एजेंसियों	-6899
यह	-6900
ंचन	-6901
तेत	-6902
वेशन	-6903
▁इतना	-6904
▁भीती	-6905
▁सीबी	-6906
लपमेंट	-6907
▁अचानक	-6908
▁मिनिट	-6909
▁शर्मा	-6910
▁यात्री	-6911
▁रिसर्च	-6912
शास्त्रा	-6913
▁औपचारिक	-6914
▁संशोधित	-6915
▁त्यापैकी	-6916
▁जिम्मेदार	-6917
am	-6918
ऊस	-6919
▁अट	-6920
ांकन	-6921
▁फें	-6922
▁पोषक	-6923
▁मासे	-6924
▁अनुमो	-6925
▁अभिने	-6926
▁आभासी	-6927
▁निकाय	-6928
▁मोशेला	-6929
▁उत्पादकता	-6930
▁परराष्ट्र	-6931
▁प्रदर्शनी	-6932
▁प्रोटोकॉल	-6933
▁त्याप्रमाणे	-6934
उंट	-6935
वीस	-6936
भरणी	-6937
स्टि	-6938
▁रिट	-6939
▁दिमाग	-6940
▁मस्ति	-6941
▁पर्याय	-6942
▁लिहिले	-6943
▁समृद्धी	-6944
▁पायाभरणी	-6945
▁रुपयांचे	-6946
▁चू	-6947
चालक	-6948
ातडी	-6949
▁एकल	-6950
▁मले	-6951
▁सवल	-6952
▁सीई	-6953
ांजली	-6954
ार्मा	-6955
▁अखंड	-6956
▁ईयोब	-6957
▁शाखा	-6958
▁बचाने	-6959
▁मिळतो	-6960
▁याह्वेह	-6961
▁अके	-6962
▁आकड	-6963
▁ठेवली	-6964
▁देवाण	-6965
▁पहिली	-6966
▁परन्तु	-6967
ांपर्यंत	-6968
▁द्यायला	-6969
▁त्याबद्दल	-6970
▁राज्यातील	-6971
▁विशेषज्ञों	-6972
ण्य	-6973
साव	-6974
ोगु	-6975
द्दा	-6976
िकरण	-6977
▁130	-6978
▁आकर	-6979
▁आणा	-6980
▁गलत	-6981
▁दोगु	-6982
▁न्यून	-6983
▁प्रेस	-6984
▁झालेला	-6985
▁अवलंबून	-6986
▁लेवियों	-6987
60	-6988
्टर	-6989
▁उर	-6990
▁टूट	-6991
▁दाँ	-6992
▁सरल	-6993
बाहेर	-6994
▁झालो	-6995
▁सांगू	-6996
▁अवस्था	-6997
▁प्रचंड	-6998
▁शरीरात	-6999
▁पुढाकार	-7000
▁विटामिन	-7001
मंत्रियों	-7002
ic	-7003
पत	-7004
बोन	-7005
▁जळ	-7006
▁अमर	-7007
▁ओदि	-7008
▁मुँ	-7009
▁सुस	-7010
योग्य	-7011
▁बजाय	-7012
▁हाउस	-7013
▁वतीने	-7014
▁नियामक	-7015
▁मणिपुर	-7016
▁ह्याचा	-7017
▁जनतेच्या	-7018
▁मंत्रिमंडळाच्या	-7019
टों	-7020
याग	-7021
लिश	-7022
▁II	-7023
▁लष्	-7024
▁हैदराबाद	-7025
el	-7026
ियस	-7027
▁कशी	-7028
▁मीट	-7029
▁कप्त	-7030
▁होटल	-7031
▁अफगान	-7032
▁आजादी	-7033
▁रक्ता	-7034
▁सुरुवा	-7035
▁प्रमाणे	-7036
निक	-7037
बली	-7038
▁घन	-7039
▁जू	-7040
काने	-7041
शैली	-7042
▁वेश	-7043
▁इटली	-7044
▁ऊंचा	-7045
▁अभिनव	-7046
▁बढ़कर	-7047
▁यहोशा	-7048
▁यातून	-7049
▁केलेला	-7050
▁दिवसीय	-7051
▁आयोगाने	-7052
▁केंद्रे	-7053
▁पारदर्शी	-7054
ोत	-7055
हीन	-7056
वाचा	-7057
▁कहो	-7058
▁तशी	-7059
चार्य	-7060
▁शिविर	-7061
▁सैनिकों	-7062
▁ज्यामध्ये	-7063
नन	-7064
ुप	-7065
▁Sh	-7066
▁छूट	-7067
▁साबित	-7068
▁अनुरूप	-7069
▁प्रोजे	-7070
▁राहतात	-7071
स्वतंत्र	-7072
▁विद्युत	-7073
▁प्राण्या	-7074
▁सिंगापूर	-7075
िमी	-7076
ोदय	-7077
जन्य	-7078
▁एला	-7079
▁वास	-7080
▁हिम	-7081
▁आजही	-7082
▁कीमत	-7083
▁त्यो	-7084
▁नौदल	-7085
▁हजारो	-7086
▁लाभदायक	-7087
▁टक्क्यां	-7088
▁नरेन्द्र	-7089
▁विश्लेषण	-7090
▁पूर्वोत्तर	-7091
रह	-7092
दूक	-7093
ऐवजी	-7094
्यूर	-7095
▁इक्	-7096
▁जाय	-7097
▁दंड	-7098
▁हॉट	-7099
▁गवर्	-7100
▁सफाई	-7101
▁फैसला	-7102
▁अधिकृत	-7103
▁निर्भर	-7104
▁जावडेकर	-7105
▁डॉक्टरों	-7106
▁माझ्यासाठी	-7107
▁ऑस्ट्रेलिया	-7108
▁राज्यांमध्ये	-7109
धना	-7110
ृत्य	-7111
▁कृत	-7112
▁अफगा	-7113
▁पीछा	-7114
▁बेहद	-7115
▁इफ्फी	-7116
▁उंचीवर	-7117
▁खाद्या	-7118
▁निकाला	-7119
▁मिट्टी	-7120
▁अपवित्र	-7121
▁त्योहार	-7122
▁परियोजनाएं	-7123
▁प्रतिनिधिमंडल	-7124
लेख	-7125
▁नॉ	-7126
▁टेक	-7127
▁थोड	-7128
भोवती	-7129
▁2030	-7130
▁कराल	-7131
▁खेती	-7132
▁गरिब	-7133
▁वाढी	-7134
▁आएंगे	-7135
▁कामों	-7136
▁जंगली	-7137
▁एनसीसी	-7138
▁कंपन्या	-7139
▁लोकसंख्य	-7140
▁विभागाचे	-7141
मय	-7142
-17	-7143
▁49	-7144
एमएस	-7145
ार्क	-7146
▁दळण	-7147
▁पर्	-7148
िकाओं	-7149
▁इतका	-7150
▁ऐकून	-7151
▁पडला	-7152
▁मानस	-7153
▁साक्ष	-7154
ंपर्यंत	-7155
▁मुंबईत	-7156
▁दुर्घटना	-7157
▁बीमारियों	-7158
75	-7159
क्य	-7160
भाई	-7161
धारा	-7162
पाशी	-7163
▁खाल	-7164
▁जेल	-7165
▁पाए	-7166
▁वैय	-7167
ोग्रा	-7168
▁असणार	-7169
▁मानते	-7170
.”	-7171
AI	-7172
रि	-7173
बाल	-7174
▁:-	-7175
बिंब	-7176
सरों	-7177
▁अक्	-7178
▁तसा	-7179
▁साव	-7180
▁खेळा	-7181
▁जिंक	-7182
▁यार्	-7183
▁वक्त	-7184
▁उन्नत	-7185
▁जिसकी	-7186
▁राहात	-7187
▁राजस्व	-7188
▁मूल्यों	-7189
▁विभागाने	-7190
▁लोकांमध्ये	-7191
छा	-7192
▁इजरा	-7193
▁खनिज	-7194
▁जाँच	-7195
▁पसंद	-7196
▁अग्नी	-7197
▁निरोप	-7198
▁लावले	-7199
▁वृत्त	-7200
▁बिजनेस	-7201
▁अधिकाधिक	-7202
**	-7203
प्पट	-7204
▁कॉल	-7205
▁सब्	-7206
निष्ठ	-7207
ॉर्डन	-7208
▁स्टा	-7209
▁असावे	-7210
▁त्रिप	-7211
▁जाऊंगा	-7212
▁राजदूत	-7213
करणासाठी	-7214
▁जलमार्ग	-7215
▁पहाड़ों	-7216
▁ट्रिलियन	-7217
▁दिग्दर्शक	-7218
▁वाणिज्यिक	-7219
▁व्यक्तीला	-7220
जुट	-7221
▁वग	-7222
▁उलट	-7223
देशीर	-7224
▁अनुभ	-7225
▁खुला	-7226
▁खोली	-7227
▁मेगा	-7228
▁जेटली	-7229
▁पोलिस	-7230
▁अजूनही	-7231
▁जास्तीत	-7232
▁डब्ल्यू	-7233
▁उपभोक्ता	-7234
▁ज्याच्या	-7235
▁पहिल्यांदा	-7236
▁प्रौद्योगिक	-7237
़ा	-7238
ंटा	-7239
▁th	-7240
▁उग	-7241
▁इनो	-7242
▁मेज	-7243
▁जाति	-7244
▁शासक	-7245
▁सुनो	-7246
▁बातमी	-7247
▁शेवटी	-7248
▁सन्दूक	-7249
▁निमित्त	-7250
▁परिश्रम	-7251
▁प्रतिबिंब	-7252
▁सहकार्याने	-7253
▁रोजगाराच्या	-7254
▁प्रयोगशालाओं	-7255
FFI	-7256
ष्ठा	-7257
▁Aay	-7258
▁कलम	-7259
▁रेख	-7260
▁हान	-7261
त्त्व	-7262
▁पिला	-7263
▁बायो	-7264
▁सफेद	-7265
▁काढले	-7266
▁पुरानी	-7267
▁थक	-7268
ेतील	-7269
ार्थी	-7270
▁लिंक	-7271
▁छुड़ा	-7272
▁अद्यया	-7273
▁नियोजन	-7274
▁बिक्री	-7275
▁दर्शनीय	-7276
▁अभ्यासक्रम	-7277
दीप	-7278
▁तिथ	-7279
▁शतक	-7280
▁सरळ	-7281
▁थोड़	-7282
▁दाखल	-7283
▁लॉजि	-7284
▁हक्क	-7285
▁Aayog	-7286
▁अड्डे	-7287
▁आधारे	-7288
▁उड़ान	-7289
▁पहलों	-7290
▁पावला	-7291
ईपर्यंत	-7292
▁महाराज	-7293
▁घेतल्या	-7294
▁संक्रमित	-7295
ताब	-7296
▁IC	-7297
▁१५	-7298
प्रे	-7299
▁गार	-7300
▁नील	-7301
▁भले	-7302
ारावर	-7303
▁अभया	-7304
▁मशीन	-7305
▁एकजुट	-7306
▁आफ्रिक	-7307
▁सर्वजण	-7308
▁होण्या	-7309
▁कार्मिक	-7310
▁न्यूनतम	-7311
▁व्हायला	-7312
▁श्रद्धा	-7313
▁सर्वांचे	-7314
व्यतिरिक्त	-7315
▁दृष्टीकोन	-7316
ैप	-7317
▁टि	-7318
▁सॅ	-7319
भागा	-7320
▁अदा	-7321
▁कों	-7322
▁खबर	-7323
▁देर	-7324
▁बोझ	-7325
▁हिज्	-7326
दाताओं	-7327
ांमधून	-7328
▁नौदला	-7329
▁जॉर्डन	-7330
▁दिखाया	-7331
▁देशाचा	-7332
▁एकात्मिक	-7333
▁अल्पसंख्य	-7334
▁आधुनिकीकरण	-7335
इज	-7336
धर	-7337
वह	-7338
तीन	-7339
भरा	-7340
यत्त	-7341
र्तन	-7342
▁उपज	-7343
▁दरी	-7344
ाराला	-7345
▁NITI	-7346
▁योगा	-7347
पक्षीय	-7348
पुरवठा	-7349
▁स्टॉक	-7350
▁मुलाला	-7351
▁संघटना	-7352
▁सिंचाई	-7353
▁यार्देन	-7354
▁निरीक्षण	-7355
▁कुठल्याही	-7356
लोक	-7357
▁तम्	-7358
▁बिंद	-7359
▁बच्चा	-7360
वलेल्या	-7361
▁दुप्पट	-7362
▁नव्हती	-7363
▁महामंड	-7364
▁समावेशी	-7365
▁न्यायालय	-7366
दाम	-7367
▁कू	-7368
▁नफ	-7369
▁गुड	-7370
▁सगळ	-7371
काळात	-7372
वायरस	-7373
▁जाकर	-7374
▁ताकद	-7375
▁फोरम	-7376
ांतरित	-7377
ेमध्ये	-7378
▁आलेला	-7379
▁हातात	-7380
▁तक्रारी	-7381
▁सामायिक	-7382
▁रेखांकित	-7383
▁स्वायत्त	-7384
▁प्लास्टिक	-7385
▁रड	-7386
पीपी	-7387
ल्लू	-7388
▁हून	-7389
▁कुणी	-7390
▁साहस	-7391
▁चार्ज	-7392
▁पावसा	-7393
▁नियमों	-7394
▁माणसाने	-7395
▁व्यासपी	-7396
▁वैयक्तिक	-7397
▁अधिकाऱ्यांना	-7398
▁वर्षांपूर्वी	-7399
▁1.5	-7400
▁चोट	-7401
विरोध	-7402
▁बसून	-7403
▁नॅशनल	-7404
▁शिल्प	-7405
▁सर्दी	-7406
▁देवदार	-7407
▁लोकांशी	-7408
▁मुख्यालय	-7409
▁निर्माताओं	-7410
हद	-7411
ँची	-7412
लोड	-7413
वाट	-7414
भवती	-7415
्यूब	-7416
▁पाट	-7417
्यांत	-7418
▁चिंत	-7419
▁बंदी	-7420
▁उदयोग	-7421
▁काउंस	-7422
▁गिलाद	-7423
▁दूरसंचार	-7424
▁लक्ष्यों	-7425
▁न्यायालया	-7426
डीसी	-7427
्येक	-7428
▁गिल	-7429
▁चैन	-7430
▁तौर	-7431
▁पति	-7432
▁मद्	-7433
▁शरण	-7434
यांना	-7435
▁इतने	-7436
▁दूसरों	-7437
▁सेवाएं	-7438
▁साहित्य	-7439
▁इस्राएला	-7440
▁पुनरुच्चार	-7441
ूल्य	-7442
▁घडले	-7443
▁देकर	-7444
▁पूरक	-7445
▁संतु	-7446
▁स्ने	-7447
त्यक्ष	-7448
माच्या	-7449
ेंव्हा	-7450
▁चिह्न	-7451
▁सर्वि	-7452
▁कित्येक	-7453
▁संतुलित	-7454
▁प्रतिज्ञा	-7455
▁इंडोनेशिया	-7456
▁अधिकाऱ्यांनी	-7457
कत	-7458
लेक	-7459
▁हळ	-7460
स्वा	-7461
▁इसहा	-7462
▁अफगाण	-7463
▁कठिना	-7464
▁पुरात	-7465
▁योहान	-7466
▁अंदाजे	-7467
▁अधिकतम	-7468
▁पश्चिमी	-7469
स्ट्रक्चर	-7470
▁मदतीसाठी	-7471
▁प्रशासकीय	-7472
▁पुढीलप्रमाणे	-7473
▁t	-7474
!";	-7475
चले	-7476
वधी	-7477
▁असणे	-7478
▁चलता	-7479
▁डोके	-7480
▁कराने	-7481
▁देखता	-7482
▁सीतार	-7483
तांच्या	-7484
▁परिभाष	-7485
▁करतांना	-7486
▁इलेक्ट्रिक	-7487
इंड	-7488
वीर	-7489
▁of	-7490
▁300	-7491
▁तात्	-7492
▁दशकों	-7493
▁वाटले	-7494
्यामध्ये	-7495
▁देवताओं	-7496
▁संरक्षित	-7497
्रास्ट्रक्चर	-7498
▁कॉन्फरन्सिंग	-7499
CO	-7500
कुट	-7501
आईसी	-7502
ेतून	-7503
▁इंत	-7504
▁करण	-7505
▁बेच	-7506
▁हीच	-7507
ऱ्यात	-7508
▁आपसी	-7509
▁उंचा	-7510
▁विकत	-7511
▁कर्जा	-7512
▁कवरेज	-7513
▁महानि	-7514
▁उद्योगों	-7515
▁महिलांना	-7516
▁त्यांच्यासाठी	-7517
लाग	-7518
▁मक	-7519
बाजू	-7520
य्या	-7521
वादन	-7522
▁अँड	-7523
▁किश	-7524
▁आरोप	-7525
▁चलते	-7526
▁मुँह	-7527
ोग्राम	-7528
▁गार्ड	-7529
▁विनाश	-7530
▁नक्कीच	-7531
▁मद्देन	-7532
▁लोकांवर	-7533
▁तिरस्कार	-7534
▁लोकसंख्या	-7535
डीत	-7536
पाई	-7537
सनीय	-7538
▁अडक	-7539
▁एनसी	-7540
▁पोला	-7541
▁प्रज	-7542
▁वैसे	-7543
▁भाग्य	-7544
▁शास्त	-7545
▁शिवाय	-7546
▁क्रांति	-7547
▁युवकांना	-7548
▁करारामुळे	-7549
▁महत्त्वाचे	-7550
ोथ	-7551
▁जाळ	-7552
▁जीभ	-7553
▁शेष	-7554
ोरेशन	-7555
▁पचास	-7556
▁परिक	-7557
▁रंगा	-7558
▁राजन	-7559
मार्फत	-7560
▁कदमों	-7561
▁फायदे	-7562
▁आंतरिक	-7563
▁इजरायल	-7564
▁बहादुर	-7565
▁इकाइयों	-7566
▁ट्रेनों	-7567
▁मद्देनजर	-7568
▁उद्यमियों	-7569
▁त्यामध्ये	-7570
▁अप्रत्यक्ष	-7571
मंद	-7572
▁लाए	-7573
▁वसू	-7574
न्दित	-7575
▁राजे	-7576
आर्थिक	-7577
हाच्या	-7578
▁ओळखले	-7579
▁टेस्ट	-7580
▁धैर्य	-7581
▁नगरात	-7582
▁मतदान	-7583
▁आरक्षण	-7584
▁कमतरता	-7585
▁वाहनों	-7586
▁टर्मिनल	-7587
▁फ्रान्स	-7588
रीज	-7589
रोह	-7590
▁डू	-7591
ारीत	-7592
▁गाड	-7593
▁नोट	-7594
▁आश्र	-7595
▁ठेवू	-7596
▁पुरी	-7597
▁दळणवळ	-7598
▁बऱ्या	-7599
▁साइबर	-7600
▁पूर्वे	-7601
▁सीरिया	-7602
▁गर्भवती	-7603
▁बेटियों	-7604
लर	-7605
▁उक	-7606
▁टोक	-7607
▁यशा	-7608
▁रत्	-7609
▁वसा	-7610
▁धरती	-7611
▁नींद	-7612
▁पूछा	-7613
▁मेला	-7614
▁रागा	-7615
व्यापी	-7616
▁ग्रीन	-7617
▁हत्या	-7618
▁अम्मोन	-7619
▁दक्षिणे	-7620
▁यिर्मया	-7621
▁अधिसूचना	-7622
▁स्थलांतर	-7623
ंसे	-7624
टीय	-7625
सभे	-7626
स्सा	-7627
▁PIB	-7628
▁एअर	-7629
▁घूम	-7630
▁असाल	-7631
▁तथ्य	-7632
▁धीरे	-7633
▁मुलगी	-7634
▁ऑपरेशन	-7635
▁जहाजों	-7636
▁फ्रांस	-7637
▁व्हावा	-7638
▁याजकाने	-7639
▁परिस्थित	-7640
▁प्रोजेक्ट	-7641
दोष	-7642
वते	-7643
िस्ट	-7644
▁बसा	-7645
▁अद्व	-7646
▁सक्ष	-7647
▁होनी	-7648
सायनिक	-7649
▁कृपया	-7650
▁द्याय	-7651
▁माहित	-7652
▁पहुंचा	-7653
▁स्थानक	-7654
▁आनन्दित	-7655
▁नां	-7656
▁उतार	-7657
▁स्टेश	-7658
▁स्पेश	-7659
ांबद्दल	-7660
▁ज्ञाना	-7661
▁प्यारे	-7662
▁प्रभार	-7663
▁स्वर्ण	-7664
▁सरकारचा	-7665
▁देशासाठी	-7666
▁मर्यादित	-7667
▁माणसांना	-7668
▁त्याशिवाय	-7669
▁त्यांच्याशी	-7670
▁८	-7671
कुल	-7672
बिल	-7673
महा	-7674
▁छू	-7675
▁वॉ	-7676
वाहत	-7677
▁टाळ	-7678
दृष्ट	-7679
▁आत्ता	-7680
▁फिरौन	-7681
▁बायको	-7682
▁म्हणत	-7683
▁सेक्टर	-7684
▁ह्याचे	-7685
▁चिह्नित	-7686
▁सुधारित	-7687
ent	-7688
खार	-7689
दीय	-7690
एमटी	-7691
ताला	-7692
वतात	-7693
▁कोप	-7694
▁झां	-7695
▁लखन	-7696
गावॅट	-7697
धारणा	-7698
भगिनी	-7699
▁सीईओ	-7700
▁कार्बन	-7701
▁मानदंड	-7702
▁रोकथाम	-7703
▁लक्षणे	-7704
▁संपन्न	-7705
▁अभयारण्य	-7706
▁प्रारंभिक	-7707
ंतू	-7708
▁सत्	-7709
▁स्ना	-7710
▁उजाड़	-7711
▁समापन	-7712
▁मिळवून	-7713
▁यापैकी	-7714
▁सक्षमी	-7715
▁अनुसूचित	-7716
▁रेल्वेने	-7717
ईडी	-7718
▁टॉ	-7719
▁हॅ	-7720
शिता	-7721
▁अरे	-7722
▁परम	-7723
▁फळे	-7724
▁लिख	-7725
▁पांढ	-7726
▁वाढते	-7727
▁साखळी	-7728
▁संपत्ति	-7729
▁सिक्किम	-7730
णीव	-7731
▁पल	-7732
प्ति	-7733
िप्त	-7734
▁पीठ	-7735
▁रहो	-7736
▁सुच	-7737
यांवर	-7738
▁ईस्ट	-7739
▁ब्रह	-7740
ार्दिक	-7741
▁चिन्ह	-7742
▁पेत्र	-7743
▁करणारी	-7744
▁किंमती	-7745
▁तलवारी	-7746
▁विनियम	-7747
▁नमस्कार	-7748
▁पंजीकरण	-7749
▁हार्दिक	-7750
▁क्षेत्रांमध्ये	-7751
▁खड	-7752
▁१८	-7753
राची	-7754
ळाची	-7755
वाची	-7756
▁पूल	-7757
▁वां	-7758
द्दाख	-7759
ीविका	-7760
▁मोआब	-7761
▁जुड़ी	-7762
▁तत्पर	-7763
▁थोड़ा	-7764
▁संसदे	-7765
▁आयुक्त	-7766
▁आजीविका	-7767
▁सीतारमण	-7768
15	-7769
AN	-7770
▁चै	-7771
कृती	-7772
विंद	-7773
▁and	-7774
▁शिख	-7775
▁गहरी	-7776
▁तरतु	-7777
▁पुष्	-7778
▁बुरा	-7779
▁ठेवणे	-7780
ांविषयी	-7781
▁दुरुस्ती	-7782
▁विश्वासा	-7783
▁संस्थागत	-7784
▁प्रौद्योगिकियों	-7785
▁c	-7786
▁रान	-7787
▁असला	-7788
▁तिचे	-7789
▁लगती	-7790
▁आकडेव	-7791
▁गुन्हे	-7792
▁राहावे	-7793
▁लागतात	-7794
▁दुष्टों	-7795
▁मेट्रिक	-7796
▁महत्वाकांक्षी	-7797
10	-7798
ढ़ी	-7799
िमा	-7800
▁लस	-7801
▁सफर	-7802
दृश्य	-7803
नातील	-7804
ष्टिक	-7805
▁कोठे	-7806
▁छावणी	-7807
▁अग्रणी	-7808
▁फार्मा	-7809
▁लोकार्	-7810
▁वाढत्या	-7811
▁घेण्याची	-7812
▁जीवनशैली	-7813
▁नियमशास्त्रा	-7814
टीन	-7815
सिड	-7816
▁१२	-7817
▁400	-7818
▁IFFI	-7819
▁जाया	-7820
वाहाटी	-7821
▁भौतिक	-7822
▁मनाया	-7823
▁वर्गा	-7824
▁वाटतो	-7825
▁विवाद	-7826
▁अकादमी	-7827
निर्मिती	-7828
▁त्यातील	-7829
▁स्टेशनों	-7830
घन	-7831
ॅम	-7832
विल	-7833
सरी	-7834
▁125	-7835
▁चंद	-7836
▁नबु	-7837
▁खुली	-7838
▁बसला	-7839
आधारित	-7840
▁पेयजल	-7841
▁प्रक्षे	-7842
▁प्रसंगी	-7843
▁विकलांग	-7844
▁असल्याची	-7845
▁गृहमंत्री	-7846
▁म्हणाल्या	-7847
▁यरुशलेममध्ये	-7848
re	-7849
▁कफ	-7850
▁तृ	-7851
आयसी	-7852
पूजन	-7853
शोधन	-7854
▁अणु	-7855
▁आंक	-7856
▁एकच	-7857
▁टूर	-7858
▁ढंग	-7859
▁मीच	-7860
▁शिर	-7861
▁मुदत	-7862
▁दर्शा	-7863
▁मालिश	-7864
▁वसूली	-7865
▁व्यभि	-7866
▁देताना	-7867
▁नेताजी	-7868
▁अभिवादन	-7869
▁क्रांती	-7870
▁विशेषता	-7871
▁मस्तिष्क	-7872
▁खाद्यान्न	-7873
▁रुग्णांची	-7874
ER	-7875
बेन	-7876
▁पच	-7877
धारक	-7878
ळाला	-7879
वाडा	-7880
▁अहि	-7881
▁कुळ	-7882
▁कोच	-7883
▁लग्न	-7884
▁हरित	-7885
▁कक्षा	-7886
▁नितीन	-7887
▁निभाई	-7888
▁संकटे	-7889
▁प्रीति	-7890
▁दलाच्या	-7891
▁अधिसूचित	-7892
▁अशाप्रकारे	-7893
▁नेतृत्वाखाली	-7894
कम	-7895
गीय	-7896
रेन	-7897
स्कर	-7898
▁195	-7899
▁उल्	-7900
▁सुट	-7901
▁दरात	-7902
▁शहरे	-7903
▁ज्याने	-7904
▁अद्वितीय	-7905
▁उपस्थिती	-7906
▁रासायनिक	-7907
▁संध्याकाळी	-7908
कभी	-7909
गीर	-7910
म्स	-7911
संप	-7912
एनजी	-7913
वर्ध	-7914
▁पाई	-7915
ध्वनी	-7916
मुवेल	-7917
वश्यक	-7918
▁आणून	-7919
▁खाता	-7920
▁तपशील	-7921
▁परकीय	-7922
▁विधवा	-7923
▁सायबर	-7924
▁डोंगरा	-7925
▁दिलेले	-7926
▁विषयों	-7927
▁वंशातील	-7928
ha	-7929
फेड	-7930
आयआर	-7931
काची	-7932
▁थंड	-7933
▁फेस	-7934
▁पेशी	-7935
▁फारो	-7936
▁शर्म	-7937
▁अक्सर	-7938
▁मनाने	-7939
प्रसंगी	-7940
▁तरतुदी	-7941
▁प्रयाग	-7942
▁अभियाना	-7943
▁विश्राम	-7944
▁परिपूर्ण	-7945
▁रुपयांचा	-7946
▁कार्यान्वित	-7947
बीर	-7948
टीने	-7949
द्दी	-7950
वाया	-7951
▁बाँ	-7952
▁लची	-7953
▁दोषी	-7954
▁नोकर	-7955
▁सूरज	-7956
▁जीवंत	-7957
▁दुकान	-7958
▁बर्तन	-7959
▁भूतान	-7960
▁संघटन	-7961
▁सुटका	-7962
ूकी	-7963
▁अरुण	-7964
▁कचरा	-7965
▁परता	-7966
▁याआधी	-7967
▁आव्हाने	-7968
▁आकडेवारी	-7969
▁किल्ल्या	-7970
▁टप्प्यात	-7971
▁त्याच्याकडे	-7972
ियाल	-7973
▁कोष	-7974
▁खरा	-7975
▁असेच	-7976
▁शहाण	-7977
▁कपड़ा	-7978
▁ग्रहण	-7979
▁योसेफ	-7980
▁लागणार	-7981
▁स्मृति	-7982
▁होमबलि	-7983
ांद्वारे	-7984
▁ईशान्ये	-7985
▁स्वतःला	-7986
▁क्षमताओं	-7987
▁कल्याणासाठी	-7988
▁राज्यांच्या	-7989
▁44	-7990
▁सरोव	-7991
▁वर्धन	-7992
▁देणारे	-7993
▁लोकार्पण	-7994
▁ह्यामुळे	-7995
▁महिन्याच्या	-7996
काय	-7997
मेशन	-7998
▁गाढ	-7999
▁फूल	-8000
▁सेल	-8001
ल्यास	-8002
विकास	-8003
▁पळून	-8004
▁पीयू	-8005
▁भयान	-8006
▁मेले	-8007
▁यूपी	-8008
▁समजा	-8009
▁अग्नि	-8010
▁ऑक्सी	-8011
▁जर्मनी	-8012
▁शमुवेल	-8013
▁ह्याने	-8014
▁विभागात	-8015
▁संयंत्र	-8016
ल्याबद्दल	-8017
▁भारतासाठी	-8018
शीर	-8019
ोदर	-8020
▁पळ	-8021
▁रम	-8022
▁कोड	-8023
▁ज्यो	-8024
▁संगम	-8025
साच्या	-8026
▁बनाते	-8027
▁मूलभूत	-8028
▁जानवरों	-8029
▁श्रीनगर	-8030
▁निमंत्रण	-8031
▁रचनात्मक	-8032
▁स्वर्गदूत	-8033
AT	-8034
मेद	-8035
ळणी	-8036
र्दी	-8037
ूनों	-8038
▁अही	-8039
गोलिक	-8040
▁तिचा	-8041
▁पाऊस	-8042
▁मोटर	-8043
▁भूटान	-8044
▁लावून	-8045
▁रीतीने	-8046
▁वेळेवर	-8047
▁संसदीय	-8048
▁पुढच्या	-8049
▁भौगोलिक	-8050
▁गुवाहाटी	-8051
▁त्रिपुरा	-8052
▁सांगितली	-8053
▁स्वीकृति	-8054
▁प्रक्रियाओं	-8055
फो	-8056
▁अथक	-8057
▁कंध	-8058
▁चाँ	-8059
▁शाळ	-8060
▁अर्ध	-8061
▁मागा	-8062
▁सुपर	-8063
ांसोबत	-8064
▁युध्द	-8065
वण्याची	-8066
▁राहिली	-8067
▁दोहराया	-8068
▁अद्ययावत	-8069
▁अल्पसंख्यक	-8070
▁कर्मचाऱ्यां	-8071
ीर	-8072
निर	-8073
लाल	-8074
ारक	-8075
काया	-8076
धीरे	-8077
िलेटर	-8078
▁गवाह	-8079
▁अपडेट	-8080
▁पीयूष	-8081
▁बाहरी	-8082
▁भाकरी	-8083
▁राहिल	-8084
▁रखेंगे	-8085
दृष्ट्या	-8086
▁पुनरुत्	-8087
▁यूरोपीय	-8088
▁विद्युतीकरण	-8089
▁बॅ	-8090
▁भो	-8091
ूंनी	-8092
▁आदी	-8093
नीकरण	-8094
▁आस्थ	-8095
▁घोड़	-8096
▁मवाब	-8097
▁आँखें	-8098
▁नाकार	-8099
▁फैसले	-8100
▁भयानक	-8101
▁एप्रैम	-8102
टेड	-8103
न्ड	-8104
▁कण	-8105
डीआई	-8106
्योन	-8107
▁ट्व	-8108
▁तोच	-8109
▁लेह	-8110
शक्ति	-8111
▁एनएच	-8112
▁केलं	-8113
▁नौका	-8114
▁पापी	-8115
▁मुस्	-8116
▁लाखो	-8117
▁सोपे	-8118
▁नितिन	-8119
▁पापों	-8120
▁बारिश	-8121
▁कार्गो	-8122
▁वार्ता	-8123
▁पौष्टिक	-8124
▁व्हिडीओ	-8125
▁आपल्याकडे	-8126
▁महासंचालक	-8127
▁भारतामध्ये	-8128
मल	-8129
लिम	-8130
▁...	-8131
▁सकल	-8132
▁सजा	-8133
▁सिम	-8134
▁मण्ड	-8135
▁हिता	-8136
▁लंबाई	-8137
ंपेक्षा	-8138
▁कप्तान	-8139
▁परिचित	-8140
▁लद्दाख	-8141
▁विरोधी	-8142
▁श्रीमंत	-8143
▁इंजीनियर	-8144
▁प्रदेशों	-8145
▁प्रतीक्षा	-8146
16	-8147
▁W	-8148
गिल	-8149
ेंड	-8150
ोगा	-8151
▁53	-8152
पेयी	-8153
▁चिर	-8154
▁नान	-8155
▁बोध	-8156
▁मेल	-8157
नेशनल	-8158
▁कच्छ	-8159
▁क्ला	-8160
▁घेतो	-8161
▁परवड	-8162
▁केदार	-8163
▁दस्ता	-8164
▁प्रकोप	-8165
▁होमार्	-8166
▁पत्थरों	-8167
▁आदरांजली	-8168
▁ज्यांच्या	-8169
▁निर्देशित	-8170
ंटर	-8171
ट्र	-8172
न्ट	-8173
्रेस	-8174
▁रूस	-8175
▁खतरा	-8176
▁नबुख	-8177
▁नावे	-8178
स्टिवल	-8179
ानियों	-8180
▁दुर्बल	-8181
▁मानकों	-8182
▁व्यर्थ	-8183
▁खूबसूरत	-8184
▁संकेतस्थ	-8185
▁पृष्ठभूमि	-8186
▁प्रणालियों	-8187
ूंना	-8188
▁बहन	-8189
▁बिम	-8190
▁कनान	-8191
▁कमीत	-8192
▁जानी	-8193
▁भक्त	-8194
▁एमओयू	-8195
▁तरीका	-8196
किय्याह	-8197
▁दुसर्या	-8198
▁जनसंख्या	-8199
▁स्वरूपात	-8200
▁पारिस्थित	-8201
▁झाल्यामुळे	-8202
▁दिशानिर्देशों	-8203
IM	-8204
us	-8205
ंटन	-8206
भीत	-8207
मेड	-8208
ग्रा	-8209
िएशन	-8210
▁the	-8211
▁सवि	-8212
▁सगळी	-8213
▁हड्ड	-8214
▁कॉरिड	-8215
▁देखना	-8216
▁पीड़ा	-8217
▁बांधव	-8218
▁राहतो	-8219
▁सोडले	-8220
▁निवासी	-8221
▁वर्गों	-8222
▁मालवाहत	-8223
▁मंत्रालयाचे	-8224
▁सफलतापूर्वक	-8225
ळक	-8226
▁ऍ	-8227
फोन	-8228
▁कस	-8229
▁३०	-8230
▁दखल	-8231
▁शाय	-8232
ांहून	-8233
▁काया	-8234
▁जोशी	-8235
▁नंबर	-8236
▁संजय	-8237
ांनाही	-8238
▁इब्रा	-8239
▁जाओगे	-8240
▁जैविक	-8241
▁टप्पा	-8242
▁सरकारची	-8243
▁संदेष्टा	-8244
▁आयोगाच्या	-8245
il	-8246
चंद	-8247
जाग	-8248
▁कव	-8249
▁आजू	-8250
▁जॉन	-8251
▁पद्	-8252
▁फाइ	-8253
▁हरे	-8254
ज्ज्ञ	-8255
ार्पण	-8256
▁मारे	-8257
▁लेता	-8258
▁कितना	-8259
▁मोहीम	-8260
▁रूग्ण	-8261
▁स्टील	-8262
▁उत्कृष्टता	-8263
▁एकत्रितपणे	-8264
▁प्रकल्पांचे	-8265
▁जयंतीनिमित्त	-8266
ूसु	-8267
त्रे	-8268
सिडी	-8269
▁कंट	-8270
▁धारण	-8271
▁व्यय	-8272
▁बोलतो	-8273
▁भावने	-8274
▁शीघ्र	-8275
▁सपनों	-8276
▁सीखने	-8277
▁इंतजार	-8278
▁कारखान	-8279
▁जीडीपी	-8280
▁पहलुओं	-8281
▁अंग्रेजी	-8282
▁पर्वतावर	-8283
▁प्रतिपादन	-8284
▁प्रयोगशाळ	-8285
▁पारदर्शिता	-8286
▁क्षेत्राच्या	-8287
▁क्षेत्रासाठी	-8288
▁उपराष्ट्रपतींनी	-8289
▁%	-8290
ँसी	-8291
▁परे	-8292
▁पोच	-8293
स्करी	-8294
▁अखिल	-8295
▁बिया	-8296
▁दिसते	-8297
▁अवस्थेत	-8298
▁दस्तावे	-8299
▁वाजपेयी	-8300
क्षणासाठी	-8301
विद्यालया	-8302
▁मनापासून	-8303
▁शिक्षकों	-8304
▁देशांमधील	-8305
▁बाबासाहेब	-8306
▁महानिदेशक	-8307
▁रेल्वेच्या	-8308
सळ	-8309
ter	-8310
एससी	-8311
भाविक	-8312
ोनिया	-8313
▁कंटे	-8314
▁कांग	-8315
▁किरा	-8316
▁चेता	-8317
▁निधि	-8318
▁सभाग	-8319
▁अगोदर	-8320
▁घेतात	-8321
▁लिखित	-8322
▁क्रमां	-8323
▁तत्काल	-8324
▁समाचार	-8325
▁स्थाना	-8326
▁इस्त्रा	-8327
▁लक्षणीय	-8328
▁फेस्टिवल	-8329
▁राष्ट्रपतींनी	-8330
भौ	-8331
ुआ	-8332
मेक	-8333
्रल	-8334
▁थर	-8335
काशी	-8336
पक्ष	-8337
लाची	-8338
▁ओला	-8339
▁गंध	-8340
▁राव	-8341
▁झाडे	-8342
▁भस्म	-8343
ितांना	-8344
▁एफ्रा	-8345
▁शेतात	-8346
▁निसर्ग	-8347
▁पहुंचने	-8348
▁स्कूलों	-8349
▁तेलंगाना	-8350
▁प्रतिदिन	-8351
▁स्वाक्षरी	-8352
▁प्रतिस्पर्धा	-8353
इत	-8354
बध	-8355
▁कोठ	-8356
▁दात	-8357
▁2013	-8358
▁देगी	-8359
▁समिट	-8360
▁सवाल	-8361
▁कायदे	-8362
▁वेळेत	-8363
▁सॉफ्ट	-8364
▁सुश्री	-8365
▁विभागों	-8366
MR	-8367
ैक	-8368
www	-8369
फान	-8370
▁निभ	-8371
▁सैल	-8372
क्षिक	-8373
▁शायद	-8374
▁पूर्त	-8375
▁भयभीत	-8376
▁वीरता	-8377
▁अनुवाद	-8378
▁कारवाई	-8379
ेंटिलेटर	-8380
्रोद्योग	-8381
▁बैंकिंग	-8382
▁तुमच्यावर	-8383
▁विश्वसनीय	-8384
ँगा	-8385
रान	-8386
ovid	-8387
सिटी	-8388
▁गीत	-8389
▁चाय	-8390
▁फूड	-8391
▁लाज	-8392
▁सोह	-8393
लीकरण	-8394
▁गावे	-8395
▁ब्या	-8396
▁सच्चा	-8397
▁हज़ार	-8398
ंदर्भात	-8399
▁डिग्री	-8400
▁तैयारी	-8401
▁थोड्या	-8402
▁पार्टी	-8403
▁निकोबार	-8404
▁आकांक्षाओं	-8405
▁तुमच्यासाठी	-8406
▁[	-8407
डाख	-8408
िंगत	-8409
▁पढ़	-8410
▁छिपा	-8411
▁आढळले	-8412
▁नृत्य	-8413
▁नदियों	-8414
▁नबुखद्	-8415
▁स्थलों	-8416
▁छत्तीसगढ़	-8417
▁टेक्नोलॉजी	-8418
35	-8419
AS	-8420
दास	-8421
लोन	-8422
वनी	-8423
सरा	-8424
िणी	-8425
लाचा	-8426
्राय	-8427
▁250	-8428
▁औसत	-8429
▁शोम	-8430
▁साज	-8431
एमओयू	-8432
रीकरण	-8433
ेसाठी	-8434
▁आधीच	-8435
▁घोडे	-8436
▁पोखर	-8437
▁बढ़े	-8438
▁सीमे	-8439
▁एलईडी	-8440
▁पद्धत	-8441
▁अपनाने	-8442
▁संतुलन	-8443
▁क्रमांक	-8444
▁पाहायला	-8445
▁वृद्धिंगत	-8446
▁सर्वांसाठी	-8447
han	-8448
नॉल	-8449
ूएल	-8450
चलित	-8451
▁नर्म	-8452
▁अंधार	-8453
▁अवकाश	-8454
▁मालिक	-8455
▁स्टेट	-8456
▁करायचा	-8457
▁पंचायत	-8458
▁घ्यायला	-8459
▁निसर्गा	-8460
▁अत्यावश्यक	-8461
▁महत्त्वाची	-8462
▁कार्यक्रमाला	-8463
पणी	-8464
ापू	-8465
▁01	-8466
▁अनो	-8467
▁खाऊ	-8468
▁खाण	-8469
▁रेट	-8470
▁वात	-8471
क्रमी	-8472
जुर्ग	-8473
▁आकलन	-8474
▁उष्ण	-8475
▁धोखा	-8476
▁पावर	-8477
▁वंशा	-8478
▁शंभर	-8479
ऱ्याला	-8480
▁अशक्त	-8481
▁आवेदन	-8482
▁दुग्ध	-8483
▁नौवहन	-8484
▁रवाना	-8485
▁सुनने	-8486
ापेक्षा	-8487
▁विक्रम	-8488
▁सद्भाव	-8489
▁जगाच्या	-8490
▁राज्यां	-8491
▁स्पर्धे	-8492
▁ईमानदारी	-8493
▁चिकित्सक	-8494
▁तुमच्याकडे	-8495
▁पर्यटकांना	-8496
▁नियमशास्त्र	-8497
▁कर्मचाऱ्यांना	-8498
95	-8499
ईक	-8500
▁·	-8501
न्त	-8502
▁कब्	-8503
▁भरी	-8504
▁भाज	-8505
▁शून	-8506
जातीय	-8507
वतीने	-8508
▁खतरे	-8509
▁टिका	-8510
▁बनवि	-8511
▁सूचन	-8512
▁जिनकी	-8513
▁देखकर	-8514
▁दैनंद	-8515
▁माहौल	-8516
▁विषयी	-8517
▁बाजारों	-8518
▁योगदाना	-8519
▁अन्नधान्य	-8520
▁बहुपक्षीय	-8521
▁उद्देश्यों	-8522
un	-8523
णि	-8524
गिर	-8525
लमो	-8526
ुअल	-8527
▁आउट	-8528
▁घडा	-8529
▁जमी	-8530
घेवाण	-8531
▁इस्प	-8532
▁सपना	-8533
▁सावध	-8534
▁तम्बू	-8535
▁बाधित	-8536
▁बोलता	-8537
▁एकीकरण	-8538
▁निर्या	-8539
▁कार्यशा	-8540
▁बुजुर्ग	-8541
▁मनोरंजन	-8542
▁देशवासियों	-8543
▁प्रमाणपत्र	-8544
▁अफगानिस्तान	-8545
चरण	-8546
धीन	-8547
पीओ	-8548
यरी	-8549
ापक	-8550
▁39	-8551
▁एह	-8552
ड़ेकर	-8553
▁पटना	-8554
▁बनले	-8555
▁वरील	-8556
▁खातों	-8557
▁जाणीव	-8558
▁निश्च	-8559
▁बताते	-8560
▁ब्याज	-8561
▁वाढली	-8562
▁बऱ्याच	-8563
▁मिसळून	-8564
▁2016-17	-8565
▁जावड़ेकर	-8566
▁पराक्रमी	-8567
▁समुदायों	-8568
▁प्लेटफॉर्म	-8569
▁महाराष्ट्रा	-8570
ag	-8571
संर	-8572
ांध	-8573
▁क्	-8574
तमंद	-8575
म्मद	-8576
▁हिल	-8577
तांची	-8578
ब्लिक	-8579
वेदना	-8580
▁पापा	-8581
▁किफाय	-8582
▁जीवनस	-8583
▁निष्क	-8584
▁शत्रु	-8585
▁तस्करी	-8586
▁दाहिने	-8587
▁बढ़ाकर	-8588
▁सविस्तर	-8589
▁पाण्याने	-8590
▁सांगण्यात	-8591
▁अफगाणिस्तान	-8592
▁O	-8593
200	-8594
लता	-8595
▁95	-8596
▁घेर	-8597
▁दाल	-8598
▁सिन	-8599
ब्रोन	-8600
▁अब्द	-8601
▁अमीर	-8602
▁तंबू	-8603
▁भलाई	-8604
▁समझा	-8605
धिकारी	-8606
विमर्श	-8607
▁शिमोन	-8608
▁दीनदया	-8609
▁तकनीकों	-8610
▁दूरध्वनी	-8611
▁पदार्थों	-8612
▁स्वाभाविक	-8613
▁विद्यापीठा	-8614
AY	-8615
ंदे	-8616
र्जन	-8617
ूसुफ	-8618
▁वादा	-8619
▁सोयी	-8620
▁डोंगर	-8621
▁बोलणे	-8622
▁राहते	-8623
▁उड्डाण	-8624
▁त्यानुसार	-8625
ऊदी	-8626
बाजी	-8627
▁अजन	-8628
▁घेव	-8629
▁चोर	-8630
▁2021	-8631
▁काला	-8632
▁जाणे	-8633
▁थंडी	-8634
▁निकष	-8635
▁फेरी	-8636
▁मेघा	-8637
सरकारी	-8638
▁उल्लं	-8639
▁पोलाद	-8640
▁बराबर	-8641
▁यूसुफ	-8642
▁आयआयटी	-8643
▁पार्सल	-8644
▁विपरीत	-8645
ण्याबाबत	-8646
▁नीतियों	-8647
▁कार्यभार	-8648
▁वस्त्रोद्योग	-8649
रम	-8650
डीए	-8651
वती	-8652
मिया	-8653
▁गोर	-8654
▁शहद	-8655
ंमुळे	-8656
पर्यत	-8657
▁चालत	-8658
▁जाळे	-8659
▁जीवा	-8660
▁नर्स	-8661
▁मुश्	-8662
▁यंदा	-8663
▁साखर	-8664
▁अंतर्	-8665
▁हितों	-8666
▁असणारे	-8667
▁बांधणी	-8668
▁मण्डली	-8669
▁रैंकिंग	-8670
▁वनस्पती	-8671
▁सिय्योन	-8672
▁उद्योगांना	-8673
▁बनवण्यासाठी	-8674
▁नबुखद्नेस्सर	-8675
रखा	-8676
ोरा	-8677
▁जप	-8678
विदा	-8679
▁ट्रेड	-8680
▁ठेवतो	-8681
▁ब्लॉक	-8682
▁ताब्यात	-8683
▁दैनंदिन	-8684
▁सार्वभौ	-8685
▁उभारण्यात	-8686
▁केल्यामुळे	-8687
▁गृहनिर्माण	-8688
▁होण्याच्या	-8689
NS	-8690
तौर	-8691
्ति	-8692
▁52	-8693
▁खर	-8694
▁जॉ	-8695
▁196	-8696
▁बहि	-8697
▁विस	-8698
▁हॉल	-8699
क्रमण	-8700
ज्जित	-8701
▁सौंप	-8702
▁संकटा	-8703
्यानंतर	-8704
▁अनुसरण	-8705
▁आशियाई	-8706
▁वर्ल्ड	-8707
▁होणारा	-8708
▁इनोवेशन	-8709
▁उद्यानात	-8710
▁भविष्यद्व	-8711
बरी	-8712
शनी	-8713
ष्म	-8714
▁56	-8715
याची	-8716
वणार	-8717
वयास	-8718
▁-20	-8719
▁खतर	-8720
▁माप	-8721
▁उड्ड	-8722
▁गंगे	-8723
▁नानक	-8724
ंत्रिक	-8725
सुध्दा	-8726
▁देखें	-8727
▁भर्ती	-8728
▁वडिला	-8729
▁वर्णन	-8730
दारांना	-8731
▁एशियाई	-8732
▁चौथ्या	-8733
▁पुनर्व	-8734
▁अस्तित्	-8735
▁जनजातीय	-8736
▁राज्यसभा	-8737
▁कमा	-8738
▁खोक	-8739
▁पदा	-8740
पट्टी	-8741
▁नेहर	-8742
▁जायचे	-8743
▁थोड़ी	-8744
▁वेंकै	-8745
▁व्याज	-8746
▁कारगिल	-8747
▁वसलेले	-8748
▁दुष्टता	-8749
▁जाण्याची	-8750
▁प्रशासनिक	-8751
MS	-8752
िण	-8753
दाद	-8754
लेय	-8755
▁बोट	-8756
▁शूर	-8757
▁शेख	-8758
▁अपार	-8759
▁चावल	-8760
▁तिची	-8761
▁बापू	-8762
▁लेखा	-8763
▁शिला	-8764
▁मॉडेल	-8765
▁रहस्य	-8766
▁विद्व	-8767
विज्ञान	-8768
▁होणारे	-8769
ऱ्याच्या	-8770
▁संभावित	-8771
▁शेवटच्या	-8772
▁साथीच्या	-8773
▁कार्यशाला	-8774
▁वर्षांच्या	-8775
▁स्पर्धात्मक	-8776
▁नाविन्यपूर्ण	-8777
14	-8778
थर	-8779
वाड	-8780
▁इज	-8781
▁फो	-8782
▁हद	-8783
एफसी	-8784
बीटी	-8785
र्पण	-8786
हिता	-8787
▁जणू	-8788
▁ठोक	-8789
▁भरे	-8790
▁चौथा	-8791
▁जाएं	-8792
▁मुड़	-8793
▁वहीं	-8794
▁क्लिक	-8795
▁मजदूर	-8796
▁रोशनी	-8797
▁अनुप्र	-8798
▁गठबंधन	-8799
▁रिटर्न	-8800
▁रेडियो	-8801
▁एकमात्र	-8802
▁वेंकैया	-8803
▁जरूरतमंद	-8804
▁संस्थांना	-8805
▁पंतप्रधानांना	-8806
▁विश्वविद्यालयों	-8807
ड़ब	-8808
बाई	-8809
▁तह	-8810
मोडी	-8811
▁कना	-8812
▁घास	-8813
▁ठहर	-8814
▁चोरी	-8815
▁नगरे	-8816
▁लडाख	-8817
▁विधि	-8818
▁शहीद	-8819
▁सौदी	-8820
बाच्या	-8821
स्वच्छ	-8822
▁उन्हा	-8823
▁महिने	-8824
▁लढाईत	-8825
▁चट्टान	-8826
▁द्वितीय	-8827
▁सब्सिडी	-8828
▁कोणालाही	-8829
▁परिषदेला	-8830
▁बोलतांना	-8831
▁बाबेलच्या	-8832
२०	-8833
जीर	-8834
सास	-8835
ूलन	-8836
▁72	-8837
▁नय	-8838
▁छवि	-8839
लंबित	-8840
संस्थ	-8841
▁एकही	-8842
▁क्रॉ	-8843
▁दबाव	-8844
▁दावत	-8845
▁पाइप	-8846
▁पापे	-8847
▁बचने	-8848
▁मेळा	-8849
▁तीसरा	-8850
▁वाहून	-8851
▁समझने	-8852
▁होंगी	-8853
▁उपचारा	-8854
▁ब्रह्म	-8855
▁मास्टर	-8856
▁मिश्रण	-8857
▁वेबसाइट	-8858
▁दहशतवादी	-8859
▁यिर्मयाह	-8860
▁संस्थांच्या	-8861
पुत	-8862
शंक	-8863
शोन	-8864
सिंह	-8865
्रेट	-8866
▁जगत	-8867
▁धबध	-8868
▁Shri	-8869
▁अलिक	-8870
▁मच्छ	-8871
▁शलमो	-8872
▁जवळचे	-8873
▁महसूल	-8874
▁शमूएल	-8875
▁बँकिंग	-8876
▁भाषाओं	-8877
▁स्वीडन	-8878
▁असाधारण	-8879
▁खात्यात	-8880
▁पोखरियाल	-8881
▁प्रतिकूल	-8882
▁सल्लागार	-8883
▁महिलांच्या	-8884
▁व्यतिरिक्त	-8885
▁निर्मितीसाठी	-8886
80	-8887
वो	-8888
ैकी	-8889
▁43	-8890
माचा	-8891
म्या	-8892
ीकरण	-8893
▁इंज	-8894
▁वेद	-8895
▁सिक	-8896
लादेश	-8897
▁यूनि	-8898
▁अकेले	-8899
▁अलीशा	-8900
▁वाजता	-8901
▁उड्डयन	-8902
▁खोट्या	-8903
▁प्रकरण	-8904
▁स्वस्त	-8905
▁दूरदर्शन	-8906
▁विस्तारित	-8907
▁रुग्णालयात	-8908
बों	-8909
▁91	-8910
▁पहन	-8911
▁भास	-8912
▁कुंड	-8913
▁रमेश	-8914
▁बताता	-8915
▁निर्दोष	-8916
▁मार्केट	-8917
▁हेब्रोन	-8918
▁उद्यमिता	-8919
▁विकासाचे	-8920
▁इंटरनेशनल	-8921
▁नागरिकांच्या	-8922
ing	-8923
कोष	-8924
दूस	-8925
▁46	-8926
पिता	-8927
▁असली	-8928
▁थोडा	-8929
▁ध्ये	-8930
जागृती	-8931
रित्या	-8932
▁अलगाव	-8933
▁इसहाक	-8934
▁डेयरी	-8935
▁नेहरू	-8936
▁समस्य	-8937
▁सिंचन	-8938
▁ट्रम्प	-8939
▁लेनदेन	-8940
▁स्वराज	-8941
▁शिष्यों	-8942
▁शहरांमध्ये	-8943
▁सहकार्यासाठी	-8944
तला	-8945
▁कले	-8946
▁ग्ल	-8947
▁कमरे	-8948
▁रानी	-8949
▁वैभव	-8950
▁आजारी	-8951
▁काहीच	-8952
▁पार्ट	-8953
▁वाहिली	-8954
▁इंडियास	-8955
▁यहूदाचा	-8956
▁विषयावर	-8957
▁धर्मेंद्र	-8958
▁मुलांच्या	-8959
▁वर्षांपासून	-8960
▁स्थानांतरित	-8961
िफ	-8962
ंथी	-8963
बंद	-8964
वितो	-8965
स्को	-8966
ेंसी	-8967
▁आळा	-8968
▁गढ़	-8969
▁जबर	-8970
▁धोक	-8971
▁नमक	-8972
▁शौच	-8973
▁हाई	-8974
तोपरी	-8975
पुरुष	-8976
▁टिकट	-8977
▁शिवा	-8978
ासत्ता	-8979
▁अपमान	-8980
▁ईपीएफ	-8981
▁कृष्ण	-8982
▁खऱ्या	-8983
▁नियमन	-8984
▁घटनाओं	-8985
▁मुद्दा	-8986
▁परिसरात	-8987
▁यहूदातील	-8988
▁व्याख्या	-8989
▁प्रतिनिधि	-8990
हट	-8991
टिल	-8992
िवृ	-8993
▁इश	-8994
आईआर	-8995
बाला	-8996
यरोग	-8997
▁www	-8998
▁नबी	-8999
▁पुत	-9000
▁वैध	-9001
जेदार	-9002
▁चीज़	-9003
▁जुड़	-9004
▁मछली	-9005
▁हाइड	-9006
▁अभ्या	-9007
▁ग्रंथ	-9008
▁घराने	-9009
▁घेणार	-9010
▁चालीस	-9011
▁इस्पात	-9012
▁यापुढे	-9013
▁सक्रीय	-9014
▁स्पेशल	-9015
▁एकमेकांना	-9016
70	-9017
्रम	-9018
्‍य	-9019
▁74	-9020
▁झो	-9021
▁आधे	-9022
▁गईं	-9023
▁गटा	-9024
ख्यात	-9025
▁बहाल	-9026
▁सब्त	-9027
▁हैंड	-9028
▁तोडगा	-9029
▁नैतिक	-9030
▁पन्ना	-9031
▁गाँवों	-9032
▁दळणवळण	-9033
▁दुर्गम	-9034
▁सेनाओं	-9035
▁मुश्किल	-9036
▁गेलेल्या	-9037
▁संस्थेच्या	-9038
ँग	-9039
मोथ	-9040
ष्‍	-9041
िमय	-9042
रेखा	-9043
▁चली	-9044
▁चूक	-9045
दूसरे	-9046
▁आपात	-9047
▁किंग	-9048
▁जलाश	-9049
▁सुखद	-9050
म्रपान	-9051
▁खेलों	-9052
▁ड्राइ	-9053
▁लचीला	-9054
▁बांधले	-9055
▁सीमाओं	-9056
▁काउंसिल	-9057
▁कानूनों	-9058
▁तुझ्यावर	-9059
▁मालमत्ता	-9060
▁प्रक्षेपण	-9061
▁पुनरुत्थान	-9062
▁प्रजासत्ता	-9063
▁प्रत्यक्षात	-9064
▁महाविद्यालय	-9065
रन	-9066
ीम	-9067
,";	-9068
पीए	-9069
लिटी	-9070
सीआर	-9071
ियार	-9072
ैतिक	-9073
्रीत	-9074
▁नमन	-9075
▁माफ	-9076
▁यौन	-9077
समवेत	-9078
▁कबूल	-9079
▁कोणा	-9080
▁तप्त	-9081
▁सिंध	-9082
कल्पिक	-9083
पालिका	-9084
पासूनच	-9085
▁कामात	-9086
▁निहित	-9087
▁पिछली	-9088
विरोधात	-9089
▁उजव्या	-9090
▁द्यावा	-9091
▁नमूनों	-9092
▁नवीनतम	-9093
▁नावाचा	-9094
▁भेदभाव	-9095
▁मरीजों	-9096
▁व्याप्ती	-9097
▁नकारात्मक	-9098
▁पारिस्थितिकी	-9099
गढ	-9100
इंट	-9101
०००	-9102
स्या	-9103
▁दुप	-9104
▁फोड	-9105
ांतील	-9106
▁कळेल	-9107
▁गाडी	-9108
▁सुप्र	-9109
▁असंख्य	-9110
▁अहवाला	-9111
▁एजेंसी	-9112
▁पंजीकृत	-9113
▁होण्यास	-9114
▁जनजागृती	-9115
▁वैकल्पिक	-9116
▁डेवलपमेंट	-9117
▁शरीराच्या	-9118
▁किनार्यावर	-9119
▁प्रत्येकाला	-9120
-3	-9121
▁चेक	-9122
▁वाघ	-9123
पणाने	-9124
▁काली	-9125
▁दूता	-9126
▁रिया	-9127
▁उचलली	-9128
▁बालों	-9129
▁मालकी	-9130
▁विद्र	-9131
▁शालेय	-9132
▁संतों	-9133
▁पाठलाग	-9134
▁याजकों	-9135
▁एफ्राईम	-9136
▁विभाजित	-9137
▁प्रसारित	-9138
▁गोष्टींचा	-9139
▁पहाड़ियों	-9140
▁स्क्रीनिंग	-9141
24	-9142
जक	-9143
फाट	-9144
▁ओढ	-9145
क्कर	-9146
▁Pra	-9147
▁कही	-9148
▁भटक	-9149
▁लाई	-9150
▁लोह	-9151
▁काळी	-9152
▁सब्ज	-9153
▁निधना	-9154
▁हिंदु	-9155
▁10,000	-9156
▁छोड़कर	-9157
▁द्यावी	-9158
▁मानवीय	-9159
▁वाढवणे	-9160
▁विलगीकरण	-9161
▁रस्त्यावर	-9162
▁व्यवस्थित	-9163
ुड	-9164
लेल	-9165
ासह	-9166
गांठ	-9167
ठ्या	-9168
रेगा	-9169
लेगा	-9170
शासन	-9171
▁600	-9172
▁पंड	-9173
पुत्र	-9174
मार्क	-9175
स्टिट	-9176
▁अतीत	-9177
▁अनाज	-9178
▁अमृत	-9179
▁उमेद	-9180
▁लाइफ	-9181
वानिवृ	-9182
▁अनुया	-9183
▁चरणों	-9184
▁जनावर	-9185
▁टैक्स	-9186
▁पुण्य	-9187
▁विजेत	-9188
▁शब्बा	-9189
▁शून्य	-9190
धिकारिक	-9191
▁प्रबंध	-9192
▁बैठकीला	-9193
▁सुंदरता	-9194
▁मंत्रालयों	-9195
ir	-9196
बर्ग	-9197
▁तूच	-9198
▁फोट	-9199
▁लगी	-9200
▁समू	-9201
▁सुखी	-9202
पदार्थ	-9203
▁आभारी	-9204
▁ओदिशा	-9205
▁नागाल	-9206
▁बढ़ता	-9207
▁बोलने	-9208
वण्याचा	-9209
▁घ्यावी	-9210
▁आंबेडकर	-9211
▁सर्वाना	-9212
▁स्वयंपा	-9213
▁दीर्घकालिक	-9214
▁कार्यक्षमता	-9215
11	-9216
चय	-9217
दाय	-9218
ेंग	-9219
ेंत	-9220
▁64	-9221
▁in	-9222
▁झर	-9223
आयआय	-9224
एमसी	-9225
▁एके	-9226
ंत्रा	-9227
राबाम	-9228
वारों	-9229
्यूरो	-9230
▁2000	-9231
▁गिदोन	-9232
▁ठरवले	-9233
▁पुजार	-9234
भागियों	-9235
ांनुसार	-9236
▁एफडीआई	-9237
▁ज्याचा	-9238
▁येण्या	-9239
करणाच्या	-9240
▁दर्शाता	-9241
▁हल्ल्या	-9242
▁केंद्रात	-9243
▁संध्याकाळ	-9244
▁सशक्तिकरण	-9245
▁प्रतिभागियों	-9246
HA	-9247
ठों	-9248
▁85	-9249
▁टॅ	-9250
ळाचा	-9251
▁घुट	-9252
दारों	-9253
▁आणीन	-9254
▁नकार	-9255
▁मद्य	-9256
▁सकाळ	-9257
▁देवदू	-9258
▁पुष्प	-9259
▁हिंदू	-9260
वण्याचे	-9261
▁दाखवले	-9262
▁दिलेली	-9263
▁बिस्तर	-9264
▁शेजारी	-9265
▁गणमान्य	-9266
▁म्हणालो	-9267
▁वस्त्रे	-9268
▁आधिकारिक	-9269
▁उज्ज्वला	-9270
▁वर्षगांठ	-9271
▁विधानसभा	-9272
▁राज्यांनी	-9273
▁सुविधाजनक	-9274
▁कंपन्यांना	-9275
▁दीर्घकालीन	-9276
▁महाविद्यालया	-9277
ct	-9278
करुन	-9279
▁फेक	-9280
▁सदन	-9281
नाथान	-9282
▁2025	-9283
▁आफ्र	-9284
▁टिप्	-9285
▁पढ़ा	-9286
▁लघवी	-9287
▁इंग्र	-9288
▁टाकून	-9289
▁विवेक	-9290
▁स्टाफ	-9291
▁खाण्या	-9292
▁खासदार	-9293
▁प्रांत	-9294
▁अमेरिकन	-9295
▁अनुमानित	-9296
▁कार्यकाल	-9297
▁निष्कर्ष	-9298
▁महत्त्वाच्या	-9299
ev	-9300
ro	-9301
बेल	-9302
वेट	-9303
▁हब	-9304
लाला	-9305
▁गाद	-9306
▁दस्त	-9307
▁दानी	-9308
▁लिंग	-9309
▁सऊदी	-9310
▁असावा	-9311
▁गर्मी	-9312
▁जमीनी	-9313
▁स्वाद	-9314
▁लोकांनो	-9315
▁जगभरातील	-9316
▁सर्वतोपरी	-9317
▁कॉर्पोरेशन	-9318
▁शेतकऱ्यांचे	-9319
▁श्रद्धांजली	-9320
IR	-9321
जै	-9322
भु	-9323
ेप	-9324
▁p	-9325
नेर	-9326
पाट	-9327
▁आइए	-9328
▁गंत	-9329
▁दीड	-9330
▁रखे	-9331
दानिक	-9332
▁ऊँची	-9333
▁दावा	-9334
▁सिद्	-9335
▁क्षति	-9336
▁जितना	-9337
▁म्हणू	-9338
▁सिविल	-9339
▁यराबाम	-9340
▁होणारी	-9341
▁उपलब्धि	-9342
▁घडामोडी	-9343
▁परिवर्तित	-9344
▁यरुशलेमला	-9345
iv	-9346
▁आश	-9347
वाले	-9348
विता	-9349
▁***	-9350
▁हां	-9351
ग्रहण	-9352
चंद्र	-9353
▁अदाल	-9354
▁कारी	-9355
▁डीआर	-9356
▁ड्रग	-9357
▁पडली	-9358
▁बोलू	-9359
▁वेशी	-9360
▁गर्दी	-9361
▁घेवून	-9362
▁ट्रैक	-9363
▁सियोन	-9364
▁मिळतील	-9365
▁अपशिष्ट	-9366
▁डोंगरावर	-9367
▁संदेष्टे	-9368
▁समारंभात	-9369
▁महोत्सवात	-9370
▁प्रायश्चित	-9371
▁इंजीनियरिंग	-9372
PS	-9373
बरा	-9374
स्फ	-9375
ुरु	-9376
ेटर	-9377
ोंग	-9378
्मी	-9379
बांध	-9380
▁जवा	-9381
▁दां	-9382
▁हेल	-9383
क्षेत	-9384
▁अभाव	-9385
▁उत्ते	-9386
▁जानकर	-9387
▁विश्वा	-9388
तांत्रिक	-9389
▁विकासाची	-9390
▁उपलब्धियों	-9391
▁महामारीच्या	-9392
▁राहण्यासाठी	-9393
▁&	-9394
▁+	-9395
धरी	-9396
सीओ	-9397
▁नद	-9398
ायचे	-9399
▁गों	-9400
▁कीटा	-9401
▁राणी	-9402
ियांना	-9403
▁एखादी	-9404
▁तातडी	-9405
▁मुकुट	-9406
▁शतकात	-9407
नामध्ये	-9408
▁मधल्या	-9409
▁मिळतात	-9410
▁लैंगिक	-9411
▁उज्ज्वल	-9412
▁अधिकारों	-9413
▁केल्याचे	-9414
▁विकासशील	-9415
▁पुजारियों	-9416
▁पाहण्यासाठी	-9417
▁प्रयत्नांना	-9418
▁राष्ट्रांना	-9419
▁परिस्थितियों	-9420
चला	-9421
ोकस	-9422
▁51	-9423
▁मजा	-9424
रूद्ध	-9425
▁तिरु	-9426
▁बीएस	-9427
▁संगर	-9428
▁आलेली	-9429
▁भूकंप	-9430
▁राजीव	-9431
यांच्या	-9432
▁पुत्रा	-9433
▁सशक्ती	-9434
▁अपराधों	-9435
▁आज्ञाओं	-9436
▁देशातून	-9437
▁मेजबानी	-9438
▁समितीने	-9439
▁अत्याचार	-9440
▁आत्तापर्यंत	-9441
74	-9442
कटी	-9443
लील	-9444
हाज	-9445
▁58	-9446
्रीट	-9447
▁ऑक्	-9448
▁मणि	-9449
▁आणली	-9450
▁इंद्र	-9451
▁डूइंग	-9452
▁नेत्र	-9453
▁युरोप	-9454
▁स्वरु	-9455
▁हंगाम	-9456
ारासाठी	-9457
▁कृत्ये	-9458
▁घ्यावा	-9459
▁नारायण	-9460
▁निवेदन	-9461
▁संशोधक	-9462
▁केल्यास	-9463
▁फिल्म्स	-9464
▁यंत्रणे	-9465
▁भविष्यातील	-9466
▁हिजकिय्याह	-9467
▁कार्यक्रमाचे	-9468
lt	-9469
हेल	-9470
▁69	-9471
मुखी	-9472
ान्त	-9473
्यूल	-9474
▁मोर	-9475
▁हाइ	-9476
▁फेंक	-9477
▁साठा	-9478
ख्याने	-9479
▁विश्र	-9480
▁श्वसन	-9481
▁नव्याने	-9482
▁नैदानिक	-9483
▁समारंभा	-9484
ant	-9485
यची	-9486
रीस	-9487
जियम	-9488
त्ते	-9489
श्री	-9490
स्टा	-9491
▁अनू	-9492
▁इजा	-9493
▁बेत	-9494
▁मूत	-9495
▁अशाच	-9496
▁कोने	-9497
▁शिंग	-9498
ळीच्या	-9499
▁करुणा	-9500
▁बलवान	-9501
▁हातून	-9502
▁कानूनी	-9503
▁दाखवून	-9504
▁वेगवान	-9505
▁देण्यास	-9506
▁विरोधात	-9507
▁मुद्यांवर	-9508
▁यांच्यासह	-9509
▁भविष्यवाणी	-9510
▁शास्त्रज्ञ	-9511
▁यरुशलेमच्या	-9512
ळीस	-9513
साई	-9514
▁फॅ	-9515
ंवार	-9516
एसएस	-9517
▁दीप	-9518
▁पैरा	-9519
▁भ्रम	-9520
▁संधि	-9521
▁अड्डा	-9522
▁बाह्य	-9523
▁संभाल	-9524
▁सव्वा	-9525
▁पाहिली	-9526
▁संगरोध	-9527
▁उल्लंघन	-9528
▁ऑक्सीजन	-9529
▁जोडलेले	-9530
▁डोंगराळ	-9531
▁विकासात	-9532
▁निर्देशक	-9533
▁पेशेवरों	-9534
▁स्पर्धेत	-9535
▁काढण्यासाठी	-9536
-15	-9537
णित	-9538
ायझ	-9539
ुलर	-9540
▁63	-9541
वणूक	-9542
▁ताल	-9543
▁दफन	-9544
▁दोप	-9545
ग्राम	-9546
▁किना	-9547
▁तंबा	-9548
▁पडेल	-9549
▁ब्रॉड	-9550
▁शिलान	-9551
▁बांधून	-9552
▁महानगर	-9553
▁शोमरोन	-9554
▁आयोगाचे	-9555
▁पहुँचने	-9556
▁गतिशीलता	-9557
▁धूम्रपान	-9558
▁नावाच्या	-9559
▁वर्षांमध्ये	-9560
▁राष्ट्रांच्या	-9561
ट्	-9562
शः	-9563
ोनी	-9564
ंधरा	-9565
▁दीं	-9566
▁वल्ल	-9567
▁शाळा	-9568
▁करतोस	-9569
▁पाठबळ	-9570
▁पुकार	-9571
▁घ्यावे	-9572
▁निघाला	-9573
▁बांगलादेश	-9574
▁राज्याच्या	-9575
▁व्यक्तींना	-9576
▁अर्थव्यवस्थेला	-9577
CI	-9578
um	-9579
रोग	-9580
मंडळ	-9581
्रीम	-9582
▁370	-9583
▁ऑफ़	-9584
▁धूल	-9585
▁बाण	-9586
▁लेप	-9587
▁";";	-9588
▁इकाई	-9589
▁चालक	-9590
▁ट्वी	-9591
▁पालक	-9592
▁विदा	-9593
वरच्या	-9594
▁गतीने	-9595
▁गोल्ड	-9596
▁परंतू	-9597
▁फसलों	-9598
▁स्तरा	-9599
ेंतर्गत	-9600
▁दुर्लभ	-9601
▁निवडले	-9602
▁बांधली	-9603
▁विक्रे	-9604
▁सामोरे	-9605
▁उद्यमों	-9606
▁पंचायती	-9607
▁संभाव्य	-9608
▁सलाहकार	-9609
▁हिरव्या	-9610
▁सर्वसामान्य	-9611
26	-9612
PE	-9613
ीण	-9614
टून	-9615
नार	-9616
सैन	-9617
▁छत	-9618
ोषित	-9619
▁खुल	-9620
▁देय	-9621
ाराचे	-9622
▁ऊंचे	-9623
▁गांव	-9624
▁बचाओ	-9625
तेमुळे	-9626
▁अतिथि	-9627
▁ग्रुप	-9628
▁तासात	-9629
▁बनारस	-9630
▁शिमला	-9631
▁आधीच्या	-9632
▁ब्रिटिश	-9633
▁विदेशों	-9634
▁अनुप्रयोग	-9635
▁इस्राएलचे	-9636
▁हस्तांतरित	-9637
▁सहकार्याबाबत	-9638
▁शेतकऱ्यांच्या	-9639
▁प्रधानमंत्रियों	-9640
et	-9641
ैट	-9642
ज़ा	-9643
साइ	-9644
▁असर	-9645
▁इश्	-9646
▁नोड	-9647
▁रहि	-9648
▁शीत	-9649
ाराची	-9650
▁काठी	-9651
▁क्रू	-9652
▁बढ़ी	-9653
▁बराम	-9654
▁विधी	-9655
▁कन्या	-9656
▁कामना	-9657
▁ग्रिड	-9658
▁स्थूल	-9659
काश्मीर	-9660
▁असायला	-9661
▁गंतव्य	-9662
▁अनुग्रह	-9663
▁मर्यादा	-9664
▁वारंवार	-9665
▁मोठ्याने	-9666
▁सर्वोत्कृष्ट	-9667
यचा	-9668
▁अॅ	-9669
ष्णु	-9670
▁कौश	-9671
▁खडक	-9672
दर्शी	-9673
लीकडे	-9674
▁त्रि	-9675
▁दोघे	-9676
▁फिल्	-9677
▁मृदा	-9678
▁कुष्ठ	-9679
▁ठरणार	-9680
▁मल्टी	-9681
▁योवाश	-9682
▁संप्र	-9683
▁पेमेंट	-9684
▁शत्रुओं	-9685
▁बँकेच्या	-9686
▁शिलान्यास	-9687
▁समाजाच्या	-9688
▁त्याच्याबरोबर	-9689
वने	-9690
ध्दी	-9691
▁(20	-9692
▁कमर	-9693
▁ताण	-9694
▁धरण	-9695
▁कब्र	-9696
▁कहाँ	-9697
▁लाइव	-9698
▁कच्चे	-9699
▁घ्याय	-9700
▁जायला	-9701
▁मतदार	-9702
▁इथेनॉल	-9703
▁कंटेनर	-9704
▁गारंटी	-9705
▁ग्रस्त	-9706
▁वेश्या	-9707
▁आल्याचे	-9708
▁युगांडा	-9709
▁छत्तीसगड	-9710
▁दर्जेदार	-9711
▁परिदृश्य	-9712
▁प्रकारचा	-9713
▁प्रगतीचा	-9714
▁प्रस्तुति	-9715
▁बांधण्यात	-9716
ab	-9717
अन	-9718
पल	-9719
सच	-9720
िटर	-9721
▁ढग	-9722
▁फट	-9723
▁लॅ	-9724
क्टे	-9725
मधले	-9726
▁120	-9727
▁कोक	-9728
▁गले	-9729
▁पडू	-9730
▁वसु	-9731
▁चरबी	-9732
▁पाता	-9733
▁शकले	-9734
क्षांत	-9735
बिलिटी	-9736
▁पाहतो	-9737
▁रांची	-9738
णाऱ्यां	-9739
▁अंधेरे	-9740
▁कहेंगे	-9741
▁येणारे	-9742
▁शिवाजी	-9743
▁देशांचे	-9744
▁पशुपालन	-9745
▁मध्यस्थ	-9746
▁योनाथान	-9747
▁सॉफ्टवे	-9748
▁असल्याचा	-9749
▁आठवड्यात	-9750
▁ऊंचाइयों	-9751
▁शलमोनाने	-9752
▁समाजातील	-9753
▁होण्याचे	-9754
▁प्रयागराज	-9755
▁मध्यप्रदेश	-9756
-16	-9757
ंपा	-9758
,500	-9759
धारी	-9760
ेंटी	-9761
▁अरा	-9762
▁उठे	-9763
▁रिम	-9764
▁वेध	-9765
त्याच	-9766
▁शाही	-9767
संदर्भ	-9768
▁चक्री	-9769
▁लाभों	-9770
▁हत्ती	-9771
▁नागपुर	-9772
▁बाधाओं	-9773
▁मेघालय	-9774
▁लवकरात	-9775
▁सरासरी	-9776
▁इक्विटी	-9777
▁योजनेची	-9778
▁वर्षांत	-9779
▁व्यभिचार	-9780
▁पाण्याच्या	-9781
▁शांतिपूर्ण	-9782
”,	-9783
▁Y	-9784
▁b	-9785
मेन	-9786
नशील	-9787
माचे	-9788
स्पद	-9789
▁ऑटो	-9790
▁खनन	-9791
▁दीव	-9792
▁रखो	-9793
्राला	-9794
▁इंधन	-9795
▁कहां	-9796
▁उपभोग	-9797
▁मागास	-9798
ोग्राफी	-9799
▁ईमानदार	-9800
▁कदाचित्	-9801
▁बाजारात	-9802
▁सहाय्यक	-9803
▁अनिश्चित	-9804
▁उत्सर्जन	-9805
▁कायाकल्प	-9806
▁दीक्षांत	-9807
▁नसलेल्या	-9808
▁बन्यामीन	-9809
▁संस्थापक	-9810
▁वर्षासाठी	-9811
22	-9812
PM	-9813
RI	-9814
▁67	-9815
▁अच	-9816
दुर्	-9817
र्वी	-9818
मियों	-9819
▁सूजन	-9820
▁आवंटन	-9821
▁कारकि	-9822
▁दोपहर	-9823
▁भक्कम	-9824
▁समजले	-9825
▁पेड़ों	-9826
▁स्मृती	-9827
▁आधारावर	-9828
▁चेतावनी	-9829
▁मंदिरों	-9830
▁दिवसातून	-9831
▁प्रस्थापित	-9832
gt	-9833
फि	-9834
’,	-9835
एसई	-9836
धों	-9837
ावर	-9838
▁54	-9839
▁चहा	-9840
वृत्त	-9841
ाराचा	-9842
▁खाया	-9843
▁दिसू	-9844
▁पदवी	-9845
▁लगाए	-9846
▁तीसरी	-9847
▁निराश	-9848
▁प्रसू	-9849
▁संपदा	-9850
▁पन्नास	-9851
▁पुराना	-9852
▁यानंतर	-9853
ळ्याच्या	-9854
▁केन्द्र	-9855
▁चाहूंगा	-9856
▁मोहम्मद	-9857
▁संसर्गा	-9858
ांप्रमाणे	-9859
▁पक्षियों	-9860
▁विद्यालय	-9861
▁रुग्णांना	-9862
बॉ	-9863
ंजा	-9864
्वल	-9865
▁मठ	-9866
▁मस	-9867
▁शर	-9868
बिंद	-9869
▁2.5	-9870
▁डॉक	-9871
▁फां	-9872
स्कृत	-9873
▁कन्व	-9874
▁कमान	-9875
▁झाडा	-9876
▁तटीय	-9877
▁नयेत	-9878
▁भाकर	-9879
▁रिश्	-9880
▁रेखा	-9881
▁लेगा	-9882
▁हवेत	-9883
▁उद्भव	-9884
▁करदात	-9885
▁मुद्द	-9886
ंत्रिकी	-9887
▁ठरविले	-9888
▁मिळावे	-9889
▁सुरवात	-9890
▁याबद्दल	-9891
▁परिणामों	-9892
RD	-9893
गडा	-9894
ग्न	-9895
णात	-9896
▁जरा	-9897
▁पशू	-9898
▁बेस	-9899
▁लूट	-9900
▁वीस	-9901
▁बाबत	-9902
▁मन्द	-9903
▁केलेस	-9904
▁जमाती	-9905
▁हेल्प	-9906
वणाऱ्या	-9907
▁दोगुना	-9908
▁काहीतरी	-9909
▁जीवनमान	-9910
▁दर्शवली	-9911
▁ज्यावेळी	-9912
▁त्यांच्याकडे	-9913
कन	-9914
▁w	-9915
हिर	-9916
▁अत	-9917
जमान	-9918
ूहळू	-9919
ation	-9920
▁औषधा	-9921
▁पद्म	-9922
▁मधून	-9923
▁असावी	-9924
▁बुखार	-9925
▁संकलन	-9926
▁लढ्यात	-9927
▁संवादा	-9928
▁सच्चाई	-9929
मुख्याने	-9930
▁नामांकन	-9931
▁पूर्तता	-9932
▁मलेशिया	-9933
▁संतुष्ट	-9934
▁चक्रीवाद	-9935
▁परिभाषित	-9936
▁वाळवंटात	-9937
▁गुंतवणूकी	-9938
▁आमच्यासाठी	-9939
▁कार्यकर्ताओं	-9940
▁रुपयांपर्यंत	-9941
▁परमेश्वरासमोर	-9942
पॅ	-9943
यम	-9944
हल	-9945
किट	-9946
टीत	-9947
वडा	-9948
वील	-9949
▁47	-9950
तिहा	-9951
निटी	-9952
▁जतन	-9953
▁पवन	-9954
▁पीड	-9955
▁फिन	-9956
च्छिक	-9957
▁कहने	-9958
▁चुने	-9959
▁डीडी	-9960
▁फोकस	-9961
▁फ्रे	-9962
पुत्रा	-9963
श्वस्त	-9964
साव्या	-9965
▁एवढेच	-9966
▁गहराई	-9967
▁दयालु	-9968
▁बहुते	-9969
▁गोव्या	-9970
▁तज्ज्ञ	-9971
▁पेट्रो	-9972
▁मिद्या	-9973
▁हळूहळू	-9974
पेक्षाही	-9975
▁आजूबाजू	-9976
▁झाल्याने	-9977
▁पारदर्शकता	-9978
▁अंमलबजावणीसाठी	-9979
em	-9980
ँक	-9981
डम	-9982
साम	-9983
▁वल	-9984
▁हस	-9985
दातर	-9986
र्डर	-9987
▁खते	-9988
▁तिल	-9989
▁पान	-9990
▁सोय	-9991
ध्याय	-9992
▁यवाब	-9993
▁वरून	-9994
▁भूमिक	-9995
▁नागपूर	-9996
▁लाऊंगा	-9997
▁जबाबदार	-9998
▁सांगतात	-9999
▁इब्राहीम	-10000
▁छायाचित्र	-10001
▁लोकतांत्रिक	-10002
▁प्रामुख्याने	-10003
▁सुधारण्यासाठी	-10004
▁त्यांच्याबरोबर	-10005
PC	-10006
टाइ	-10007
▁अक	-10008
पुरम	-10009
प्ले	-10010
रखाव	-10011
साचा	-10012
िकेट	-10013
्हें	-10014
▁कडे	-10015
▁काठ	-10016
▁गुर	-10017
▁चळव	-10018
▁बेन	-10019
▁हर्	-10020
▁नीला	-10021
▁बैठे	-10022
▁भागि	-10023
कडच्या	-10024
कृत्ये	-10025
▁प्रजन	-10026
▁बळकटी	-10027
▁ह्यां	-10028
▁ठेवावे	-10029
▁ब्रिटन	-10030
▁क्रमवारी	-10031
▁गावांमध्ये	-10032
▁ज्याप्रमाणे	-10033
AM	-10034
गृ	-10035
ंडन	-10036
क्ल	-10037
जीत	-10038
▁अठ	-10039
च्ची	-10040
वर्त	-10041
स्थळ	-10042
्रोन	-10043
▁नवन	-10044
▁सदा	-10045
कृष्ण	-10046
व्यों	-10047
▁अराम	-10048
▁आरटी	-10049
▁एकदम	-10050
▁तर्क	-10051
▁द्वे	-10052
▁पदों	-10053
▁पीतल	-10054
▁राधा	-10055
▁कनाडा	-10056
▁चाँदी	-10057
▁चौधरी	-10058
▁टिकाऊ	-10059
▁तुकडे	-10060
▁पंडित	-10061
▁बचाया	-10062
▁कारणों	-10063
▁मन्दिर	-10064
▁शब्बाथ	-10065
▁मेगावॅट	-10066
▁नियुक्ती	-10067
▁राष्ट्रे	-10068
▁विद्यमान	-10069
▁सरकारकडून	-10070
▁सिद्धांतों	-10071
▁यांच्यातल्या	-10072
▁वाढविण्यासाठी	-10073
िन्	-10074
▁ऋष	-10075
ंपार	-10076
वतील	-10077
▁उन्	-10078
▁उपन	-10079
▁धात	-10080
▁अशोक	-10081
▁जबरद	-10082
▁मापद	-10083
▁MSMEs	-10084
▁घेतील	-10085
▁वेगळा	-10086
▁शेकेल	-10087
▁सर्वच	-10088
▁लागतील	-10089
▁समाजात	-10090
▁आश्वस्त	-10091
▁कराराचा	-10092
▁घेण्यास	-10093
▁निकायों	-10094
▁यूनिवर्	-10095
▁विधियों	-10096
▁स्वप्ने	-10097
▁माहितीपट	-10098
▁समुद्रात	-10099
▁सादरीकरण	-10100
▁उपाध्यक्ष	-10101
▁तुझ्याकडे	-10102
▁राष्ट्राला	-10103
AL	-10104
▁m	-10105
पुट	-10106
रिस	-10107
लाप	-10108
▁59	-10109
▁66	-10110
▁दम	-10111
क्को	-10112
चेरी	-10113
▁खंभ	-10114
▁गहन	-10115
▁ठंड	-10116
▁लंग	-10117
वर्तन	-10118
▁उदार	-10119
▁खींच	-10120
▁बनला	-10121
▁येहू	-10122
▁लेखी	-10123
▁हेरो	-10124
संरचना	-10125
▁आंखों	-10126
▁आवाजा	-10127
▁गर्दन	-10128
▁निर्ज	-10129
▁पूछता	-10130
▁लाएगा	-10131
▁कारीगर	-10132
▁जुड़ाव	-10133
▁तटबंदी	-10134
▁साक्षर	-10135
▁श्रीलंके	-10136
▁दृष्टिकोन	-10137
▁कुटुंबांना	-10138
▁मंत्रिमंडलीय	-10139
▁नऊ	-10140
चकित	-10141
▁तभी	-10142
ंपैकी	-10143
ब्बास	-10144
▁कलाम	-10145
▁दासी	-10146
▁योगी	-10147
▁किशोर	-10148
▁गेहूं	-10149
▁डालते	-10150
▁लोखंड	-10151
▁शिष्ट	-10152
▁नीतिगत	-10153
▁गतिविधि	-10154
▁ट्रेनें	-10155
▁सामरिया	-10156
▁माणसाच्या	-10157
▁द्राक्षारस	-10158
▁योजनेंतर्गत	-10159
21	-10160
;&	-10161
षे	-10162
▁ऑप	-10163
▁२५	-10164
जिकल	-10165
ैसूर	-10166
्लेश	-10167
▁मोट	-10168
▁लेट	-10169
द्वीप	-10170
प्रथम	-10171
वडिला	-10172
वायचे	-10173
▁अदोम	-10174
▁मौका	-10175
▁विना	-10176
मंत्रा	-10177
संशोधन	-10178
▁उपवास	-10179
▁ज्योति	-10180
▁दिलासा	-10181
▁नबियों	-10182
▁भूमीवर	-10183
▁योद्धा	-10184
▁सभ्यता	-10185
▁सुरळीत	-10186
▁ज्यादातर	-10187
▁नियमांचे	-10188
▁जिल्ह्यांमध्ये	-10189
चेल	-10190
ळले	-10191
▁पन	-10192
▁खाई	-10193
▁खिड	-10194
▁तणा	-10195
▁थोर	-10196
▁बाघ	-10197
▁बिछ	-10198
▁सोर	-10199
च्‍या	-10200
णियों	-10201
▁कागद	-10202
▁गहरे	-10203
▁मंडप	-10204
▁लगते	-10205
▁शिल्	-10206
▁सुगम	-10207
▁हिला	-10208
इंडिया	-10209
▁आमतौर	-10210
▁शुध्द	-10211
▁शोधून	-10212
▁दाखवला	-10213
▁हेक्टे	-10214
▁अरेबिया	-10215
▁बुद्धिम	-10216
▁मीट्रिक	-10217
▁संवेदना	-10218
▁सर्वांच्या	-10219
▁स्थलांतरित	-10220
▁प्रत्येकाने	-10221
ES	-10222
रज	-10223
ana	-10224
जना	-10225
नाक	-10226
वीय	-10227
▁ऑल	-10228
र्ति	-10229
स्तक	-10230
िसिन	-10231
ॉर्ट	-10232
▁इम्	-10233
▁भूख	-10234
▁लहर	-10235
▁सूज	-10236
शिक्ष	-10237
▁घाला	-10238
▁ठरले	-10239
▁दौरे	-10240
▁पीटर	-10241
▁पेशा	-10242
▁बाला	-10243
▁सोना	-10244
ण्याला	-10245
ांवरील	-10246
▁उजागर	-10247
▁नियमा	-10248
▁यजमान	-10249
स्टिक्स	-10250
▁किल्ला	-10251
▁डीआरडीओ	-10252
▁निराकरण	-10253
▁परिकल्प	-10254
▁वन्यजीव	-10255
▁सिलेंडर	-10256
▁करण्याला	-10257
▁संस्थेने	-10258
▁व्यापारिक	-10259
▁प्रतिबंधित	-10260
▁महत्त्वाचा	-10261
▁संघटनेच्या	-10262
▁व्यापारियों	-10263
▁परमेश्वराकडून	-10264
रीश	-10265
ोधक	-10266
▁2.	-10267
डीएस	-10268
णाली	-10269
्विक	-10270
▁घोड	-10271
▁बिख	-10272
▁लुट	-10273
▁सीट	-10274
ोवताल	-10275
▁कैदी	-10276
▁जीने	-10277
▁फलों	-10278
माध्यम	-10279
ामध्ये	-10280
▁दिव्य	-10281
▁ध्येय	-10282
▁मिलते	-10283
▁शौर्य	-10284
▁क्रमशः	-10285
▁मिश्रा	-10286
▁सचिवों	-10287
▁सुशासन	-10288
▁निवेशकों	-10289
▁कारकिर्दी	-10290
▁मिळालेल्या	-10291
▁सुरुवातीला	-10292
गि	-10293
कॉम	-10294
बेट	-10295
▁उघ	-10296
सबका	-10297
च्छेद	-10298
जमेंट	-10299
तातील	-10300
▁अपरा	-10301
▁जलसा	-10302
▁सींग	-10303
ंपारिक	-10304
ऱ्यावर	-10305
▁उच्चा	-10306
▁किताब	-10307
▁जवाहर	-10308
▁तेथेच	-10309
▁मंत्रि	-10310
▁वर्षभर	-10311
▁आतंकवादी	-10312
▁डोक्यावर	-10313
▁हेक्टेयर	-10314
▁मूर्तियों	-10315
▁राजकुमारों	-10316
चु	-10317
ुश	-10318
एआर	-10319
जान	-10320
साड	-10321
देवी	-10322
हनीय	-10323
िज्म	-10324
▁197	-10325
▁उदर	-10326
▁पडत	-10327
▁पश्	-10328
▁वेल	-10329
▁सिख	-10330
क्सीन	-10331
▁उन्म	-10332
▁चौथे	-10333
▁जुने	-10334
▁देरी	-10335
▁संकु	-10336
नामुळे	-10337
▁इशारा	-10338
▁जानने	-10339
▁रखेगा	-10340
▁अब्बास	-10341
▁आदरणीय	-10342
▁खोल्या	-10343
▁गिर्या	-10344
▁दानीएल	-10345
▁ब्यूरो	-10346
▁राजकोष	-10347
▁विचारा	-10348
▁सर्विस	-10349
▁करोड़ों	-10350
▁केंद्रीत	-10351
▁सशक्तीकरण	-10352
▁प्रजासत्ताक	-10353
▁राखण्यासाठी	-10354
23	-10355
qu	-10356
टाई	-10357
मला	-10358
रात	-10359
्टा	-10360
▁नु	-10361
▁रज	-10362
कर्त	-10363
क्के	-10364
ट्टा	-10365
ठिका	-10366
▁इंच	-10367
▁चिं	-10368
बोर्ड	-10369
▁आगमन	-10370
▁घेईल	-10371
▁टीबी	-10372
▁दुश्म	-10373
▁द्वेष	-10374
▁निवडक	-10375
▁व्हाल	-10376
▁चौड़ाई	-10377
▁मापदंड	-10378
▁यूनानी	-10379
▁सदियों	-10380
▁अनुमोदन	-10381
▁उर्वरित	-10382
▁मुखर्जी	-10383
▁असणार्या	-10384
▁येशूच्या	-10385
▁विषयांवर	-10386
▁उत्पादनात	-10387
▁साक्षीदार	-10388
:-	-10389
▁f	-10390
झील	-10391
राण	-10392
ान्	-10393
ेंब	-10394
▁उम	-10395
▁डु	-10396
पीआर	-10397
पैथी	-10398
▁एनि	-10399
▁झुक	-10400
▁पिय	-10401
▁सोम	-10402
▁२००	-10403
शिल्प	-10404
्रामक	-10405
▁इसील	-10406
▁बैठा	-10407
▁मवेश	-10408
▁माने	-10409
ंकय्या	-10410
ार्‍या	-10411
▁चूर्ण	-10412
▁तोंडा	-10413
▁नवोन्	-10414
▁बिंदु	-10415
▁अग्रिम	-10416
▁दिवसां	-10417
▁देणारा	-10418
▁प्रथमच	-10419
▁यूरिया	-10420
▁क्षयरोग	-10421
▁तेव्हाच	-10422
▁अस्तित्व	-10423
▁वर्षांचा	-10424
▁सेवेसाठी	-10425
▁गिर्यारोह	-10426
▁मालवाहतूक	-10427
▁रुग्णालये	-10428
▁निधनाबद्दल	-10429
ूष	-10430
आया	-10431
ताई	-10432
वटी	-10433
ैंप	-10434
▁57	-10435
पद्ध	-10436
संगत	-10437
सवें	-10438
▁आधा	-10439
कड़ों	-10440
▁आयाम	-10441
▁डाउन	-10442
▁डाळी	-10443
▁नोडल	-10444
▁पाळा	-10445
▁लाता	-10446
▁ग्रॅम	-10447
▁झांकी	-10448
▁प्रात	-10449
▁मौल्य	-10450
▁वडीला	-10451
▁वल्लभ	-10452
▁शैतान	-10453
▁जाणारे	-10454
▁नर्मदा	-10455
▁रामनाथ	-10456
▁रिकवरी	-10457
▁आधारभूत	-10458
▁इत्यादि	-10459
▁कॉलेजों	-10460
▁क्लस्टर	-10461
▁महिलाएं	-10462
ya	-10463
जील	-10464
ोना	-10465
▁५०	-10466
ंदगी	-10467
पश्च	-10468
▁अंद	-10469
मच्या	-10470
ल्कुल	-10471
ित्रा	-10472
▁अश्व	-10473
▁गड़ब	-10474
▁दिशे	-10475
▁नकवी	-10476
▁रूसी	-10477
▁याकडे	-10478
▁सत्तर	-10479
▁रखरखाव	-10480
▁रोमांचक	-10481
▁साहाय्य	-10482
▁प्रत्येकी	-10483
▁ईशान्येकडील	-10484
ईसी	-10485
गंज	-10486
गाई	-10487
जाति	-10488
माची	-10489
रीया	-10490
वेतन	-10491
शिंग	-10492
▁जखम	-10493
▁लाओ	-10494
फार्म	-10495
मुंबई	-10496
▁खड़ी	-10497
▁नफरत	-10498
▁भरून	-10499
▁मजुर	-10500
▁महाल	-10501
▁यासह	-10502
▁लगने	-10503
▁शर्त	-10504
गाच्या	-10505
▁अडथळे	-10506
▁पोटात	-10507
▁सौंदर	-10508
▁हवेली	-10509
▁मणिपूर	-10510
▁प्रचलित	-10511
▁बिल्कुल	-10512
▁शहरातील	-10513
▁व्यासपीठ	-10514
▁सीएसआयआर	-10515
▁सर्वप्रथम	-10516
-6	-10517
MT	-10518
गोर	-10519
फ्र	-10520
▁73	-10521
▁फ्	-10522
▁वक	-10523
चाही	-10524
वारा	-10525
▁आशे	-10526
▁कॅन	-10527
▁रुक	-10528
स्तेर	-10529
स्वामी	-10530
▁आवडते	-10531
▁इंटेल	-10532
▁दरबार	-10533
▁बनाकर	-10534
▁स्तूप	-10535
प्रणाली	-10536
▁इसीलिए	-10537
▁एस्तेर	-10538
▁भाषणात	-10539
विलेल्या	-10540
▁मुस्लिम	-10541
▁अवसंरचना	-10542
▁पाण्याचा	-10543
▁प्रादुर्	-10544
▁वर्षीच्या	-10545
▁वेंटिलेटर	-10546
▁अस्तित्वात	-10547
▁आव्हानांचा	-10548
45	-10549
नॉ	-10550
मू	-10551
पेट	-10552
मेरे	-10553
स्पे	-10554
▁अवै	-10555
▁टोळ	-10556
▁ठाक	-10557
सरकार	-10558
▁पडून	-10559
▁भरुन	-10560
▁याता	-10561
▁योशी	-10562
▁रुचि	-10563
▁सोचा	-10564
विल्या	-10565
▁उर्जे	-10566
▁ओलांड	-10567
▁कैडेट	-10568
▁धक्का	-10569
▁साधने	-10570
▁हामान	-10571
▁चांगुल	-10572
▁विनम्र	-10573
▁विनिमय	-10574
▁हेक्टर	-10575
साठीच्या	-10576
▁काळातील	-10577
▁लोकसभेत	-10578
▁शैक्षिक	-10579
▁सातव्या	-10580
▁सेंट्रल	-10581
▁केल्यावर	-10582
▁पाण्याचे	-10583
▁प्रलंबित	-10584
▁मौल्यवान	-10585
▁दिल्लीतील	-10586
▁पारंपारिक	-10587
▁कॉन्फ्रेंसिंग	-10588
NC	-10589
इक	-10590
३०	-10591
.05	-10592
समु	-10593
आईबी	-10594
म्बे	-10595
शंकर	-10596
सीएस	-10597
▁जड़	-10598
▁ठरा	-10599
▁रोप	-10600
▁घमंड	-10601
▁पध्द	-10602
▁फिक्	-10603
▁सद्य	-10604
▁बेथेल	-10605
▁लाकडा	-10606
▁स्नेह	-10607
नावश्यक	-10608
▁अवार्ड	-10609
्यापासून	-10610
▁गणतंत्र	-10611
▁जलाशयों	-10612
▁घेण्याचा	-10613
▁शिकायतों	-10614
▁हड्डियों	-10615
▁पृथ्वीवरील	-10616
EA	-10617
Mo	-10618
कधी	-10619
माम	-10620
विणे	-10621
▁पैन	-10622
▁फेर	-10623
▁बीत	-10624
▁मुर	-10625
▁कॉफी	-10626
▁डरते	-10627
▁लोहे	-10628
ंपासून	-10629
दाच्या	-10630
▁कनानी	-10631
▁घातला	-10632
▁तत्वा	-10633
▁बरामद	-10634
▁भाषेत	-10635
▁सांभा	-10636
▁ट्विटर	-10637
▁निघाले	-10638
▁वेदीवर	-10639
▁संकटात	-10640
▁सहयोगी	-10641
▁आनंदाने	-10642
▁यातायात	-10643
▁शिक्षित	-10644
▁दुश्मनों	-10645
▁शहराच्या	-10646
ंगल	-10647
ढाई	-10648
▁११	-10649
शियन	-10650
सीना	-10651
▁चतु	-10652
▁मैल	-10653
इसेंस	-10654
चालित	-10655
द्यपि	-10656
स्टेट	-10657
▁आहेच	-10658
▁कॉमन	-10659
▁यकृत	-10660
▁रैंक	-10661
▁सीआर	-10662
कुमारी	-10663
▁अल्सर	-10664
▁उपनगर	-10665
▁कानों	-10666
▁पित्त	-10667
▁राहणे	-10668
ड़कियों	-10669
▁बाप्ति	-10670
▁इन्स्टिट	-10671
▁तोपर्यंत	-10672
▁पडलेल्या	-10673
▁मानदंडों	-10674
▁अभियांत्रिकी	-10675
▁प्रतिस्पर्धी	-10676
ol	-10677
ंसक	-10678
खाप	-10679
खीम	-10680
चाप	-10681
थिल	-10682
नाल	-10683
ळवळ	-10684
सेज	-10685
▁41	-10686
▁१४	-10687
हेरी	-10688
ातला	-10689
▁कंब	-10690
▁ढाल	-10691
▁रसद	-10692
▁वाइ	-10693
▁हाड	-10694
क्टिव	-10695
ोलिया	-10696
▁अवैध	-10697
▁आएगी	-10698
▁कॉरप	-10699
▁जटिल	-10700
▁दारा	-10701
▁देखे	-10702
▁बिगर	-10703
▁लखनऊ	-10704
▁हिवा	-10705
ांसमोर	-10706
▁अजनबी	-10707
▁आश्रम	-10708
▁खोलने	-10709
▁घातले	-10710
▁चारही	-10711
▁डिजिट	-10712
▁पेशाब	-10713
▁स्ट्र	-10714
▁कृतज्ञ	-10715
▁जाएंगी	-10716
▁निपटान	-10717
▁पाहिला	-10718
▁बहुतेक	-10719
▁बैठकों	-10720
▁वृत्ती	-10721
▁व्यस्त	-10722
▁सिन्हा	-10723
ेप्रमाणे	-10724
▁अनुपालन	-10725
▁प्रत्या	-10726
▁बहुतांश	-10727
▁समुदाया	-10728
▁राजमार्गों	-10729
▁प्रस्तावाला	-10730
▁रुग्णांच्या	-10731
▁अर्थसंकल्पात	-10732
रस	-10733
िरे	-10734
ौती	-10735
नेही	-10736
म्मत	-10737
ेंडा	-10738
▁ताज	-10739
▁लॉक	-10740
▁सूट	-10741
▁हनु	-10742
▁उकसा	-10743
▁भावन	-10744
▁रिका	-10745
▁सवलत	-10746
सीएमआर	-10747
▁आक्रो	-10748
▁भुवने	-10749
▁लावला	-10750
▁असूनही	-10751
▁देणारी	-10752
▁निकलने	-10753
▁प्लांट	-10754
▁शिफारशी	-10755
▁स्थापने	-10756
▁निवडणुकी	-10757
▁प्रमाणित	-10758
▁सेवानिवृ	-10759
▁प्रदेशातल्या	-10760
ीत	-10761
ॅन	-10762
बले	-10763
बुल	-10764
श्त	-10765
▁१६	-10766
वाडी	-10767
▁जरु	-10768
▁हाट	-10769
▁घातक	-10770
▁चंडी	-10771
▁चाला	-10772
▁मोहन	-10773
▁राखी	-10774
▁सुदृ	-10775
▁सेतु	-10776
▁इतिहा	-10777
▁लेफ्ट	-10778
▁स्पेस	-10779
▁दिनांक	-10780
▁पहुंचे	-10781
▁भांडवल	-10782
▁संसदेत	-10783
▁ह्याची	-10784
▁दीवारों	-10785
▁पोहोचली	-10786
▁विशाखाप	-10787
▁सर्वांग	-10788
▁कामासाठी	-10789
▁विकसनशील	-10790
▁बिन्यामीन	-10791
90	-10792
जली	-10793
पंच	-10794
▁77	-10795
▁रव	-10796
ंगात	-10797
पुरा	-10798
ऊर्जा	-10799
▁आचरण	-10800
▁इसरो	-10801
▁पडता	-10802
▁रुंद	-10803
▁सीधा	-10804
▁भंडार	-10805
▁यातील	-10806
▁उपाहार	-10807
▁जणांना	-10808
▁पुरेसे	-10809
▁यद्यपि	-10810
▁सुध्दा	-10811
▁परेशानी	-10812
▁फिल्में	-10813
▁महामंडळ	-10814
▁रुपांतर	-10815
▁लाइसेंस	-10816
▁दौऱ्यावर	-10817
▁मेलेल्या	-10818
▁सर्वांचा	-10819
▁तैयारियों	-10820
▁प्रक्रिये	-10821
▁श्रेणियों	-10822
▁प्रयत्नशील	-10823
▁प्रकल्पांचा	-10824
om	-10825
एआई	-10826
हेज	-10827
तीवर	-10828
न्सी	-10829
विया	-10830
▁अंश	-10831
▁आंग	-10832
▁आसन	-10833
▁घुस	-10834
▁यरी	-10835
▁सेन	-10836
आयामी	-10837
सोबतच	-10838
ेंट्स	-10839
▁क्लब	-10840
▁चैनल	-10841
▁डिवी	-10842
▁पैदल	-10843
▁बद्ध	-10844
▁योआब	-10845
▁लगाई	-10846
▁स्की	-10847
▁अडथळा	-10848
▁गलिया	-10849
▁माउंट	-10850
▁वेगळी	-10851
▁अर्पणे	-10852
▁उत्तरी	-10853
▁मरम्मत	-10854
▁लष्करी	-10855
▁सातवें	-10856
▁हाताने	-10857
▁आल्यावर	-10858
▁विशेषकर	-10859
▁संख्येत	-10860
▁माझ्याशी	-10861
▁उच्चस्तरीय	-10862
▁प्रयत्नांची	-10863
एमए	-10864
डले	-10865
नास	-10866
डिंग	-10867
श्मन	-10868
▁घाव	-10869
▁देण	-10870
▁भीम	-10871
▁अनुप	-10872
▁ग्रे	-10873
▁तुरु	-10874
▁पांड	-10875
▁ब्ले	-10876
▁शिशू	-10877
नेस्को	-10878
▁कितनी	-10879
▁बकाया	-10880
▁लावली	-10881
▁घनिष्ठ	-10882
▁दुश्मन	-10883
▁प्रजनन	-10884
▁राजकार	-10885
▁शिल्लक	-10886
▁अफ्रीकी	-10887
▁उपाध्याय	-10888
▁व्यवसायों	-10889
▁उद्यमशीलता	-10890
▁कामगारांना	-10891
▁देवाणघेवाण	-10892
▁अर्थव्यवस्थाओं	-10893
▁कार्यक्रमाच्या	-10894
नेल	-10895
▁एथ	-10896
▁ऑयल	-10897
▁गाज	-10898
▁छाप	-10899
▁ठळक	-10900
▁पिढ	-10901
ईलैंड	-10902
नियों	-10903
रोबाम	-10904
▁Prad	-10905
▁आवंट	-10906
▁इकडे	-10907
▁ठहरा	-10908
▁ताला	-10909
▁सूचक	-10910
▁विहार	-10911
▁स्टेड	-10912
▁आक्रोश	-10913
▁जनतेचे	-10914
▁दरवाजा	-10915
▁योजनेत	-10916
▁अस्वस्थ	-10917
▁टेलीफोन	-10918
▁मेगावाट	-10919
▁वैक्सीन	-10920
▁सुधारणे	-10921
▁नुकत्याच	-10922
▁प्रावधानों	-10923
▁अन्यजातियों	-10924
▁प्रकल्पाच्या	-10925
यो	-10926
कोळ	-10927
ड़न	-10928
त्स	-10929
वडी	-10930
▁यर	-10931
▁सज	-10932
आरटी	-10933
ज्जा	-10934
हाचे	-10935
▁कहे	-10936
▁चलन	-10937
▁मते	-10938
▁वाड	-10939
िकारक	-10940
▁1500	-10941
▁2011	-10942
▁तारण	-10943
▁नम्र	-10944
▁मोड़	-10945
▁एलीया	-10946
▁काटेक	-10947
▁तिकिट	-10948
▁बोललो	-10949
▁साढ़े	-10950
णामध्ये	-10951
▁मृतकों	-10952
▁संबद्ध	-10953
▁चिंताओं	-10954
▁नियोजित	-10955
▁योजनेला	-10956
▁शरीराला	-10957
▁ह्यांना	-10958
▁राजकोषीय	-10959
▁संपर्कात	-10960
▁प्रोग्राम	-10961
▁अर्थमंत्री	-10962
▁त्याच्याशी	-10963
▁प्रक्रियेत	-10964
le	-10965
शाह	-10966
पाणी	-10967
सचिव	-10968
िबात	-10969
▁अवय	-10970
▁इथं	-10971
▁रोल	-10972
▁सतह	-10973
नादेश	-10974
वणारे	-10975
▁अंगा	-10976
▁गुरू	-10977
▁पाहु	-10978
▁बल्ब	-10979
▁भावी	-10980
▁लिखे	-10981
▁वाटप	-10982
▁अदालत	-10983
▁चालले	-10984
▁सहजपणे	-10985
▁अवधारणा	-10986
▁पर्वतार	-10987
▁मेंढपाळ	-10988
▁नवाचारों	-10989
▁मंदिराचे	-10990
▁इस्राएलला	-10991
▁विश्रांती	-10992
▁होईपर्यंत	-10993
▁जीवनसत्त्व	-10994
▁आश्चर्यचकित	-10995
अब	-10996
नं	-10997
गती	-10998
▁He	-10999
रीशस	-11000
र्या	-11001
व्यव	-11002
▁छोर	-11003
▁बुल	-11004
▁रेश	-11005
▁१००	-11006
कोविड	-11007
धानिक	-11008
▁उतना	-11009
▁फाटक	-11010
▁आराखड	-11011
▁ऑक्सि	-11012
▁पेरिस	-11013
▁भ्रमण	-11014
▁श्रेय	-11015
▁जाताना	-11016
▁यहोशवा	-11017
▁राजाचा	-11018
्यांपैकी	-11019
▁अन्नधान	-11020
▁उमेदवार	-11021
▁योजनाएं	-11022
▁योजनेचे	-11023
▁संस्कार	-11024
▁कायदेशीर	-11025
▁संकल्पने	-11026
▁उद्दिष्टे	-11027
▁कराराच्या	-11028
▁प्रतिबंधात्मक	-11029
ईस	-11030
▁n	-11031
मास	-11032
ूती	-11033
▁ईज	-11034
▁जौ	-11035
नाशक	-11036
वर्ग	-11037
वावा	-11038
विंग	-11039
▁गहू	-11040
▁पिघ	-11041
▁शोर	-11042
नियां	-11043
बत्ती	-11044
रोक्त	-11045
ोरिया	-11046
▁ईर्ष	-11047
▁उधार	-11048
▁एकड़	-11049
▁नसून	-11050
▁पोटा	-11051
▁बपति	-11052
▁म्यू	-11053
▁रॉयल	-11054
▁वकील	-11055
▁विफल	-11056
▁शादी	-11057
▁हेतू	-11058
ल्डिंग	-11059
▁अद्या	-11060
▁कापणी	-11061
▁जीतने	-11062
▁डिस्ट	-11063
▁बांबू	-11064
▁रूपात	-11065
▁वाढले	-11066
ापूर्वी	-11067
▁आढळतात	-11068
▁दुर्गा	-11069
▁उपरोक्त	-11070
▁बोलावले	-11071
▁जगातल्या	-11072
▁दर्शनमंड	-11073
▁भुवनेश्वर	-11074
▁संस्थांनी	-11075
▁बाप्तिस्मा	-11076
▁झाल्याबद्दल	-11077
छो	-11078
र्र	-11079
लीत	-11080
ंहून	-11081
ब्बी	-11082
वावी	-11083
▁अजी	-11084
▁उठो	-11085
▁टोल	-11086
▁फीट	-11087
▁बेर	-11088
▁रवी	-11089
▁हरि	-11090
ानाचा	-11091
▁5000	-11092
▁इंजे	-11093
▁एसाव	-11094
▁घडेल	-11095
▁पडतो	-11096
▁हाथी	-11097
डीआरएफ	-11098
दृष्टी	-11099
बाबतीत	-11100
▁पड़ने	-11101
▁बारीक	-11102
▁ह्याच	-11103
▁इच्छुक	-11104
▁गार्डन	-11105
▁डाव्या	-11106
▁विभाजन	-11107
ण्यासारखे	-11108
▁घेण्याचे	-11109
▁विकासाचा	-11110
▁इंडस्ट्री	-11111
▁वाढवण्यात	-11112
▁संयुक्तपणे	-11113
दक	-11114
बिर	-11115
संघ	-11116
सुर	-11117
▁3.	-11118
▁गज	-11119
ग्या	-11120
जनों	-11121
तारा	-11122
ातले	-11123
▁175	-11124
▁800	-11125
▁खपत	-11126
▁गड्	-11127
▁जसा	-11128
चाताप	-11129
▁आरंभ	-11130
▁जनगण	-11131
▁थायल	-11132
▁मीखा	-11133
▁शेयर	-11134
▁ट्वीट	-11135
▁फ्रेम	-11136
▁बेंगल	-11137
▁आवंटित	-11138
▁कामाला	-11139
▁गिरावट	-11140
▁हिज्की	-11141
▁इंटेलिज	-11142
▁पर्यायी	-11143
▁प्रेषित	-11144
▁वेगळ्या	-11145
▁परंपराओं	-11146
▁सीएसआईआर	-11147
12	-11148
85	-11149
वं	-11150
आणि	-11151
ईएस	-11152
▁अ‍	-11153
▁रक	-11154
▁धाड	-11155
▁वाव	-11156
▁सुष	-11157
तांचा	-11158
▁कडून	-11159
▁काढा	-11160
▁किला	-11161
▁खोला	-11162
▁घडून	-11163
▁चलना	-11164
▁धनुष	-11165
▁बुरे	-11166
▁साँस	-11167
▁करशील	-11168
▁क्रॉस	-11169
▁जयपुर	-11170
▁मंडली	-11171
▁शिथिल	-11172
▁सारखे	-11173
रामध्ये	-11174
▁अलिकडे	-11175
▁बिहारी	-11176
▁बोलतात	-11177
▁भ्रष्ट	-11178
▁शिपिंग	-11179
▁बौद्धिक	-11180
▁महिलाएँ	-11181
▁स्वच्छा	-11182
▁दावीदाला	-11183
▁प्रांतात	-11184
▁आमच्याकडे	-11185
▁दर्जाच्या	-11186
▁मंदिरातील	-11187
▁घराण्यातील	-11188
▁दिवसांच्या	-11189
▁निर्देशांक	-11190
▁सार्वभौमिक	-11191
▁उत्तरप्रदेश	-11192
▁गेल्यावर्षी	-11193
▁माझ्याबरोबर	-11194
▁टक्क्यांपर्यंत	-11195
तोस	-11196
बॉल	-11197
ेंच	-11198
▁99	-11199
▁पश	-11200
डीबी	-11201
पीटी	-11202
लैंड	-11203
▁गमा	-11204
▁घाय	-11205
▁मेह	-11206
द्रीय	-11207
▁1.25	-11208
▁अकाल	-11209
▁आयटी	-11210
▁कळले	-11211
▁तिथि	-11212
▁बुरी	-11213
▁भेजे	-11214
▁समजू	-11215
▁स्पी	-11216
प्रकाश	-11217
ऱ्याने	-11218
व्व्या	-11219
▁2016,	-11220
▁एकमेव	-11221
▁यूरोप	-11222
▁सुचार	-11223
▁अध्याय	-11224
▁करेंगी	-11225
▁कीटाणु	-11226
▁दाँतों	-11227
▁माताओं	-11228
▁सूर्या	-11229
▁स्वभाव	-11230
▁गर्भाशय	-11231
▁टीकाकरण	-11232
▁तिथल्या	-11233
▁मेंढ्या	-11234
▁रक्तदाब	-11235
▁स्वीकृत	-11236
▁गरीबांना	-11237
▁मिसरच्या	-11238
▁यहोयाकीम	-11239
▁काळापासून	-11240
▁व्यंकय्या	-11241
▁कुटुंबातील	-11242
▁भारतातल्या	-11243
▁विश्वासघात	-11244
▁वैशिष्ट्ये	-11245
▁देशभरातल्या	-11246
▁मैत्रीपूर्ण	-11247
EC	-11248
िंट	-11249
ैया	-11250
इट्स	-11251
ताची	-11252
नाया	-11253
सीएफ	-11254
▁एकर	-11255
▁झलक	-11256
▁थां	-11257
कार्य	-11258
वलेले	-11259
▁एवढी	-11260
▁खेलो	-11261
▁गुर्	-11262
▁गुला	-11263
▁टाइम	-11264
▁पॉलि	-11265
▁फेसब	-11266
▁वीणा	-11267
▁शिका	-11268
▁मारुन	-11269
▁सॅनिट	-11270
▁50,000	-11271
▁एमएसपी	-11272
▁म्हणता	-11273
▁राजाची	-11274
▁सांत्व	-11275
▁सुलभता	-11276
▁अर्थसंक	-11277
▁दर्शकों	-11278
▁दिवसांत	-11279
▁म्हणतील	-11280
▁सावधानी	-11281
▁सुझावों	-11282
▁स्वर्गा	-11283
▁अधिग्रहण	-11284
▁विजेताओं	-11285
▁सैन्याने	-11286
▁कठिनाइयों	-11287
▁त्यापेक्षा	-11288
▁पर्यावरणीय	-11289
▁योजनांच्या	-11290
दह	-11291
दून	-11292
म्य	-11293
म्ह	-11294
▁तथ	-11295
▁मळ	-11296
Indi	-11297
▁फेड	-11298
ॉप्टर	-11299
▁अगली	-11300
▁ऊपरी	-11301
▁कुशी	-11302
▁टीवी	-11303
▁डाऊन	-11304
▁यकीन	-11305
▁सीजन	-11306
▁स्वे	-11307
▁हमले	-11308
केंद्र	-11309
▁इश्मा	-11310
▁कोर्स	-11311
▁खाँसी	-11312
▁डॉक्ट	-11313
त्कालीन	-11314
व्यवस्थ	-11315
▁उत्पन्	-11316
▁स्वरुप	-11317
▁दक्षिणी	-11318
▁सुक्ष्म	-11319
▁निष्पक्ष	-11320
▁पश्चाताप	-11321
▁पाण्याची	-11322
▁यहोशाफाट	-11323
▁स्वयंसेवक	-11324
▁गुंतवणूकदार	-11325
▁जिल्ह्यातील	-11326
जळ	-11327
ईएम	-11328
ेकर	-11329
जोरम	-11330
ताने	-11331
दक्ष	-11332
नेंस	-11333
लीला	-11334
▁अतः	-11335
▁जां	-11336
▁झेप	-11337
▁दाब	-11338
▁बगी	-11339
▁यमु	-11340
▁विण	-11341
▁सेक	-11342
▁खांब	-11343
▁पणजी	-11344
▁पायी	-11345
र्निंग	-11346
▁आनन्द	-11347
▁उज्जी	-11348
▁तितके	-11349
▁नक्वी	-11350
▁महोदय	-11351
▁म्हणे	-11352
▁लष्कर	-11353
▁वधस्त	-11354
▁समजेल	-11355
▁साजरी	-11356
▁साहसी	-11357
▁स्राव	-11358
▁स्वर्	-11359
▁अजिबात	-11360
▁उन्नयन	-11361
▁निश्चय	-11362
▁फैलाने	-11363
▁मिळावा	-11364
▁स्तरों	-11365
▁निकालने	-11366
▁सैकड़ों	-11367
ण्यापासून	-11368
▁होणार्या	-11369
▁नियमितपणे	-11370
▁बंदरगाहों	-11371
▁योजनेमुळे	-11372
▁सक्षमीकरण	-11373
▁त्यांच्यात	-11374
▁पूर्वजांना	-11375
▁प्लेटफार्म	-11376
▁खालीलप्रमाणे	-11377
ळत	-11378
ॅक	-11379
तोल	-11380
मोल	-11381
वेन	-11382
सिस	-11383
णायक	-11384
देखो	-11385
पानी	-11386
शियम	-11387
सर्व	-11388
ित्य	-11389
▁कडक	-11390
▁मैन	-11391
▁मालक	-11392
▁शेजा	-11393
▁संयम	-11394
▁सूरत	-11395
▁पड़ोस	-11396
▁पाहात	-11397
▁भिन्न	-11398
▁साहेब	-11399
▁अपनाया	-11400
▁उच्चतम	-11401
▁पूछताछ	-11402
▁इस्रायल	-11403
▁ईर्ष्या	-11404
▁काटेकोर	-11405
▁द्यायचे	-11406
▁प्रोटीन	-11407
▁राजनीति	-11408
▁संदेशात	-11409
▁लाखांहून	-11410
▁स्तरावरील	-11411
▁सहकार्याला	-11412
▁राज्यातल्या	-11413
▁प्रकल्पांच्या	-11414
he	-11415
.00	-11416
▁कड	-11417
ंकडे	-11418
▁गोड	-11419
▁नीट	-11420
▁वाय	-11421
ंकडून	-11422
जीवित	-11423
▁एसटी	-11424
▁गणना	-11425
▁चिड़	-11426
▁बिगा	-11427
▁खेतों	-11428
▁नौकरी	-11429
▁पडतात	-11430
▁मेंदू	-11431
▁लवचिक	-11432
▁हॉटेल	-11433
▁नाहीतर	-11434
▁परंपरे	-11435
▁प्रिंट	-11436
▁मिजोरम	-11437
▁मॉरीशस	-11438
▁सभागृह	-11439
▁सर्जरी	-11440
▁सहभागा	-11441
▁अनुभवों	-11442
▁देशवासी	-11443
▁फायद्या	-11444
▁सरकारें	-11445
▁सराहनीय	-11446
▁स्पोर्ट	-11447
▁दिनाच्या	-11448
▁बपतिस्मा	-11449
▁प्रतिष्ठा	-11450
▁वित्तपोषण	-11451
▁सुविधांचा	-11452
▁कार्यकर्ता	-11453
▁उद्योजकांना	-11454
31	-11455
थो	-11456
...	-11457
कीत	-11458
कें	-11459
डीन	-11460
बाग	-11461
दाचा	-11462
रेपी	-11463
वकों	-11464
सीआई	-11465
▁अंज	-11466
▁आका	-11467
▁कात	-11468
▁फरक	-11469
▁मीठ	-11470
▁शिज	-11471
India	-11472
▁आराध	-11473
▁इराण	-11474
▁एनटी	-11475
▁कर्ण	-11476
▁थेंब	-11477
▁फैले	-11478
▁फ्री	-11479
▁बिला	-11480
▁यशया	-11481
▁रसाय	-11482
▁चलाने	-11483
▁तीनों	-11484
▁निकले	-11485
▁रहेगी	-11486
▁वाढून	-11487
▁अद्याप	-11488
▁आयएनएस	-11489
▁ईपीएफओ	-11490
▁निकासी	-11491
▁बढ़ाना	-11492
▁यहुवेह	-11493
▁संहिता	-11494
▁क्रिकेट	-11495
▁सव्वाशे	-11496
▁स्थितीत	-11497
▁अब्राहाम	-11498
▁निर्णयों	-11499
ण्यापूर्वी	-11500
▁इस्त्राएल	-11501
खू	-11502
ॉय	-11503
्प	-11504
निय	-11505
सां	-11506
जोशी	-11507
म्बर	-11508
साचे	-11509
▁बला	-11510
टानगर	-11511
ल्‍या	-11512
▁क्रा	-11513
▁ग्या	-11514
▁नग्न	-11515
▁पाडा	-11516
▁सुल्	-11517
▁हानी	-11518
करणाचे	-11519
▁नद्या	-11520
▁नॉर्थ	-11521
▁फॉर्म	-11522
▁बढ़ना	-11523
▁वाढला	-11524
▁अभिव्य	-11525
▁पासवान	-11526
▁महासंघ	-11527
▁वातावर	-11528
▁आदमियों	-11529
▁हाइड्रो	-11530
▁निर्णायक	-11531
▁भागिदारी	-11532
▁स्थानावर	-11533
▁कार्यवाही	-11534
▁चांगुलपणा	-11535
▁मनुष्याला	-11536
▁कार्यालयों	-11537
▁दावीदाच्या	-11538
▁मानवपुत्रा	-11539
▁मिळवण्यासाठी	-11540
▁अध्यक्षतेखालील	-11541
47	-11542
षधी	-11543
▁जड	-11544
एफएफ	-11545
गंबर	-11546
सीआय	-11547
ुक्त	-11548
▁आति	-11549
▁छान	-11550
▁छीन	-11551
▁तिन	-11552
▁फर्	-11553
▁मुळ	-11554
▁रूम	-11555
▁लोट	-11556
केमिक	-11557
विध्य	-11558
▁कोटा	-11559
▁फारच	-11560
कश्मीर	-11561
ूंच्या	-11562
▁आश्रय	-11563
▁चाळीस	-11564
▁ढाँचे	-11565
▁तिसरा	-11566
▁नवजात	-11567
▁पाहणी	-11568
▁बाशान	-11569
▁साइंस	-11570
▁अंदमान	-11571
▁किरकोळ	-11572
▁खुल्या	-11573
▁डिवीजन	-11574
▁डोळ्या	-11575
▁फेसबुक	-11576
▁मूत्रा	-11577
▁रेड्डी	-11578
▁शिफारस	-11579
▁सिखाया	-11580
▁तेंव्हा	-11581
▁लाभकारी	-11582
वण्याच्या	-11583
▁गर्मजोशी	-11584
▁स्वर्गीय	-11585
▁याप्रसंगी	-11586
▁संभावनाओं	-11587
▁लोकांबरोबर	-11588
▁भविष्यासाठी	-11589
▁लोकांपर्यंत	-11590
▁प्रयत्नांमुळे	-11591
ak	-11592
नम	-11593
तिन	-11594
ब्स	-11595
सरण	-11596
▁700	-11597
▁तटर	-11598
▁दमा	-11599
▁मस्	-11600
▁लेब	-11601
▁हाक	-11602
▁हेर	-11603
्वारे	-11604
▁खाती	-11605
▁गणेश	-11606
▁जादू	-11607
▁तुकड	-11608
▁दाँत	-11609
▁पायल	-11610
▁यावी	-11611
▁सेतू	-11612
▁होवू	-11613
▁उपस्थ	-11614
▁दिलों	-11615
▁बायका	-11616
▁वस्ती	-11617
▁विवाह	-11618
त्तियों	-11619
▁अखंडता	-11620
▁एजेंडा	-11621
▁चिल्ला	-11622
▁पंक्ति	-11623
▁पाएंगे	-11624
▁पुरेसा	-11625
▁प्रोफे	-11626
▁बर्बाद	-11627
कांपासून	-11628
▁तटरक्षक	-11629
▁देखेंगे	-11630
▁रक्तदान	-11631
▁विक्रमी	-11632
▁निश्चितच	-11633
▁स्वरुपात	-11634
▁देशामध्ये	-11635
▁खाद्यपदार्थ	-11636
▁त्याच्यासाठी	-11637
▁प्रशिक्षणार्थी	-11638
अम	-11639
▁ॲ	-11640
एचए	-11641
▁96	-11642
▁कैल	-11643
▁कॉम	-11644
▁शंक	-11645
निटाइ	-11646
शुल्क	-11647
▁अभिय	-11648
▁ऐकली	-11649
▁कब्ज	-11650
▁जिवे	-11651
▁द्वि	-11652
▁वल्ह	-11653
ंबद्दल	-11654
▁इनकार	-11655
▁गुन्ह	-11656
▁चार्ट	-11657
▁रेडिओ	-11658
▁वाटून	-11659
▁आराधना	-11660
▁चढ़ाया	-11661
▁जागृती	-11662
▁निराशा	-11663
▁वक्तव्य	-11664
▁अनुमोदित	-11665
▁करदाताओं	-11666
▁विषाणूचा	-11667
▁स्टेडियम	-11668
▁कर्तव्यों	-11669
▁दृष्टान्त	-11670
▁लॉजिस्टिक	-11671
▁वातावरणात	-11672
▁समुद्रकिन	-11673
▁यांसारख्या	-11674
▁संस्थात्मक	-11675
▁लॉकडाऊनच्या	-11676
टू	-11677
ईपी	-11678
मिर	-11679
श्न	-11680
सलत	-11681
▁68	-11682
▁रऊ	-11683
▁सल	-11684
कर्म	-11685
▁आणू	-11686
▁कवच	-11687
▁चेत	-11688
▁छिप	-11689
▁बिग	-11690
▁बुक	-11691
▁भजन	-11692
▁रिफ	-11693
▁वगळ	-11694
▁जैसल	-11695
▁तिमा	-11696
▁लिये	-11697
▁वॉटर	-11698
▁क्रूर	-11699
▁पशुधन	-11700
▁बनवून	-11701
▁बैठका	-11702
▁विलाप	-11703
▁विस्म	-11704
प्राप्त	-11705
▁अंधकार	-11706
▁इन्हें	-11707
▁जोरदार	-11708
▁डीएसटी	-11709
▁मजबूती	-11710
▁महावीर	-11711
▁कंट्रोल	-11712
▁जेंव्हा	-11713
▁बहुतायत	-11714
▁बाजूंनी	-11715
▁यारोबाम	-11716
▁कारीगरों	-11717
▁पुस्तकात	-11718
▁संस्थेचे	-11719
▁आपत्कालीन	-11720
▁आपातकालीन	-11721
▁चित्रपटात	-11722
▁खिलाड़ियों	-11723
▁संवेदनशीलता	-11724
▁ख्रिस्ताच्या	-11725
IP	-11726
बेर	-11727
लीक	-11728
वाढ	-11729
▁CB	-11730
▁डब	-11731
गंगा	-11732
▁उभी	-11733
▁नवर	-11734
▁फुल	-11735
मुळेच	-11736
यांची	-11737
▁आगरा	-11738
▁एड्स	-11739
▁थर्म	-11740
▁दिनी	-11741
▁देशी	-11742
▁बांस	-11743
▁ब्रे	-11744
▁ब्लू	-11745
▁योसे	-11746
▁रोया	-11747
▁लेखक	-11748
▁सुकर	-11749
्वेस्ट	-11750
▁आठवणी	-11751
▁जितके	-11752
▁आत्मान	-11753
▁घरातील	-11754
▁निवारक	-11755
▁तातडीने	-11756
▁वास्तुक	-11757
▁नियुक्ति	-11758
▁प्रोफेसर	-11759
▁कल्याणकारी	-11760
▁टक्क्यांनी	-11761
▁प्रकल्पाचे	-11762
▁असल्याबद्दल	-11763
27	-11764
29	-11765
st	-11766
झी	-11767
फळ	-11768
उत्	-11769
▁नल	-11770
क्टी	-11771
▁टाइ	-11772
▁मसु	-11773
harat	-11774
्यवधी	-11775
▁अल्ट	-11776
▁ईरान	-11777
▁गव्ह	-11778
▁जुना	-11779
▁नमुन	-11780
▁फोटो	-11781
▁बलाम	-11782
▁माते	-11783
जीएसटी	-11784
▁काढला	-11785
▁खेळाड	-11786
▁गोल्फ	-11787
▁टीमों	-11788
▁तृतीय	-11789
▁दायरे	-11790
▁धोरणे	-11791
▁मजबूर	-11792
नेजमेंट	-11793
▁वितरीत	-11794
▁सुचारू	-11795
▁अभिनेता	-11796
▁आवाजाही	-11797
▁उत्तरात	-11798
▁चक्रवात	-11799
▁जवळच्या	-11800
▁वयाच्या	-11801
▁वैविध्य	-11802
▁कोट्यवधी	-11803
▁पहुँचाया	-11804
▁सिफारिशों	-11805
▁भारतीयांना	-11806
▁विशेषज्ञता	-11807
▁यूनिवर्सिटी	-11808
▁संस्थांमध्ये	-11809
38	-11810
MC	-11811
कं	-11812
फेल	-11813
वाज	-11814
समय	-11815
▁76	-11816
▁मश	-11817
▁‘‘	-11818
जीवन	-11819
डीजी	-11820
तीचे	-11821
न्क्	-11822
बीसी	-11823
वरही	-11824
शाचा	-11825
▁कटी	-11826
▁कीम	-11827
▁नकद	-11828
▁नसा	-11829
▁बोर	-11830
▁लेक	-11831
ंगाने	-11832
तर्फे	-11833
प्लिक	-11834
िक्षा	-11835
▁इंडि	-11836
▁एसोस	-11837
▁गुहे	-11838
▁गोरख	-11839
▁डिली	-11840
▁बनता	-11841
▁मजूर	-11842
▁लिला	-11843
▁विनो	-11844
▁गिबोन	-11845
▁ड्रोन	-11846
▁तेवढे	-11847
▁निकला	-11848
▁प्लेग	-11849
▁मारली	-11850
▁वाढवून	-11851
▁व्यापा	-11852
▁शहाणपण	-11853
▁उन्मूलन	-11854
▁उपनगरों	-11855
▁कार्यात	-11856
▁चुनावों	-11857
▁निर्बंध	-11858
▁सदस्यता	-11859
▁समावेशन	-11860
▁आमच्यावर	-11861
▁प्रमुखों	-11862
▁प्रस्थान	-11863
▁आत्म्याने	-11864
▁मिसरमध्ये	-11865
▁पहिल्यांदाच	-11866
▁महाराष्ट्रात	-11867
निस	-11868
लंड	-11869
शांत	-11870
स्थल	-11871
▁घटन	-11872
▁ज़े	-11873
▁पहच	-11874
▁फेफ	-11875
ित्ती	-11876
िलिंग	-11877
▁2012	-11878
▁अनुष	-11879
▁अर्क	-11880
▁क्रे	-11881
▁तारा	-11882
▁पाते	-11883
▁फिलि	-11884
▁वेळो	-11885
▁Covid	-11886
▁चक्कर	-11887
▁जाहिर	-11888
▁तिकडे	-11889
▁परिचय	-11890
▁मागित	-11891
▁विलंब	-11892
▁सामील	-11893
▁सार्थ	-11894
▁अमूल्य	-11895
▁कमांडर	-11896
▁कीमतों	-11897
▁पुनर्र	-11898
▁प्रशंस	-11899
▁गर्भनिर	-11900
▁मंडळाने	-11901
▁वल्हांड	-11902
▁शुरुआती	-11903
▁असामान्य	-11904
▁कांग्रेस	-11905
▁केदारनाथ	-11906
▁क्षेत्रे	-11907
▁तुम्हांस	-11908
▁दीर्घकाळ	-11909
▁दुसरीकडे	-11910
▁भागातल्या	-11911
▁शास्त्रीय	-11912
▁समितीच्या	-11913
▁पुरस्कारों	-11914
▁सामर्थ्यवान	-11915
▁निवृत्तीवेतन	-11916
46	-11917
AC	-11918
eM	-11919
oj	-11920
.03	-11921
लाह	-11922
सुख	-11923
हेम	-11924
िको	-11925
ूला	-11926
▁थड	-11927
आयएस	-11928
एनएल	-11929
▁आवृ	-11930
▁खेड	-11931
▁दमन	-11932
▁बाप	-11933
ंद्रह	-11934
खेरीज	-11935
▁खाणे	-11936
▁गुदा	-11937
▁युनि	-11938
▁शंकर	-11939
▁सोडा	-11940
▁होवो	-11941
कासाठी	-11942
▁खायला	-11943
▁नेमले	-11944
▁बद्दल	-11945
▁सिंधु	-11946
▁सुरवा	-11947
▁दृढ़ता	-11948
▁पॉलिसी	-11949
▁फिक्की	-11950
▁मजदूरों	-11951
▁संग्राम	-11952
▁वस्तूंचा	-11953
▁राज्यसभेत	-11954
▁सर्वांगीण	-11955
▁पुनर्जीवित	-11956
▁शस्त्रक्रिय	-11957
ठ्	-11958
esh	-11959
ंकष	-11960
नाय	-11961
बाह	-11962
▁86	-11963
ंशिक	-11964
चेही	-11965
लमेल	-11966
ार्स	-11967
▁ठरत	-11968
▁तसं	-11969
▁शकू	-11970
▁साई	-11971
भागीय	-11972
सैनिक	-11973
▁ओसाड	-11974
▁चौथी	-11975
▁बनते	-11976
▁शेकड	-11977
▁आच्छा	-11978
▁जिनका	-11979
▁तत्वे	-11980
▁दिसले	-11981
▁धारणा	-11982
लयाच्या	-11983
▁आईआईटी	-11984
▁टुकड़े	-11985
▁तालमेल	-11986
▁शासकीय	-11987
▁सीतारा	-11988
▁स्टैंड	-11989
▁असतानाच	-11990
▁कारागिर	-11991
▁परिणामी	-11992
▁रक्तचाप	-11993
▁सर्वत्र	-11994
▁सुल्तान	-11995
▁कन्वेंशन	-11996
▁बहुआयामी	-11997
▁नौदलाच्या	-11998
▁वैशिष्ट्य	-11999
▁स्वतःच्या	-12000
▁दुष्कृत्ये	-12001
▁सोन्याच्या	-12002
88	-12003
SC	-12004
ंतून	-12005
क्की	-12006
नाशी	-12007
लेशन	-12008
ियोप	-12009
्याथ	-12010
▁जलन	-12011
▁झाक	-12012
▁भोज	-12013
▁मेश	-12014
▁शमा	-12015
ापत्र	-12016
▁असुर	-12017
▁ऊँचे	-12018
▁करों	-12019
▁कॉम्	-12020
▁टाटा	-12021
▁तोळे	-12022
▁दौड़	-12023
▁नबूक	-12024
▁भिंत	-12025
▁सांड	-12026
▁स्तो	-12027
रुपयोग	-12028
▁एक्सच	-12029
▁घूमने	-12030
▁चळवळी	-12031
▁तरलता	-12032
▁पंधरा	-12033
▁पक्षा	-12034
▁फास्ट	-12035
▁बर्फा	-12036
▁सतर्क	-12037
▁सार्क	-12038
स्ट्रॉल	-12039
▁आचार्य	-12040
▁निविदा	-12041
▁पंद्रह	-12042
▁रिजर्व	-12043
▁वास्तु	-12044
▁साहसिक	-12045
▁महाराजा	-12046
▁विद्रोह	-12047
▁स्थैर्य	-12048
▁पुरातत्व	-12049
▁राहण्याची	-12050
▁पूर्वेकडील	-12051
▁यरुशलेममधील	-12052
उप	-12053
ंकी	-12054
कूड	-12055
ोजा	-12056
टाने	-12057
दूरी	-12058
मिशन	-12059
ऱ्हा	-12060
▁छुट	-12061
▁रसो	-12062
▁रिझ	-12063
▁हरा	-12064
.2019	-12065
कारों	-12066
क्यों	-12067
▁आणला	-12068
▁जवळच	-12069
▁नंदा	-12070
▁पडते	-12071
▁वैसा	-12072
▁खोजने	-12073
▁भक्ति	-12074
▁माइया	-12075
▁लिहून	-12076
▁सूत्र	-12077
▁सेवेत	-12078
▁स्नात	-12079
▁दिवाळख	-12080
▁महादेव	-12081
▁रिश्ते	-12082
▁टिप्पणी	-12083
▁टुकड़ों	-12084
▁माणसाचे	-12085
▁सर्वंकष	-12086
▁बेंगलुरु	-12087
▁याद्वारे	-12088
▁सुवार्ता	-12089
ण्याबरोबरच	-12090
▁नेण्यासाठी	-12091
▁मनुष्याच्या	-12092
▁प्रयोगशालाएँ	-12093
▁प्रकल्पांसाठी	-12094
▁लाभार्थ्यांना	-12095
ठन	-12096
घाट	-12097
म्भ	-12098
यरल	-12099
संध	-12100
िपल	-12101
▁03	-12102
अपने	-12103
निधी	-12104
ल्चर	-12105
हानी	-12106
▁जशी	-12107
▁लैब	-12108
▁शार	-12109
मुख्य	-12110
िकल्स	-12111
▁ICMR	-12112
▁इनाम	-12113
▁ऑप्ट	-12114
▁जखमी	-12115
▁नीले	-12116
▁बदले	-12117
▁बरीच	-12118
▁भरने	-12119
▁रकमे	-12120
▁रिंग	-12121
▁स्पा	-12122
मासाठी	-12123
▁उभरती	-12124
▁केलीस	-12125
▁टेकडी	-12126
▁पड़ती	-12127
▁पीडित	-12128
▁मैसूर	-12129
▁सुंता	-12130
▁सोसाय	-12131
द्रीकरण	-12132
▁अमृतसर	-12133
▁एनर्जी	-12134
▁एलएमटी	-12135
▁कुपोषण	-12136
▁दिखाने	-12137
▁परतावा	-12138
▁मंचावर	-12139
▁विमानन	-12140
प्लिकेशन	-12141
▁अंबेडकर	-12142
▁गड़बड़ी	-12143
▁जैसलमेर	-12144
▁परदेशात	-12145
▁पराक्रम	-12146
▁भेटायला	-12147
्यांपासून	-12148
▁तरुणांना	-12149
▁पहुंचाने	-12150
▁प्रश्नों	-12151
▁वेळोवेळी	-12152
▁सर्वांची	-12153
▁हिज्कीया	-12154
▁अनुषंगाने	-12155
▁संकटाच्या	-12156
▁पंतप्रधानांकडून	-12157
37	-12158
उल	-12159
iii	-12160
पेश	-12161
▁to	-12162
▁४०	-12163
आईएस	-12164
वावर	-12165
▁गधे	-12166
▁गरु	-12167
▁डाग	-12168
▁निग	-12169
▁सैर	-12170
कोष्ठ	-12171
विद्य	-12172
्यूटर	-12173
▁अवयव	-12174
▁आतील	-12175
▁खतना	-12176
▁गिबा	-12177
▁तशीच	-12178
▁मर्द	-12179
▁रोडम	-12180
▁उचलून	-12181
▁जैतून	-12182
▁जोखीम	-12183
▁मोकळे	-12184
▁लाकूड	-12185
▁सरपंच	-12186
स्तियों	-12187
▁अन्याय	-12188
▁आतिथ्य	-12189
▁आधारीत	-12190
▁मिळावी	-12191
▁आघाडीवर	-12192
▁डिलीवरी	-12193
▁ब्राजील	-12194
▁संरक्षक	-12195
▁ग्राहकों	-12196
▁द्राक्षम	-12197
▁पाइपलाइन	-12198
▁शास्त्री	-12199
▁निमित्ताने	-12200
▁प्रभावीपणे	-12201
▁मुख्यमंत्र	-12202
▁उम्मीदवारों	-12203
▁लॉजिस्टिक्स	-12204
▁विरुद्धच्या	-12205
▁विद्यार्थ्यांनी	-12206
टीओ	-12207
यूर	-12208
होन	-12209
▁दै	-12210
केयर	-12211
वस्त	-12212
्तार	-12213
▁चुप	-12214
▁भां	-12215
क्ष्य	-12216
▁अतुल	-12217
▁अपघा	-12218
▁एदोम	-12219
▁खंभे	-12220
▁थोडी	-12221
▁नियो	-12222
▁फंसे	-12223
▁मंगल	-12224
▁लाना	-12225
▁वाचव	-12226
▁सूखे	-12227
घाच्या	-12228
▁अंजीर	-12229
▁जागरु	-12230
▁देहरा	-12231
▁ब्रिज	-12232
▁भागों	-12233
▁अनुबंध	-12234
▁खर्चात	-12235
▁गोविंद	-12236
▁मजदूरी	-12237
▁येताना	-12238
▁योसेफा	-12239
▁कौशल्या	-12240
▁दीनदयाल	-12241
▁विद्वान	-12242
पंतप्रधान	-12243
बेकिस्तान	-12244
▁दुर्लक्ष	-12245
▁राजनैतिक	-12246
▁विज्ञाना	-12247
▁त्याविषयी	-12248
▁टक्क्यांवर	-12249
▁सर्वसाधारण	-12250
▁शिष्यवृत्ती	-12251
▁प्राथमिकताओं	-12252
NA	-12253
ँव	-12254
’’	-12255
णूक	-12256
गेशन	-12257
ताचे	-12258
शाची	-12259
▁आदत	-12260
▁नाल	-12261
ंतुकी	-12262
पालिक	-12263
▁एकमत	-12264
▁एनएफ	-12265
▁जरिए	-12266
▁ज्वर	-12267
▁दीपक	-12268
▁यूके	-12269
▁रत्न	-12270
▁लोका	-12271
▁वाटे	-12272
▁शर्क	-12273
▁हेही	-12274
▁अर्धा	-12275
▁आशंका	-12276
▁इस्रो	-12277
▁गिरने	-12278
▁तुरही	-12279
▁पडतील	-12280
▁हाताळ	-12281
ौपचारिक	-12282
▁कपड़ों	-12283
▁गवर्नर	-12284
▁बढ़ाता	-12285
▁भीतीने	-12286
▁हनुमान	-12287
्यांकडून	-12288
▁आमंत्रण	-12289
▁गावातील	-12290
▁रूपांतर	-12291
▁सगळीकडे	-12292
▁सूचकांक	-12293
▁गौरवशाली	-12294
▁चुकीच्या	-12295
▁प्राप्ती	-12296
▁हानिकारक	-12297
▁पुनरुज्जी	-12298
▁निर्जंतुकी	-12299
▁भागांमध्ये	-12300
▁व्यक्तित्व	-12301
आयु	-12302
खूप	-12303
देह	-12304
▁ऑड	-12305
▁ज्व	-12306
▁ठरू	-12307
▁डिफ	-12308
▁बंड	-12309
▁भंग	-12310
▁भोग	-12311
वाहित	-12312
ूर्ती	-12313
्यूटी	-12314
▁छत्र	-12315
▁पहलू	-12316
▁माली	-12317
▁शिमी	-12318
▁हायड	-12319
▁गरिमा	-12320
▁ठहरने	-12321
▁तस्वी	-12322
▁मामला	-12323
▁मुद्र	-12324
▁सुनते	-12325
▁हड्डी	-12326
▁ठेवतात	-12327
▁मार्शल	-12328
▁युरिया	-12329
▁स्टोरे	-12330
▁आफ्रिका	-12331
▁कानाकोप	-12332
▁कारखाने	-12333
▁थाईलैंड	-12334
▁नवोन्मे	-12335
▁विनियमन	-12336
▁पुनर्वास	-12337
▁तुमच्याशी	-12338
▁आपल्यासाठी	-12339
▁क्षेत्राचा	-12340
▁सांगितलेल्या	-12341
▁गुणवत्तापूर्ण	-12342
-4	-12343
BI	-12344
PF	-12345
एई	-12346
▁v	-12347
गमन	-12348
बेद	-12349
ऱ्ह	-12350
षेध	-12351
गाचे	-12352
रेटर	-12353
▁नोए	-12354
▁मका	-12355
▁मेर	-12356
▁वया	-12357
▁सेब	-12358
पणाचा	-12359
▁आयरन	-12360
▁जेएन	-12361
▁जेके	-12362
▁बोले	-12363
▁वितर	-12364
▁श्या	-12365
▁संगण	-12366
▁स्वै	-12367
▁एलिया	-12368
▁खुजली	-12369
▁जागृत	-12370
▁नगरों	-12371
▁प्रसव	-12372
▁रक्षक	-12373
निर्देश	-12374
▁काळ्या	-12375
▁कुठेही	-12376
▁खाल्ले	-12377
▁जुड़ने	-12378
▁बैठकें	-12379
▁सामरिक	-12380
▁अनंतकाळ	-12381
▁चंडीगढ़	-12382
▁संभालने	-12383
▁कंपनियां	-12384
▁लोकांकडे	-12385
▁गोष्टींची	-12386
▁आरोग्यसेवा	-12387
▁काळजीपूर्वक	-12388
▁सुविधांच्या	-12389
55	-12390
GA	-12391
aj	-12392
ma	-12393
श्क	-12394
हाई	-12395
हिक	-12396
ूनी	-12397
▁In	-12398
▁हन	-12399
ट्टर	-12400
ताली	-12401
रीने	-12402
▁इंध	-12403
▁काँ	-12404
▁खाट	-12405
▁खिल	-12406
▁टेल	-12407
▁दंत	-12408
▁धीर	-12409
▁बकर	-12410
▁बनू	-12411
▁मेम	-12412
वैद्य	-12413
▁एवढा	-12414
▁कपूर	-12415
▁गिरी	-12416
▁चकित	-12417
▁दुखी	-12418
▁नज़र	-12419
▁लायक	-12420
▁सवयी	-12421
ठिकाणी	-12422
राइटिस	-12423
▁कितने	-12424
▁कोर्ट	-12425
▁नमुने	-12426
▁बड़ों	-12427
▁शहाणा	-12428
▁शेकडो	-12429
ष्टीकरण	-12430
▁दिसतात	-12431
▁परवाना	-12432
▁2015-16	-12433
▁निर्मात	-12434
▁पसरलेले	-12435
▁मुख्तार	-12436
▁मुलांनी	-12437
▁राहणारे	-12438
▁लक्ष्मी	-12439
▁सगळ्यात	-12440
▁स्टोरेज	-12441
प्रक्रिया	-12442
▁तालाबंदी	-12443
▁पुरस्कृत	-12444
▁येण्याची	-12445
▁अनौपचारिक	-12446
▁त्यामुळेच	-12447
▁इन्स्टिट्यूट	-12448
▁पर्यटकांसाठी	-12449
▁प्रसारमाध्यम	-12450
▁प्लेटफार्मों	-12451
▁सहकार्याच्या	-12452
कॉ	-12453
तले	-12454
बोट	-12455
लाइ	-12456
ोही	-12457
▁78	-12458
▁कथ	-12459
▁बक	-12460
तशीर	-12461
नातन	-12462
व्यय	-12463
▁उखा	-12464
▁पतर	-12465
▁पाण	-12466
▁बहस	-12467
▁मनी	-12468
▁शनि	-12469
▁सील	-12470
स्टेक	-12471
▁अचूक	-12472
▁खाटा	-12473
▁टाळे	-12474
▁परेड	-12475
▁बोतल	-12476
▁यहीं	-12477
▁अस्वी	-12478
▁आंखें	-12479
▁इरादा	-12480
▁कापून	-12481
▁गुलाब	-12482
▁ज्ञात	-12483
▁नित्य	-12484
▁परमेश	-12485
▁प्रीम	-12486
▁मानता	-12487
▁वैष्ण	-12488
▁सम्रा	-12489
▁सुषमा	-12490
▁कुंभमे	-12491
▁गुप्ता	-12492
▁जनजाति	-12493
▁जनतेने	-12494
▁परिधान	-12495
▁लज्जित	-12496
▁वापरले	-12497
▁वाहिनी	-12498
▁विष्णु	-12499
▁साम्रा	-12500
▁ऑक्सिजन	-12501
▁खांद्या	-12502
▁दावीदला	-12503
▁शतकातील	-12504
▁प्राधिकर	-12505
▁योजनांचा	-12506
▁उपस्थितीत	-12507
▁दिवाळखोरी	-12508
▁आव्हानांना	-12509
▁प्रकल्पांना	-12510
33	-12511
▁i	-12512
ईने	-12513
पित	-12514
बिट	-12515
▁धम	-12516
▁नह	-12517
▁रौ	-12518
स्पा	-12519
्युर	-12520
▁2.0	-12521
▁एनी	-12522
▁ढेर	-12523
▁धाम	-12524
▁पंप	-12525
▁बटा	-12526
▁मिर	-12527
सिफिक	-12528
हाबाद	-12529
▁खाणी	-12530
▁डिजी	-12531
▁धरुन	-12532
▁नगरा	-12533
▁बँका	-12534
▁मोटा	-12535
प्रमाण	-12536
▁दार्ज	-12537
▁निशंक	-12538
▁फूलों	-12539
▁भरपाई	-12540
▁भरभरा	-12541
▁मार्क	-12542
▁श्वेत	-12543
ानाच्या	-12544
▁अंडमान	-12545
▁अनुपात	-12546
▁अपराधी	-12547
▁दिलेला	-12548
▁मुक्ती	-12549
▁येणारा	-12550
▁राहिलो	-12551
▁रोडमैप	-12552
▁वरच्या	-12553
▁अम्मोनी	-12554
▁अलिकडेच	-12555
▁प्रशस्त	-12556
▁रूपरेखा	-12557
▁जेणेकरुन	-12558
▁वल्लभभाई	-12559
▁सब्जियों	-12560
▁स्वीकारला	-12561
▁इंटेलिजेंस	-12562
▁गर्भावस्था	-12563
▁प्रत्येकजण	-12564
▁विकासात्मक	-12565
▁हिस्सेदारी	-12566
▁प्रयत्नांचे	-12567
▁व्यक्तीच्या	-12568
▁शस्त्रक्रिया	-12569
‍य	-12570
एचओ	-12571
फिर	-12572
मेज	-12573
मेट	-12574
एसएम	-12575
डीएफ	-12576
धनुष	-12577
िद्र	-12578
▁ऋतु	-12579
▁पाद	-12580
▁मेघ	-12581
विष्ठ	-12582
▁उठून	-12583
▁कपात	-12584
▁दिवे	-12585
▁नियत	-12586
▁बेहत	-12587
▁रोते	-12588
▁लाखा	-12589
कार्बन	-12590
▁इंजिन	-12591
▁कटौती	-12592
▁तारखे	-12593
▁तुकडी	-12594
▁ध्वनि	-12595
▁पंचाय	-12596
▁प्लान	-12597
▁फाइबर	-12598
▁बोलले	-12599
▁युनिट	-12600
▁वापसी	-12601
▁वाहिन	-12602
▁विधेय	-12603
▁समक्ष	-12604
दनेस्सर	-12605
▁खतरनाक	-12606
▁देशाने	-12607
▁धोरणात	-12608
▁पद्धति	-12609
▁पैगंबर	-12610
▁अस्थायी	-12611
▁घराच्या	-12612
▁दायित्व	-12613
▁बढ़ाएगा	-12614
▁राहायला	-12615
▁लक्षणों	-12616
▁इंजेक्शन	-12617
▁टाळेबंदी	-12618
▁तलवारीने	-12619
▁यहोशवाने	-12620
▁लड़कियों	-12621
▁उद्योजकता	-12622
▁यिर्मयाला	-12623
▁सत्याग्रह	-12624
▁स्वयंसेवी	-12625
▁उपभोक्ताओं	-12626
▁कंपन्यांनी	-12627
▁रुग्णाच्या	-12628
▁हिंदुस्तान	-12629
▁स्टार्टअप्स	-12630
▁देशांदरम्यान	-12631
चून	-12632
टोक	-12633
थिक	-12634
▁-2	-12635
▁ईद	-12636
इयाँ	-12637
एसएल	-12638
ळावे	-12639
विधा	-12640
▁घने	-12641
▁बनो	-12642
▁भरत	-12643
डच्या	-12644
▁2010	-12645
▁2024	-12646
▁3000	-12647
▁असंत	-12648
▁आणणे	-12649
▁जगन्	-12650
▁ठरला	-12651
▁दांत	-12652
▁दोहन	-12653
▁वाटर	-12654
▁सख्त	-12655
▁कोच्च	-12656
▁खजाने	-12657
▁पियुष	-12658
▁पुरवठ	-12659
▁फटकार	-12660
▁शमशोन	-12661
▁अंतराल	-12662
▁अब्दुल	-12663
▁इलाकों	-12664
▁उद्यमी	-12665
▁कठिनाई	-12666
▁थायलंड	-12667
▁बांधका	-12668
▁ब्रांड	-12669
▁मानसून	-12670
▁खालच्या	-12671
▁जबरदस्त	-12672
▁पोहोचले	-12673
▁लचीलापन	-12674
▁जल्दबाजी	-12675
▁भूमिपूजन	-12676
▁संस्थाओं	-12677
▁सर्दियों	-12678
▁सीतारामन	-12679
▁खर्चाच्या	-12680
▁बाजारपेठे	-12681
▁समुदायाला	-12682
▁निवडलेल्या	-12683
▁आरोग्यासाठी	-12684
▁केंद्राच्या	-12685
▁कोरोनावायरस	-12686
▁सर्वेक्षणात	-12687
▁किलोमीटरच्या	-12688
▁करण्यासाठीच्या	-12689
67	-12690
DC	-12691
ऊक	-12692
षी	-12693
SIR	-12694
हाट	-12695
हूर	-12696
▁इम	-12697
▁बछ	-12698
▁लू	-12699
तीची	-12700
नामी	-12701
माना	-12702
▁ओवर	-12703
▁फीस	-12704
▁विख	-12705
▁स्‍	-12706
▁ह्र	-12707
निवेश	-12708
बुद्ध	-12709
मित्व	-12710
ित्या	-12711
▁अयोध	-12712
▁आर्थ	-12713
▁टेबल	-12714
▁ठेवत	-12715
▁ताबा	-12716
▁नंगे	-12717
▁यहुद	-12718
▁यावा	-12719
▁रसोई	-12720
▁सवार	-12721
ऱ्याचे	-12722
शबोर्ड	-12723
▁अवलोक	-12724
▁उद्दी	-12725
▁एखादे	-12726
▁जयपूर	-12727
▁ठरतील	-12728
▁पोषित	-12729
▁योद्ध	-12730
▁लंबित	-12731
▁हिरवा	-12732
तेनुसार	-12733
मध्येही	-12734
▁पुनर्ग	-12735
▁बुकिंग	-12736
▁रवांडा	-12737
▁अर्थाने	-12738
▁उत्साही	-12739
▁झाल्यास	-12740
▁मिलेंगे	-12741
▁मुलांचे	-12742
▁सेनापती	-12743
▁गांधीनगर	-12744
▁किफायतशीर	-12745
▁त्याचवेळी	-12746
▁परीक्षणों	-12747
▁चुनौतीपूर्ण	-12748
▁परिस्थितीचा	-12749
णम	-12750
.30	-12751
बिन	-12752
रिश	-12753
्मण	-12754
गुती	-12755
ताचा	-12756
साला	-12757
▁एरो	-12758
▁ओरड	-12759
▁कुं	-12760
▁दुध	-12761
▁वक्	-12762
▁सवय	-12763
स्मिक	-12764
हेरील	-12765
ोडिया	-12766
▁2008	-12767
▁घायल	-12768
▁ठरते	-12769
▁धरून	-12770
▁पौधे	-12771
▁वर्च	-12772
▁हाडे	-12773
रोजगार	-12774
▁अध्यय	-12775
▁ग्लेश	-12776
▁घोड़े	-12777
▁निषेध	-12778
▁मर्दख	-12779
▁लौटने	-12780
▁घोड़ों	-12781
▁दुपारी	-12782
▁नावाची	-12783
▁निकटतम	-12784
▁अर्थात्	-12785
▁असल्यास	-12786
▁आत्माओं	-12787
▁मेजवानी	-12788
▁अनुच्छेद	-12789
▁उर्वरकों	-12790
▁देहरादून	-12791
▁निर्माते	-12792
▁स्वर्गात	-12793
▁होमार्पण	-12794
▁प्रसन्नता	-12795
▁बुजुर्गों	-12796
▁महामारीचा	-12797
▁प्रवाशांना	-12798
ED	-12799
आल	-12800
तेच	-12801
पाठ	-12802
महल	-12803
लिन	-12804
नाथन	-12805
प्रद	-12806
भूति	-12807
शाने	-12808
▁अजय	-12809
▁एलि	-12810
▁ऐकत	-12811
▁तळा	-12812
▁दुब	-12813
▁नमा	-12814
ोरेंस	-12815
▁एसिड	-12816
▁नायक	-12817
▁रखती	-12818
▁रोने	-12819
▁इकोनॉ	-12820
▁कालेब	-12821
▁चलाया	-12822
▁टाकली	-12823
▁पौधों	-12824
▁भेजने	-12825
▁मराठी	-12826
▁राहता	-12827
▁रूबेन	-12828
वासियों	-12829
▁एलाजार	-12830
▁जंगलों	-12831
▁प्रायः	-12832
▁मूल्ये	-12833
▁मेजबान	-12834
▁इतरांना	-12835
▁कारखाना	-12836
▁जगन्नाथ	-12837
▁तीव्रता	-12838
▁देवाकडे	-12839
▁पर्वतीय	-12840
▁इतिहासात	-12841
▁कृतज्ञता	-12842
▁साधारणपणे	-12843
▁स्थितियों	-12844
▁संरचनात्मक	-12845
▁सद्यस्थिती	-12846
▁प्रतिबिंबित	-12847
▁उत्पादनांच्या	-12848
57	-12849
pur	-12850
एगी	-12851
चिन	-12852
जाम	-12853
प्स	-12854
संग	-12855
▁गळ	-12856
एनआर	-12857
गुरु	-12858
णुका	-12859
सीजी	-12860
ॉर्क	-12861
ोरमा	-12862
्डों	-12863
▁कळत	-12864
▁वाई	-12865
▁सता	-12866
क्षणा	-12867
खालील	-12868
ग्रही	-12869
▁इथून	-12870
▁गिना	-12871
▁तलाव	-12872
▁दरों	-12873
▁सदोम	-12874
▁साहि	-12875
▁स्क्	-12876
कॉमर्स	-12877
चिकित्	-12878
ळ्याला	-12879
▁उत्पी	-12880
▁कीमती	-12881
▁नोएडा	-12882
▁प्रोड	-12883
▁बेकार	-12884
▁मसाले	-12885
▁वाढतो	-12886
▁सालों	-12887
कापासून	-12888
▁Bharat	-12889
▁आउटरीच	-12890
▁गतिशील	-12891
▁घरगुती	-12892
▁चर्चास	-12893
▁ज्ञानी	-12894
▁नारंगी	-12895
▁मदतीची	-12896
▁मुक्ति	-12897
▁युद्धा	-12898
▁समारोप	-12899
▁देशातले	-12900
▁पुण्यति	-12901
▁प्रशांत	-12902
▁रामेश्व	-12903
▁विचारात	-12904
▁उत्पत्ति	-12905
▁दस्तावेज	-12906
▁निर्धारण	-12907
▁पूर्वेला	-12908
▁भूमीपूजन	-12909
▁मंदिराची	-12910
▁यहोशापात	-12911
▁यात्रेकर	-12912
▁स्थापत्य	-12913
▁एकमेकांशी	-12914
▁करणाऱ्यां	-12915
▁दुर्भाग्य	-12916
▁परिकल्पना	-12917
▁भावनात्मक	-12918
▁लढण्यासाठी	-12919
ho	-12920
▁l	-12921
.25	-12922
केन	-12923
लीम	-12924
सेन	-12925
साची	-12926
▁किल	-12927
▁कूळ	-12928
▁ठाम	-12929
▁डैन	-12930
▁तीच	-12931
▁त्य	-12932
▁सीए	-12933
ल्यात	-12934
िशियल	-12935
▁घटने	-12936
▁चळवळ	-12937
▁तसाच	-12938
▁तेही	-12939
▁नसतो	-12940
▁पुनः	-12941
भारतीय	-12942
ूपासून	-12943
▁कम्यु	-12944
▁खाड़ी	-12945
▁जंगला	-12946
▁पदभार	-12947
▁प्याय	-12948
▁साजरे	-12949
पणाच्या	-12950
▁जोड़ों	-12951
▁दुहेरी	-12952
▁निर्वा	-12953
▁पब्लिक	-12954
▁पलीकडे	-12955
▁पाठवून	-12956
▁पुरेशी	-12957
▁प्रतिर	-12958
▁प्रेमी	-12959
▁2014-15	-12960
▁अर्ध्या	-12961
▁ठेवायला	-12962
▁प्रेक्ष	-12963
▁ब्राझील	-12964
▁विरूद्ध	-12965
▁कामाच्या	-12966
▁भारताकडे	-12967
▁अडकलेल्या	-12968
▁मंडळाच्या	-12969
▁कन्याकुमारी	-12970
▁कार्यालयाचे	-12971
▁घालण्यासाठी	-12972
▁पेट्रोकेमिक	-12973
▁तुमच्याबरोबर	-12974
36	-12975
नॅ	-12976
-14	-12977
-30	-12978
.04	-12979
दाह	-12980
लेव	-12981
ांट	-12982
▁61	-12983
▁ढल	-12984
▁फौ	-12985
नाती	-12986
बीएम	-12987
भूषण	-12988
रेशन	-12989
लयात	-12990
ारों	-12991
▁अवर	-12992
▁चिप	-12993
▁सिग	-12994
▁सूख	-12995
-2020	-12996
तांचे	-12997
प्रेर	-12998
वर्धक	-12999
सार्ह	-13000
▁2005	-13001
▁आयआय	-13002
▁फुफ्	-13003
▁बराच	-13004
▁बिता	-13005
▁मंडा	-13006
▁रियल	-13007
▁लाइट	-13008
▁संशय	-13009
▁अशक्य	-13010
▁केलास	-13011
▁ट्राइ	-13012
▁डिज़ा	-13013
▁डेव्ह	-13014
▁दूषित	-13015
▁पुरूष	-13016
▁बजावत	-13017
▁बाटली	-13018
▁भवनात	-13019
▁महिना	-13020
▁मेमोर	-13021
▁येथेच	-13022
▁लगाते	-13023
▁आजारात	-13024
▁आर्टिफ	-13025
▁कोच्चि	-13026
▁जनादेश	-13027
▁जवानों	-13028
▁प्रचुर	-13029
▁बाजूने	-13030
▁महानता	-13031
▁लेबनान	-13032
▁वाचवले	-13033
▁सल्लाम	-13034
▁कॉरिडॉर	-13035
▁संसाधने	-13036
▁समाजाला	-13037
▁स्रोतों	-13038
▁कंप्यूटर	-13039
▁गर्विष्ठ	-13040
▁मवेशियों	-13041
▁शरीरातील	-13042
▁सांगितलं	-13043
▁सामुग्री	-13044
▁सूचीबद्ध	-13045
▁पर्वतारोह	-13046
▁मुलांसाठी	-13047
▁व्यासपीठा	-13048
▁हस्तशिल्प	-13049
▁आयुर्वेदिक	-13050
▁उपचारासाठी	-13051
▁पूर्वजांनी	-13052
▁शोधकर्ताओं	-13053
▁विश्वासार्ह	-13054
▁राष्ट्राच्या	-13055
68	-13056
AF	-13057
ut	-13058
आज	-13059
थल	-13060
फू	-13061
ैग	-13062
छता	-13063
डीच	-13064
बाज	-13065
लीज	-13066
ौली	-13067
▁62	-13068
▁१३	-13069
अमेर	-13070
बाचा	-13071
रहित	-13072
शाचे	-13073
स्तव	-13074
ूंकि	-13075
▁पचम	-13076
▁बोग	-13077
▁सौह	-13078
हारिक	-13079
▁अहरो	-13080
▁गुरे	-13081
▁जुनी	-13082
▁डिझा	-13083
▁भवित	-13084
▁यूएस	-13085
▁कारणे	-13086
▁किस्म	-13087
▁चूंकि	-13088
▁जलसाठ	-13089
▁डायरे	-13090
▁भक्ता	-13091
▁भोवती	-13092
▁मनोहर	-13093
▁समतोल	-13094
▁अधिवेश	-13095
▁अवलोकन	-13096
▁छुट्टी	-13097
▁जापानी	-13098
▁जिल्हे	-13099
▁दोस्ती	-13100
▁शासकों	-13101
▁अयोध्या	-13102
▁इश्माएल	-13103
▁कच्च्या	-13104
▁सुरूवात	-13105
▁सैनिटाइ	-13106
▁एयरपोर्ट	-13107
▁ग्लेशियर	-13108
▁दिग्दर्श	-13109
▁साक्षरता	-13110
▁तुमच्यापैकी	-13111
▁दिवसांपूर्वी	-13112
▁परमेश्वरासाठी	-13113
43	-13114
करणा	-13115
टाइम	-13116
ड्डा	-13117
दिया	-13118
ब्बे	-13119
मत्व	-13120
मिरल	-13121
िंटल	-13122
▁एआई	-13123
▁गिन	-13124
▁चीफ	-13125
▁डोर	-13126
▁लम्	-13127
▁वाक	-13128
ojana	-13129
▁गंगो	-13130
▁बयान	-13131
▁ब्लॉ	-13132
▁वर्ध	-13133
▁सखोल	-13134
▁साइट	-13135
▁स्वय	-13136
▁हमला	-13137
▁हॅके	-13138
आपल्या	-13139
ळ्याचे	-13140
वासाठी	-13141
▁अमिता	-13142
▁इनपुट	-13143
▁कर्नल	-13144
▁खिडकी	-13145
▁खोकला	-13146
▁पायलट	-13147
▁पार्व	-13148
▁पुतिन	-13149
▁यूनिट	-13150
▁ग्रामो	-13151
▁प्राची	-13152
▁प्रिंस	-13153
▁मालवाह	-13154
▁सांगता	-13155
्यांमधील	-13156
▁आकस्मिक	-13157
▁छुटकारा	-13158
▁जीवनाचा	-13159
▁डिज़ाइन	-13160
▁भांडवली	-13161
▁राजनयिक	-13162
▁स्तोत्र	-13163
णाऱ्यांना	-13164
▁गेल्यावर	-13165
▁मिसरमधून	-13166
▁समस्यांवर	-13167
▁सीमावर्ती	-13168
▁स्वामित्व	-13169
▁क्षेत्राशी	-13170
▁गुजरातच्या	-13171
▁नागरिकांचे	-13172
▁सुरक्षितता	-13173
▁स्पष्टीकरण	-13174
▁ह्यांमध्ये	-13175
▁प्रकल्पांची	-13176
▁महाराष्ट्रातील	-13177
▁मुख्यमंत्रियों	-13178
BT	-13179
ंसह	-13180
कोश	-13181
ड़स	-13182
णाम	-13183
बूत	-13184
मयी	-13185
रेस	-13186
वां	-13187
ानं	-13188
गारी	-13189
नेने	-13190
▁IIT	-13191
▁आपस	-13192
▁डिप	-13193
▁बिर	-13194
वणारा	-13195
▁अवधी	-13196
▁कापड	-13197
▁खरीफ	-13198
▁गोंध	-13199
▁मुगल	-13200
▁यहोआ	-13201
▁लेती	-13202
▁होतं	-13203
▁अंगूर	-13204
▁अतिथी	-13205
▁आस्था	-13206
▁किराए	-13207
▁टाकला	-13208
▁मनसुख	-13209
▁ह्यात	-13210
प्रशांत	-13211
्राच्या	-13212
▁करूँगा	-13213
▁तिन्ही	-13214
▁दोगुनी	-13215
▁नवनवीन	-13216
▁निष्ठा	-13217
▁पकड़ने	-13218
▁पोलियो	-13219
▁भाज्या	-13220
▁सर्किट	-13221
▁स्कूली	-13222
▁अनुशासन	-13223
▁अपडेट्स	-13224
▁नातेवाई	-13225
▁मूर्खता	-13226
▁सोसायटी	-13227
▁ट्रैकिंग	-13228
▁मूल्यवान	-13229
▁पर्यटनाला	-13230
▁पसरलेल्या	-13231
▁किनारपट्टी	-13232
▁वृत्तचित्र	-13233
▁आर्टिफिशियल	-13234
▁तुझ्याबरोबर	-13235
▁परमेश्वराकडे	-13236
▁पुनर्निर्माण	-13237
42	-13238
तक	-13239
लॉ	-13240
ंबी	-13241
आरओ	-13242
ड्स	-13243
नरी	-13244
प्य	-13245
वेद	-13246
ुशी	-13247
्रु	-13248
▁गै	-13249
मणूक	-13250
ष्‍ट	-13251
ापुर	-13252
▁PRA	-13253
▁आंत	-13254
▁थीम	-13255
▁बघा	-13256
ग्रेड	-13257
तियां	-13258
रूध्द	-13259
वितात	-13260
▁अंगण	-13261
▁अपरि	-13262
▁अवघड	-13263
▁आरबी	-13264
▁कंधे	-13265
▁कतार	-13266
▁खोले	-13267
▁चोटी	-13268
▁जताई	-13269
▁जळजळ	-13270
▁मिसा	-13271
▁सीएम	-13272
▁सीढ़	-13273
▁हेतु	-13274
ासारखा	-13275
▁एहसास	-13276
▁ऑर्डर	-13277
▁खासकर	-13278
▁गोदाम	-13279
▁तालाब	-13280
▁दिसेल	-13281
▁पॅरिस	-13282
▁महाया	-13283
▁यायला	-13284
▁सहानु	-13285
▁सांसद	-13286
.4.2020	-13287
▁जमिनीत	-13288
▁पड़ेगा	-13289
▁पीसीआर	-13290
▁कटीबद्ध	-13291
▁कराराची	-13292
▁निपटारा	-13293
▁निर्धार	-13294
▁न्यायिक	-13295
▁मुलांची	-13296
▁कागदपत्र	-13297
▁प्रतिरोध	-13298
▁समितियों	-13299
▁उपाहारगृह	-13300
▁एखाद्याने	-13301
▁दिवसाच्या	-13302
▁निष्क्रिय	-13303
▁सदस्यांनी	-13304
हक	-13305
सेट	-13306
ूना	-13307
▁NC	-13308
▁चॅ	-13309
▁छळ	-13310
आरडी	-13311
क्रा	-13312
दिवस	-13313
मानी	-13314
स्फी	-13315
▁आपो	-13316
▁खाओ	-13317
▁गाई	-13318
▁चौर	-13319
▁बघत	-13320
▁सभे	-13321
▁आवरण	-13322
▁ट्रॉ	-13323
▁ठोकर	-13324
▁तसंच	-13325
▁नेतन	-13326
▁पाचन	-13327
▁पैलू	-13328
▁रहित	-13329
▁लावा	-13330
▁वीजा	-13331
▁स्टे	-13332
मध्येच	-13333
▁कहावत	-13334
▁जगहों	-13335
▁दाखिल	-13336
▁पहाटे	-13337
▁प्रकर	-13338
▁फेकून	-13339
▁रहबाम	-13340
▁रूपये	-13341
▁शौलने	-13342
▁संचयी	-13343
▁संताप	-13344
▁समझते	-13345
▁समस्त	-13346
▁स्वार	-13347
▁एवढ्या	-13348
▁ग्यारह	-13349
▁नावाचे	-13350
▁निकलता	-13351
▁पापबलि	-13352
▁राजाचे	-13353
▁आकांक्ष	-13354
▁कारोबार	-13355
▁गोव्यात	-13356
▁मलेरिया	-13357
▁मांसपेश	-13358
▁मार्गों	-13359
▁मिश्रित	-13360
▁समन्वित	-13361
▁ह्यांचा	-13362
▁एसोसिएशन	-13363
▁जवाहरलाल	-13364
▁नात्याने	-13365
▁फायदेमंद	-13366
▁मानसिकता	-13367
▁राज्यांत	-13368
▁शक्तिमान	-13369
▁समाधानों	-13370
संदर्भातील	-13371
▁बद्धकोष्ठ	-13372
▁समारंभाला	-13373
▁नबूकदनेस्सर	-13374
▁इस्राएलाच्या	-13375
▁पुरवण्यासाठी	-13376
▁अर्थमंत्र्यांनी	-13377
ंगळ	-13378
तोब	-13379
तोष	-13380
ारो	-13381
▁१७	-13382
टर्स	-13383
मापन	-13384
म्मा	-13385
हिमा	-13386
▁औरत	-13387
▁दमण	-13388
▁सज्	-13389
▁सटी	-13390
▁हजर	-13391
यॉर्क	-13392
स्राव	-13393
्याहू	-13394
▁उग्र	-13395
▁ऐवजी	-13396
▁कचरे	-13397
▁जमात	-13398
▁देशभ	-13399
ंगाबाद	-13400
ण्याने	-13401
▁अटलजी	-13402
▁उखाड़	-13403
▁ऊंचाई	-13404
▁किमती	-13405
▁कुठली	-13406
▁तांदू	-13407
▁वार्ड	-13408
▁विजयी	-13409
▁साहिब	-13410
▁सिंहा	-13411
्यावरील	-13412
▁अन्यथा	-13413
▁अलीकडे	-13414
▁कुल्लू	-13415
▁केन्या	-13416
▁जनगणना	-13417
▁ज्याचे	-13418
▁तैनाती	-13419
▁फ्रेंच	-13420
▁राज्या	-13421
▁लक्षित	-13422
▁सम्राट	-13423
▁सरकारे	-13424
▁कॉरिडोर	-13425
▁दूतावास	-13426
▁ह्यांचे	-13427
▁एक्सचेंज	-13428
▁गंगोत्री	-13429
▁गरिबांना	-13430
▁तत्कालीन	-13431
▁सिद्कीया	-13432
▁स्वचालित	-13433
▁फ्रेमवर्क	-13434
▁दहशतवादाचा	-13435
▁वास्तविकता	-13436
▁स्वर्गातील	-13437
▁राष्ट्रपतींच्या	-13438
ac	-13439
डेड	-13440
बीन	-13441
▁फड	-13442
कुंड	-13443
दिनी	-13444
मंडल	-13445
योजन	-13446
स्से	-13447
▁अदो	-13448
▁जीस	-13449
▁तीर	-13450
▁दाग	-13451
▁नॉन	-13452
▁मने	-13453
▁लिं	-13454
▁हळू	-13455
कर्ते	-13456
वाड़ी	-13457
ासोबत	-13458
्यूशन	-13459
▁चढाई	-13460
▁चौबी	-13461
▁तांब	-13462
▁पतरस	-13463
▁प्रत	-13464
▁बनेल	-13465
▁बागे	-13466
यासाठी	-13467
ऱ्याचा	-13468
्रीकरण	-13469
▁अंगों	-13470
▁आपोआप	-13471
▁खातिर	-13472
▁ट्राय	-13473
▁फ्रंट	-13474
▁लगाना	-13475
▁स्कीम	-13476
क्योंकि	-13477
्यांकडे	-13478
▁अड्डों	-13479
▁खरीदने	-13480
▁ग्वाही	-13481
▁पाठवला	-13482
▁भोवताल	-13483
▁सार्थक	-13484
▁सैन्या	-13485
▁अनुक्रम	-13486
▁आत्मसात	-13487
▁पलिष्टी	-13488
▁महामहीम	-13489
्यांबद्दल	-13490
▁कोशिकाओं	-13491
▁वधस्तंभा	-13492
▁मार्गदर्श	-13493
▁राज्यपाला	-13494
▁सहाय्याने	-13495
▁बुद्धिमत्ता	-13496
▁भविष्यद्वक्ता	-13497
PI	-13498
आस	-13499
काव	-13500
दाट	-13501
नवे	-13502
शाल	-13503
शोथ	-13504
िज़	-13505
पुरी	-13506
बीपी	-13507
शेखर	-13508
▁350	-13509
▁आइस	-13510
▁ओपन	-13511
▁कीं	-13512
▁कोय	-13513
▁जूट	-13514
▁नास	-13515
▁मरे	-13516
▁मास	-13517
▁रेग	-13518
देशीय	-13519
पोस्ट	-13520
ऱ्‍या	-13521
ियमित	-13522
ेमुळे	-13523
▁कांप	-13524
▁केयर	-13525
▁क्षय	-13526
▁गाथा	-13527
▁यरदन	-13528
▁वंदन	-13529
नेच्या	-13530
ोन्मुख	-13531
▁कातडी	-13532
▁कॅनडा	-13533
▁छलांग	-13534
▁तूफान	-13535
▁निदेश	-13536
▁पाडाव	-13537
▁प्रेष	-13538
▁बदलते	-13539
▁विपुल	-13540
▁शापित	-13541
▁अमिताभ	-13542
▁करावेत	-13543
▁गुस्सा	-13544
▁ज्याची	-13545
▁डीबीटी	-13546
▁तासांत	-13547
▁रिझर्व	-13548
▁होम्यो	-13549
▁अब्राहम	-13550
▁नागरिका	-13551
▁प्रसूती	-13552
▁भावनाओं	-13553
▁महायाजक	-13554
▁करणार्या	-13555
▁जाण्याचा	-13556
▁डोकेदुखी	-13557
▁पत्नियों	-13558
▁परिषदेची	-13559
▁प्रवासात	-13560
▁विश्वासू	-13561
▁कुटुंबाला	-13562
▁संसदेच्या	-13563
▁व्यावहारिक	-13564
▁सहकार्याची	-13565
▁करण्याबरोबरच	-13566
▁भविष्यद्वक्ताओं	-13567
-5	-13568
PA	-13569
pp	-13570
घो	-13571
,00	-13572
ंथन	-13573
नाई	-13574
न्ध	-13575
▁02	-13576
▁आं	-13577
ांचल	-13578
▁अती	-13579
▁गवत	-13580
▁नूत	-13581
▁बुध	-13582
▁मिझ	-13583
▁लिप	-13584
▁वेढ	-13585
द्दीन	-13586
यांचा	-13587
वीकडे	-13588
ित्ता	-13589
▁ईमेल	-13590
▁चंगा	-13591
▁ताजा	-13592
▁दलों	-13593
▁भाडे	-13594
▁रांग	-13595
▁रिफा	-13596
▁शंका	-13597
▁आम्हा	-13598
▁उठाना	-13599
▁एनिमा	-13600
▁कट्टर	-13601
▁गड्ढे	-13602
▁घनदाट	-13603
▁निचले	-13604
▁नोकरी	-13605
▁योगाभ	-13606
▁हल्के	-13607
णापासून	-13608
प्लेक्स	-13609
▁20,000	-13610
▁अंतरिम	-13611
▁अनुकरण	-13612
▁असणारी	-13613
▁इकट्ठे	-13614
▁एजन्सी	-13615
▁करवाया	-13616
▁कराधान	-13617
▁तांदूळ	-13618
▁विजेता	-13619
▁आरक्षित	-13620
▁उड़ानें	-13621
▁कारागीर	-13622
▁क्विंटल	-13623
▁ग्रीष्म	-13624
▁ठेवल्या	-13625
▁तेलंगणा	-13626
▁बाबेलचा	-13627
▁यहोयादा	-13628
▁हॅकेथॉन	-13629
विषयीच्या	-13630
▁उद्दीष्ट	-13631
▁जोपर्यंत	-13632
▁प्राप्ति	-13633
▁राजेंद्र	-13634
▁हिताच्या	-13635
्यांपर्यंत	-13636
▁कार्यशाळा	-13637
▁दाखवण्यात	-13638
▁प्रवृत्ति	-13639
▁मूर्तियाँ	-13640
▁स्वैच्छिक	-13641
▁एक्सप्रेसवे	-13642
▁तंत्रज्ञानाची	-13643
▁पंतप्रधानांची	-13644
▁u	-13645
फिस	-13646
बाय	-13647
लेज	-13648
मुझे	-13649
▁अटी	-13650
▁उला	-13651
▁गये	-13652
▁तुट	-13653
▁धरा	-13654
▁सुक	-13655
जामिन	-13656
शुतोष	-13657
स्पॉट	-13658
ृष्टी	-13659
ॉलॉजी	-13660
▁अखेर	-13661
▁अनाथ	-13662
▁कोसळ	-13663
▁चेहर	-13664
▁जमले	-13665
▁जश्न	-13666
▁मोती	-13667
▁रिक्	-13668
▁सोलर	-13669
▁काढली	-13670
▁कृत्य	-13671
▁जोडली	-13672
▁पोहों	-13673
▁भोजना	-13674
▁मारने	-13675
▁रुपात	-13676
▁वर्गी	-13677
▁विज्ञ	-13678
▁विध्व	-13679
▁वृध्द	-13680
यांसाठी	-13681
▁अनुभवी	-13682
▁कामाची	-13683
▁बरोबरच	-13684
▁भरलेले	-13685
▁मनरेगा	-13686
▁ऑप्टिकल	-13687
▁जगासाठी	-13688
▁ट्रान्स	-13689
▁तीर्थया	-13690
▁विभागीय	-13691
▁हृदयविक	-13692
▁कलाकारों	-13693
▁नागालैंड	-13694
▁प्रतिकार	-13695
▁प्रभुत्व	-13696
▁वास्तुकला	-13697
▁संभावनाएं	-13698
▁प्रभावशाली	-13699
▁विश्वासाने	-13700
▁तेव्हापासून	-13701
▁देशवासियांना	-13702
▁व्यक्तींच्या	-13703
41	-13704
२२	-13705
,20	-13706
यकल	-13707
य्य	-13708
वलं	-13709
▁ऊठ	-13710
▁कं	-13711
मनगर	-13712
ष्णा	-13713
▁अॅप	-13714
▁कड़	-13715
▁जिम	-13716
▁तर्	-13717
▁मर्	-13718
.2018	-13719
यांनी	-13720
वाड़ा	-13721
स्तंभ	-13722
ामुळे	-13723
▁अशीच	-13724
▁आरडी	-13725
▁उठकर	-13726
▁कृपे	-13727
▁चैंप	-13728
▁टीके	-13729
▁टॉवर	-13730
▁दलित	-13731
▁फुले	-13732
▁बकरी	-13733
▁लपून	-13734
▁लेखन	-13735
▁अविभा	-13736
▁इंदौर	-13737
▁इतकेच	-13738
▁जाळून	-13739
▁दयाळू	-13740
▁पेरणी	-13741
▁प्रगत	-13742
▁बनाती	-13743
▁शिस्त	-13744
▁शुष्क	-13745
▁सिध्द	-13746
▁सुरंग	-13747
▁स्किल	-13748
ंद्वारे	-13749
▁काळाची	-13750
▁किनारी	-13751
▁गुणवत्	-13752
▁ग्रंथी	-13753
▁पश्चात	-13754
▁दारिद्र	-13755
▁दुष्काळ	-13756
▁देखरेखी	-13757
▁मॉड्यूल	-13758
▁शिखरावर	-13759
▁सुनेंगे	-13760
ल्यापासून	-13761
▁उत्पादित	-13762
▁औरंगाबाद	-13763
▁मेजबानों	-13764
▁सन्मानित	-13765
▁आजाराच्या	-13766
▁देशव्यापी	-13767
▁सदस्यांना	-13768
▁चिकित्सकों	-13769
▁छात्रवृत्ति	-13770
▁समुद्राच्या	-13771
▁तुमच्यामध्ये	-13772
).	-13773
84	-13774
NR	-13775
ity	-13776
ज़न	-13777
त्न	-13778
राक	-13779
लीफ	-13780
सित	-13781
सिम	-13782
िकर	-13783
▁क़	-13784
▁पठ	-13785
एँगे	-13786
डतोब	-13787
साइड	-13788
सीयू	-13789
▁अब्	-13790
▁कळप	-13791
▁चंप	-13792
▁ढँक	-13793
▁दृश	-13794
▁देह	-13795
▁पथक	-13796
▁पेत	-13797
▁बूँ	-13798
▁रेक	-13799
▁वहन	-13800
यच्या	-13801
▁उडान	-13802
▁ऐकतो	-13803
▁कॉर्	-13804
▁खाऊन	-13805
▁दिलच	-13806
▁वचना	-13807
▁संगी	-13808
▁समजत	-13809
▁अजमेर	-13810
▁इलाके	-13811
▁उपकार	-13812
▁ओळखून	-13813
▁घुड़स	-13814
▁चौकशी	-13815
▁जेम्स	-13816
▁पडणार	-13817
▁बहिणी	-13818
▁सुनाई	-13819
न्क्लेव	-13820
▁एकीकडे	-13821
▁कोरोनो	-13822
▁नारियल	-13823
▁पुकारा	-13824
▁पुढारी	-13825
▁फिटनेस	-13826
▁सीपीएस	-13827
▁अग्रवाल	-13828
▁अहवालात	-13829
▁आंकड़ों	-13830
▁नाकारले	-13831
▁पोहोचला	-13832
▁विलक्षण	-13833
▁स्पेक्ट	-13834
▁ट्रेकिंग	-13835
▁पंचायतों	-13836
▁पूर्वानु	-13837
▁कम्युनिटी	-13838
▁विशेषताएं	-13839
▁चित्रपटाचे	-13840
▁जरूरतमंदों	-13841
▁वस्तूंच्या	-13842
▁मंत्रालयाची	-13843
▁कार्यक्रमाचा	-13844
▁यांच्यामध्ये	-13845
▁व्यवस्थापनासाठी	-13846
ंडे	-13847
एसी	-13848
पदा	-13849
लॉक	-13850
िजन	-13851
▁झट	-13852
ंबीर	-13853
जोरी	-13854
ड़की	-13855
थावर	-13856
रिशस	-13857
हाउस	-13858
▁550	-13859
▁ईएस	-13860
▁ओली	-13861
▁कौर	-13862
▁फसह	-13863
▁योह	-13864
रेस्ट	-13865
िंग्स	-13866
ियर्स	-13867
ोपचार	-13868
▁अडीच	-13869
▁अप्स	-13870
▁कमाल	-13871
▁टेकड	-13872
▁तटों	-13873
▁बनली	-13874
▁बाईं	-13875
,&#39;	-13876
▁आढळून	-13877
▁कब्जे	-13878
▁झेंडा	-13879
▁थर्मल	-13880
▁पाडले	-13881
▁प्रदी	-13882
▁मौतें	-13883
▁हरदीप	-13884
ेंद्रिय	-13885
▁अभिन्न	-13886
▁इंदिरा	-13887
▁केव्हा	-13888
▁डिफेंस	-13889
▁फुटबॉल	-13890
▁व्हिसा	-13891
विण्याचा	-13892
▁कुळातील	-13893
▁ज्यांची	-13894
▁ताबडतोब	-13895
▁परीक्षे	-13896
▁पाचव्या	-13897
▁रागावला	-13898
▁सिक्कीम	-13899
▁स्कीइंग	-13900
्यापर्यंत	-13901
▁इन्वेस्ट	-13902
▁शत्रूंना	-13903
▁संबंधिता	-13904
▁निर्दिष्ट	-13905
▁हेल्थकेयर	-13906
▁दार्जिलिंग	-13907
▁उत्पादनांची	-13908
▁ग्रामोद्योग	-13909
▁त्यांच्याकडून	-13910
▁अधिकाऱ्यांच्या	-13911
32	-13912
65	-13913
आम	-13914
nic	-13915
एएस	-13916
तां	-13917
निश	-13918
वळी	-13919
ुआर	-13920
ोजक	-13921
▁Go	-13922
▁ओस	-13923
▁छः	-13924
बॉडी	-13925
मवेत	-13926
ष्ठी	-13927
ोग्य	-13928
▁आरो	-13929
▁कैम	-13930
▁कोन	-13931
▁खार	-13932
▁घडत	-13933
▁धडा	-13934
▁मुह	-13935
▁हेश	-13936
गतीने	-13937
दुर्ग	-13938
पत्रा	-13939
▁अंडर	-13940
▁अनार	-13941
▁असोत	-13942
▁एक्ट	-13943
▁ओमान	-13944
▁ड्रा	-13945
▁नजदी	-13946
▁बंगळ	-13947
▁बैंड	-13948
▁भाले	-13949
▁मनोज	-13950
▁मानो	-13951
▁मोटे	-13952
▁वक्फ	-13953
▁वचने	-13954
ल्शियम	-13955
ासारखे	-13956
▁औषधीय	-13957
▁घातली	-13958
▁दुपार	-13959
▁दोहरे	-13960
▁बर्फ़	-13961
▁बुलेट	-13962
▁यरीहो	-13963
▁राखून	-13964
▁हटाने	-13965
▁अरविंद	-13966
▁उकसाया	-13967
▁ठेवावा	-13968
▁तत्वों	-13969
▁निवडून	-13970
▁पुरावा	-13971
▁प्रतीत	-13972
▁यहोराम	-13973
▁वाढवली	-13974
▁हालिया	-13975
▁समावेशक	-13976
▁अस्वीकार	-13977
▁कॉरपोरेट	-13978
▁मोबिलिटी	-13979
▁वर्गीकरण	-13980
▁एखाद्याला	-13981
▁केंद्राचे	-13982
▁मिळणाऱ्या	-13983
▁शिष्टमंडळ	-13984
▁सल्लामसलत	-13985
▁नागरिकांनी	-13986
▁पर्वताच्या	-13987
▁पूर्वीच्या	-13988
▁स्वयंपूर्ण	-13989
▁प्रयत्नांचा	-13990
▁प्रादुर्भाव	-13991
▁संरक्षणासाठी	-13992
ht	-13993
अस	-13994
जिए	-13995
बाध	-13996
िएत	-13997
▁गद	-13998
▁२४	-13999
करता	-14000
चीही	-14001
जैसे	-14002
दराज	-14003
यांश	-14004
हाला	-14005
▁III	-14006
▁इंफ	-14007
▁कसर	-14008
▁खुर	-14009
▁चेन	-14010
▁नीम	-14011
▁बैच	-14012
▁मेद	-14013
▁मोल	-14014
▁रक्	-14015
▁शूट	-14016
नादाब	-14017
ानाला	-14018
▁असीम	-14019
▁काटे	-14020
▁तेरह	-14021
▁दादा	-14022
▁दावे	-14023
▁बनना	-14024
▁बेहो	-14025
▁माला	-14026
▁मिनी	-14027
▁रथों	-14028
▁राशन	-14029
पद्धती	-14030
्यांसह	-14031
▁काहीं	-14032
▁जोड़े	-14033
▁दिसला	-14034
▁धबधबा	-14035
▁पांडे	-14036
▁बदलून	-14037
▁बैठने	-14038
▁राखणे	-14039
▁विकृत	-14040
▁शहाणे	-14041
▁संदेह	-14042
▁अद्यतन	-14043
▁जागेवर	-14044
▁निभाने	-14045
▁फलदायी	-14046
▁बढ़ाते	-14047
▁बनलेले	-14048
▁मॉरिशस	-14049
▁योनातन	-14050
▁संयोजन	-14051
▁अनुयायी	-14052
▁किफायती	-14053
▁खोऱ्यात	-14054
▁चिड़िया	-14055
▁पश्चिमे	-14056
▁वर्धापन	-14057
▁संस्कृत	-14058
▁सबलीकरण	-14059
▁सर्वांत	-14060
▁सौहार्द	-14061
▁कंबोडिया	-14062
▁कायद्यात	-14063
▁माध्यमिक	-14064
▁म्यूजियम	-14065
▁असुरक्षित	-14066
▁क्रमवारीत	-14067
▁माझ्याजवळ	-14068
▁सैनिकांना	-14069
▁ग्राहकांना	-14070
▁बाजारपेठेत	-14071
▁सरोवराच्या	-14072
▁प्रवेशद्वार	-14073
▁समुदायाच्या	-14074
78	-14075
्द	-14076
”.	-14077
एआय	-14078
टरी	-14079
पोल	-14080
विद	-14081
शाप	-14082
▁04	-14083
▁4.	-14084
▁एर	-14085
धिका	-14086
पिंड	-14087
लोरी	-14088
▁गुज	-14089
▁चलो	-14090
▁टिड	-14091
▁तुड	-14092
▁पीस	-14093
▁राठ	-14094
र्लंड	-14095
ांतिक	-14096
▁असती	-14097
▁केबल	-14098
▁गायक	-14099
▁चौदह	-14100
▁जीता	-14101
▁धावत	-14102
▁धावा	-14103
▁नारी	-14104
▁ब्री	-14105
▁भुके	-14106
▁म्हट	-14107
▁वरुन	-14108
संस्था	-14109
▁उलाढा	-14110
▁एग्री	-14111
▁किसने	-14112
▁ठेवता	-14113
▁नमूने	-14114
▁पट्टी	-14115
▁मरारी	-14116
▁लघुपट	-14117
▁स्टार	-14118
▁होतास	-14119
नापासून	-14120
▁अंमलात	-14121
▁अप्रति	-14122
▁अयोग्य	-14123
▁आपदाओं	-14124
▁नसबंदी	-14125
▁नीलामी	-14126
▁प्रताप	-14127
▁फुफ्फु	-14128
▁ब्रॉडब	-14129
▁मांडले	-14130
▁सेवाएँ	-14131
▁अनियमित	-14132
▁अश्विनी	-14133
▁बोलावून	-14134
▁सांत्वन	-14135
▁स्त्रोत	-14136
▁पक्षांनी	-14137
▁माहितीचे	-14138
▁सॅनिटायझ	-14139
▁आघाडीच्या	-14140
▁त्यापासून	-14141
▁यांच्यावर	-14142
▁सरकारांनी	-14143
▁सॉफ्टवेयर	-14144
▁प्रस्तावों	-14145
▁स्वर्गदूतों	-14146
ओपी	-14147
नाइ	-14148
ैंक	-14149
ोला	-14150
▁My	-14151
▁वो	-14152
काही	-14153
मलेख	-14154
र्थी	-14155
सावा	-14156
ूंची	-14157
▁ओझे	-14158
▁गरो	-14159
▁तरच	-14160
▁नाच	-14161
▁साग	-14162
भावना	-14163
वलिंग	-14164
▁2009	-14165
▁अनिल	-14166
▁ओबेद	-14167
▁कटाई	-14168
▁कारभ	-14169
▁गप्प	-14170
▁गावी	-14171
▁ध्वज	-14172
▁पाईप	-14173
▁पैकी	-14174
▁फैली	-14175
▁बताओ	-14176
▁बाँध	-14177
▁लीटर	-14178
▁वयात	-14179
▁वाटू	-14180
▁शकलो	-14181
ंकरिंग	-14182
▁अपलोड	-14183
▁तिथेच	-14184
▁फैक्ट	-14185
▁बाजूस	-14186
▁मारता	-14187
▁वाचवू	-14188
▁साधून	-14189
▁हार्ट	-14190
▁अस्थिर	-14191
▁तंबाखू	-14192
▁दिवसभर	-14193
▁देवावर	-14194
▁पर्यवे	-14195
▁पहुँचे	-14196
▁प्याला	-14197
▁लाभांश	-14198
▁साधनों	-14199
▁सोन्या	-14200
▁खबरदारी	-14201
▁गंभीरता	-14202
▁छुड़ाया	-14203
▁म्हणावे	-14204
▁लक्ष्मण	-14205
▁ह्यांची	-14206
▁नामांकित	-14207
▁प्रख्यात	-14208
▁मंगोलिया	-14209
▁मंडाविया	-14210
▁हस्ताक्ष	-14211
▁जीवनाच्या	-14212
▁वचनबद्धता	-14213
▁संबंधांना	-14214
▁सुविधांची	-14215
▁क्षेत्राचे	-14216
▁गुंतवणुकीला	-14217
▁भारतीयांच्या	-14218
टित	-14219
यदि	-14220
िएट	-14221
▁71	-14222
▁२१	-14223
CCEA	-14224
पट्ट	-14225
सेवे	-14226
स्रो	-14227
▁अटक	-14228
▁किम	-14229
मेलेक	-14230
सीएआर	-14231
▁अँटी	-14232
▁अहमद	-14233
▁आर्म	-14234
▁ऑडिट	-14235
▁खावे	-14236
▁झंडी	-14237
▁ट्रक	-14238
▁तिकी	-14239
▁बेंच	-14240
▁वर्क	-14241
▁वाढू	-14242
▁शकला	-14243
▁शेखर	-14244
▁समीप	-14245
▁होईन	-14246
नात्मक	-14247
वामुळे	-14248
▁उठाते	-14249
▁गरोदर	-14250
▁जहाजा	-14251
▁जोडून	-14252
▁तिथून	-14253
▁नमूना	-14254
▁पर्दे	-14255
▁पॉइंट	-14256
▁भट्टी	-14257
▁रुंदी	-14258
▁रूपों	-14259
व्यवसाय	-14260
▁अतिचार	-14261
▁अहिंसा	-14262
▁इंडियस	-14263
▁कमजोरी	-14264
▁कुणीही	-14265
▁तपस्या	-14266
▁युध्दा	-14267
▁सत्रात	-14268
प्रमाणात	-14269
▁आणण्यात	-14270
▁उड़ानों	-14271
▁कामकाजा	-14272
▁दर्जाचे	-14273
▁द्वीपों	-14274
▁बदलत्या	-14275
▁विपत्ति	-14276
ण्यामध्ये	-14277
▁नियमावली	-14278
▁पुनर्गठन	-14279
▁पुनर्वसन	-14280
▁बनवण्यात	-14281
▁कटिबद्धता	-14282
▁न्यूयॉर्क	-14283
▁कशाप्रकारे	-14284
▁गर्भनिरोधक	-14285
▁निर्मितीला	-14286
▁निवासस्थान	-14287
▁परिणामकारक	-14288
▁प्रवासियों	-14289
▁वर्षांसाठी	-14290
▁स्पेक्ट्रम	-14291
▁आरोग्यविषयक	-14292
▁निर्णयामुळे	-14293
▁सुरक्षेसाठी	-14294
▁प्रकल्पामुळे	-14295
▁प्रवेशद्वारा	-14296
▁अर्थव्यवस्थेत	-14297
▁गुंतवणुकीच्या	-14298
▁दृष्टीकोनातून	-14299
-0	-14300
99	-14301
TC	-14302
गाळ	-14303
दाई	-14304
बेस	-14305
वेज	-14306
शार	-14307
ातच	-14308
▁ढी	-14309
न्शन	-14310
ेक्स	-14311
▁एग्	-14312
▁कपड	-14313
▁कस्	-14314
▁केश	-14315
▁खजु	-14316
▁चित	-14317
▁तंद	-14318
▁यकृ	-14319
▁विघ	-14320
वायचा	-14321
ासमोर	-14322
▁अकरा	-14323
▁अष्ट	-14324
▁उदया	-14325
▁काळे	-14326
▁कोमल	-14327
▁खरीप	-14328
▁घड़ी	-14329
▁चैतन	-14330
▁चौकी	-14331
▁पातळ	-14332
▁मंदी	-14333
सिस्टम	-14334
▁India	-14335
▁अबनेर	-14336
▁अर्थस	-14337
▁एक्शन	-14338
▁किस्त	-14339
▁चेतना	-14340
▁दादरा	-14341
▁बंधूं	-14342
▁मनाली	-14343
▁लगाकर	-14344
▁वाद्य	-14345
▁सुनता	-14346
▁हल्का	-14347
विरूध्द	-14348
▁अंत्यो	-14349
▁असमर्थ	-14350
▁आदित्य	-14351
▁आयोजना	-14352
▁कॉमर्स	-14353
▁खाएंगे	-14354
▁गिलगाल	-14355
▁गोल्डन	-14356
▁गोळ्या	-14357
▁चमकदार	-14358
▁रामायण	-14359
▁मुकाबले	-14360
▁शरीरावर	-14361
▁संग्रहण	-14362
▁स्वाधीन	-14363
▁अगरबत्ती	-14364
▁जलदगतीने	-14365
▁देवाकडून	-14366
▁द्राक्षे	-14367
▁प्रक्षेप	-14368
▁युरोपियन	-14369
▁योजनांची	-14370
▁वेळापत्र	-14371
▁ह्यासाठी	-14372
▁गुन्हेगार	-14373
▁नेतन्याहू	-14374
▁स्पोर्ट्स	-14375
▁अल्पसंख्या	-14376
▁उपस्थितांना	-14377
▁गुजरातमध्ये	-14378
▁शोधण्यासाठी	-14379
▁केंद्रस्थानी	-14380
▁संकेतस्थळावर	-14381
34	-14382
ik	-14383
ech	-14384
कोर	-14385
राह	-14386
ोली	-14387
▁08	-14388
▁थि	-14389
पाचे	-14390
वेली	-14391
▁GeM	-14392
▁LMT	-14393
▁उरी	-14394
▁कुर	-14395
▁गोद	-14396
▁बचे	-14397
▁व्र	-14398
▁शॉप	-14399
नमेंट	-14400
भिमुख	-14401
यांचे	-14402
▁1200	-14403
▁केवी	-14404
▁खाल्	-14405
▁गुहा	-14406
▁गोली	-14407
▁तारे	-14408
▁दाने	-14409
▁प्रव	-14410
▁फिली	-14411
▁मनमो	-14412
▁महार	-14413
▁लष्क	-14414
▁वागा	-14415
▁वाळू	-14416
▁शिंप	-14417
▁हलके	-14418
▁आखिरी	-14419
▁कब्जा	-14420
▁किसके	-14421
▁प्याज	-14422
▁सुलभी	-14423
▁सेलाह	-14424
▁स्टोन	-14425
विद्युत	-14426
▁अर्जुन	-14427
▁आनंदित	-14428
▁दिलाता	-14429
▁न्यायम	-14430
▁पिछड़े	-14431
▁रविवार	-14432
▁रोगिणी	-14433
्यांमुळे	-14434
▁निर्बाध	-14435
▁बातम्या	-14436
▁सीरियाई	-14437
▁हितधारक	-14438
▁फायदेशीर	-14439
▁याजकांनी	-14440
▁सेवेच्या	-14441
▁आल्यानंतर	-14442
▁कुटुंबिया	-14443
▁निर्देशों	-14444
▁बाहेरच्या	-14445
▁मूल्यमापन	-14446
▁शिष्यांना	-14447
▁असल्याचेही	-14448
▁डब्ल्यूटीओ	-14449
▁मार्गक्रमण	-14450
▁विशाखापट्ट	-14451
▁संसर्गजन्य	-14452
▁कोरोनोवायरस	-14453
▁यांच्याबरोबर	-14454
av	-14455
ul	-14456
ंजर	-14457
ऊंड	-14458
खोर	-14459
पत्	-14460
▁आळ	-14461
▁ख़	-14462
ंदना	-14463
न्दर	-14464
पंचा	-14465
पाटी	-14466
बाने	-14467
विजन	-14468
▁115	-14469
▁अमे	-14470
▁जीप	-14471
▁मून	-14472
▁रजि	-14473
▁रेत	-14474
एनएएम	-14475
पणाचे	-14476
पुष्ट	-14477
भगवान	-14478
▁इंजन	-14479
▁ऐकला	-14480
▁गादी	-14481
▁ताजी	-14482
▁नाइट	-14483
▁बसले	-14484
▁मसाज	-14485
▁लबान	-14486
▁हमसे	-14487
परिणाम	-14488
ळासाठी	-14489
्याकडे	-14490
▁ग्वाल	-14491
▁घडणार	-14492
▁जन्मा	-14493
▁जितने	-14494
▁नामित	-14495
▁फोर्ट	-14496
▁बर्या	-14497
▁शुक्र	-14498
▁संमेल	-14499
▁आक्रमण	-14500
▁आशुतोष	-14501
▁करारात	-14502
▁तस्वीर	-14503
▁ताज्या	-14504
▁द्रव्य	-14505
▁न्यायी	-14506
▁बढ़ेगी	-14507
▁रिफाइन	-14508
▁लसीकरण	-14509
▁सायन्स	-14510
▁इंडेक्स	-14511
▁औषधांचा	-14512
▁पडताळणी	-14513
▁बनाएंगे	-14514
▁भावनेने	-14515
▁समर्थित	-14516
▁कहानियों	-14517
▁देवेंद्र	-14518
▁नगराच्या	-14519
▁परिषदेने	-14520
▁रंगाच्या	-14521
▁वंशजांना	-14522
▁वस्तूंची	-14523
▁तुझ्यासाठी	-14524
▁आंध्रप्रदेश	-14525
▁टाळण्यासाठी	-14526
▁प्रेरणादायी	-14527
▁इस्त्राएलियों	-14528
▁दौऱ्यादरम्यान	-14529
.50	-14530
केम	-14531
नीस	-14532
फाल	-14533
यें	-14534
सीन	-14535
▁82	-14536
एनसी	-14537
एमएफ	-14538
कुवत	-14539
डीटी	-14540
रानी	-14541
लेखा	-14542
ौषधी	-14543
्रेल	-14544
▁अहज	-14545
▁आतड	-14546
▁चाब	-14547
▁छोट	-14548
▁जले	-14549
▁नोब	-14550
▁पोर	-14551
▁भेड	-14552
▁रॉक	-14553
▁लोभ	-14554
कल्या	-14555
योजना	-14556
▁क्यू	-14557
▁गाणे	-14558
▁जाईन	-14559
▁ताजे	-14560
▁तृती	-14561
▁निगल	-14562
▁मनोव	-14563
▁रोना	-14564
▁लखनौ	-14565
वासमोर	-14566
▁अरामी	-14567
▁इच्छि	-14568
▁केसेस	-14569
▁परतले	-14570
▁बांधा	-14571
▁बोलाव	-14572
▁मानवा	-14573
▁यमुना	-14574
लांच्या	-14575
▁कमकुवत	-14576
▁दिशेला	-14577
▁निकाली	-14578
▁नौकरों	-14579
▁परिचार	-14580
▁पुरेशा	-14581
▁रखूंगा	-14582
▁रहूंगा	-14583
▁आवृत्ती	-14584
▁उपन्यास	-14585
▁गव्हर्न	-14586
▁बेहतरीन	-14587
▁युद्धात	-14588
▁राजांचा	-14589
▁स्वतःचे	-14590
ण्याविषयी	-14591
▁आकाशवाणी	-14592
▁तुझ्याशी	-14593
▁दूरदर्शी	-14594
▁अधिकारिता	-14595
▁दूरदृष्टी	-14596
▁निर्मितीत	-14597
▁रणनीतियों	-14598
▁लावल्याने	-14599
▁सार्वत्रिक	-14600
▁स्वर्गातून	-14601
▁दिल्याबद्दल	-14602
▁हस्ताक्षरित	-14603
AD	-14604
PP	-14605
तच	-14606
शक	-14607
.07	-14608
खात	-14609
खाल	-14610
बास	-14611
शंस	-14612
ाति	-14613
▁(3	-14614
तिया	-14615
तीचा	-14616
बेटी	-14617
ब्री	-14618
मीरी	-14619
लेटर	-14620
▁इशा	-14621
▁ऑर्	-14622
▁कसम	-14623
▁छुआ	-14624
▁डूब	-14625
▁बुड	-14626
नॅशनल	-14627
संपदा	-14628
िनेंट	-14629
ोत्सव	-14630
▁अन्त	-14631
▁एंटर	-14632
▁ऑफिस	-14633
▁गरजू	-14634
▁गवता	-14635
▁जनधन	-14636
▁जावा	-14637
▁जिगर	-14638
▁द्रव	-14639
▁पीला	-14640
▁पोशा	-14641
▁फाइन	-14642
▁बदलत	-14643
▁बर्ण	-14644
▁मादक	-14645
▁लड़ा	-14646
▁लैंड	-14647
ध्येला	-14648
िएतनाम	-14649
▁खतरों	-14650
▁जवळून	-14651
▁तुच्छ	-14652
▁फील्ड	-14653
▁फीसदी	-14654
▁बगीचे	-14655
▁बैठकर	-14656
▁मीनार	-14657
▁मोटार	-14658
▁विधाय	-14659
▁सफारी	-14660
▁Yojana	-14661
▁घेताना	-14662
▁चर्चेत	-14663
▁चैनलों	-14664
▁जानमाल	-14665
▁दाखवली	-14666
▁देखेगा	-14667
▁बनाएगा	-14668
▁मेंढरे	-14669
▁रेटिंग	-14670
▁शाखाओं	-14671
▁देशांची	-14672
▁नगरातील	-14673
▁बनाऊंगा	-14674
▁हस्तकला	-14675
▁डॉक्टर्स	-14676
▁धर्मशाला	-14677
▁धोकादायक	-14678
▁पाहिल्या	-14679
▁बिमस्टेक	-14680
▁रिपब्लिक	-14681
▁सांगितला	-14682
▁सूर्योदय	-14683
▁चर्चासत्र	-14684
▁पातळीवरील	-14685
▁अश्शूरच्या	-14686
▁येण्यासाठी	-14687
▁अभ्यासक्रमा	-14688
▁डेव्हलपमेंट	-14689
▁महामारीमुळे	-14690
▁परिवर्तनकारी	-14691
▁व्यवस्थापकीय	-14692
SE	-14693
ig	-14694
इए	-14695
ईं	-14696
गेट	-14697
भोग	-14698
स्ड	-14699
▁05	-14700
▁81	-14701
▁NH	-14702
▁एप	-14703
न्ने	-14704
ाराम	-14705
ॉल्व	-14706
▁नती	-14707
▁बसे	-14708
▁समृ	-14709
इजेशन	-14710
न्सिल	-14711
पादित	-14712
ुआरों	-14713
▁कारक	-14714
▁ग्रं	-14715
▁पहने	-14716
▁स्वर	-14717
डीच्या	-14718
ध्यापक	-14719
▁असमान	-14720
▁घुटने	-14721
▁चालून	-14722
▁टाकीन	-14723
▁बताएं	-14724
▁बनावट	-14725
▁यादीत	-14726
▁वाढती	-14727
▁संगमर	-14728
▁सज्जन	-14729
▁हथिया	-14730
निर्मित	-14731
▁आकाशात	-14732
▁टाकावे	-14733
▁भागाला	-14734
▁वृक्षा	-14735
▁हेतूने	-14736
▁हेशबोन	-14737
▁कितीतरी	-14738
▁चंद्रमा	-14739
▁देशबांध	-14740
▁प्रशासक	-14741
▁मछुआरों	-14742
▁रहिवासी	-14743
▁वर्षाचा	-14744
▁विरुध्द	-14745
▁समकालीन	-14746
▁अनुकरणीय	-14747
▁अविभाज्य	-14748
▁एनटीपीसी	-14749
▁टिंकरिंग	-14750
▁दर्शविली	-14751
▁पासपोर्ट	-14752
▁प्रदीर्घ	-14753
▁बेंजामिन	-14754
▁मनुष्यों	-14755
▁योद्धाओं	-14756
▁पुरवण्यात	-14757
▁मध्यवर्ती	-14758
▁अभिव्यक्ति	-14759
▁कार्यात्मक	-14760
▁अल्पसंख्याक	-14761
▁पूर्वानुमान	-14762
▁मंत्रिस्तरीय	-14763
▁राष्ट्रव्यापी	-14764
.)	-14765
EP	-14766
ुस	-14767
ॅग	-14768
लोत	-14769
▁88	-14770
▁97	-14771
▁गत	-14772
ters	-14773
आईआई	-14774
भूती	-14775
रुग्	-14776
लीचे	-14777
शाळा	-14778
▁110	-14779
▁पैश	-14780
▁सिड	-14781
▁सौं	-14782
मिश्क	-14783
यतनाम	-14784
ुत्तर	-14785
▁अज्ञ	-14786
▁आंगन	-14787
▁गुणा	-14788
▁जलसं	-14789
▁जूते	-14790
▁डाली	-14791
▁तथाप	-14792
▁तरूण	-14793
▁दगडा	-14794
▁नाना	-14795
▁पायर	-14796
▁रोका	-14797
▁लोकं	-14798
▁शेता	-14799
▁शोषण	-14800
▁सराव	-14801
▁हिरा	-14802
ड़ियाँ	-14803
▁इस्सा	-14804
▁करूया	-14805
▁कारणी	-14806
▁जीर्ण	-14807
▁डालने	-14808
▁दिलेस	-14809
▁नाराज	-14810
▁पाहणे	-14811
▁प्रमो	-14812
▁मस्जि	-14813
▁मोक्ष	-14814
▁लाभले	-14815
▁विनोद	-14816
▁संतान	-14817
▁समवेत	-14818
▁सेनान	-14819
ग्रामीण	-14820
▁उदघाटन	-14821
▁ऑपरेटर	-14822
▁प्रेरक	-14823
▁बरोबरी	-14824
▁शर्करा	-14825
▁सामाईक	-14826
▁आनंदाची	-14827
▁इंग्रजी	-14828
▁कलात्मक	-14829
▁तात्काळ	-14830
▁न्यायनि	-14831
▁पाहिजेस	-14832
▁शरीराचे	-14833
▁शिवलिंग	-14834
▁सहाव्या	-14835
▁स्मरणात	-14836
▁आपल्यावर	-14837
▁तिच्यावर	-14838
▁फिलिस्ती	-14839
▁बोलाविले	-14840
▁मेमोरियल	-14841
▁रेल्वेगा	-14842
▁वास्तव्य	-14843
▁सुसज्जित	-14844
▁आसपासच्या	-14845
▁मैनेजमेंट	-14846
▁रक्तस्राव	-14847
▁रेगिस्तान	-14848
▁सेनानियों	-14849
▁सैलानियों	-14850
▁स्त्रियों	-14851
▁गतिविधियाँ	-14852
▁प्रदेशच्या	-14853
▁अर्थशास्त्र	-14854
▁आव्हानात्मक	-14855
▁करणाऱ्यांना	-14856
▁यांच्याकडून	-14857
▁आत्मनिर्भरता	-14858
▁पर्यटकांच्या	-14859
▁रुपयांपेक्षा	-14860
RC	-14861
os	-14862
▁a	-14863
जेर	-14864
ढाओ	-14865
लाश	-14866
▁98	-14867
▁कद	-14868
▁गह	-14869
प्ला	-14870
ल्लम	-14871
व्हर	-14872
सावे	-14873
हाची	-14874
ांडू	-14875
िन्स	-14876
▁एलो	-14877
▁नशी	-14878
▁नशे	-14879
▁बगल	-14880
▁बनत	-14881
▁भूष	-14882
वणारी	-14883
वालों	-14884
▁आणतो	-14885
▁एनबी	-14886
▁कलंक	-14887
▁कळते	-14888
▁गाइड	-14889
▁गीता	-14890
▁पेपर	-14891
▁पौंड	-14892
▁ब्लड	-14893
▁लावू	-14894
▁वागत	-14895
▁साला	-14896
▁हुकू	-14897
कल्पना	-14898
ेतल्या	-14899
▁किरेन	-14900
▁क्रूज	-14901
▁ग्रीक	-14902
▁तकलीफ	-14903
▁राजेश	-14904
▁हिंसक	-14905
कामध्ये	-14906
▁अंधेरा	-14907
▁खेळाडू	-14908
▁ड्रग्स	-14909
▁दूरस्थ	-14910
▁बजावली	-14911
▁बनविले	-14912
▁रक्तात	-14913
▁लबानोन	-14914
▁विकृति	-14915
▁एलिय्याह	-14916
▁घेणाऱ्या	-14917
▁बनलेल्या	-14918
▁येणार्या	-14919
▁राज्याचे	-14920
▁उद्योगाला	-14921
▁एप्लिकेशन	-14922
▁कार्यालये	-14923
▁काळामध्ये	-14924
▁कॉन्क्लेव	-14925
▁चंद्रशेखर	-14926
▁प्रेमियों	-14927
▁सामान्यपणे	-14928
▁उद्यानाच्या	-14929
▁कार्यप्रणाली	-14930
48	-14931
66	-14932
98	-14933
FW	-14934
मट	-14935
ुम	-14936
ईंग	-14937
कमी	-14938
ज़ी	-14939
तीस	-14940
पदी	-14941
वुड	-14942
सरु	-14943
ियत	-14944
▁ओम	-14945
2019	-14946
ग्ने	-14947
पाती	-14948
पॅथी	-14949
र्वे	-14950
विते	-14951
सादा	-14952
ोमोट	-14953
▁किड	-14954
▁चाम	-14955
▁जगू	-14956
▁जीओ	-14957
▁जोश	-14958
▁युव	-14959
▁लिट	-14960
ंबाबत	-14961
संवाद	-14962
स्पेस	-14963
हायचे	-14964
▁अभिव	-14965
▁अरबी	-14966
▁आयआर	-14967
▁कराई	-14968
▁गाठी	-14969
▁तरंग	-14970
▁दोहर	-14971
▁बूँद	-14972
▁लाते	-14973
▁विमु	-14974
▁विहि	-14975
▁अन्वे	-14976
▁जुकाम	-14977
▁जुलाब	-14978
▁टाइगर	-14979
▁त्रिश	-14980
▁नावीन	-14981
▁प्लॅट	-14982
▁बाळगा	-14983
▁ब्रेक	-14984
▁मजुरी	-14985
▁यहुदी	-14986
▁रागाव	-14987
▁वाचले	-14988
▁विनंत	-14989
▁संसार	-14990
्यूमेंट	-14991
▁अनेकदा	-14992
▁इंग्रज	-14993
▁उच्चार	-14994
▁घुटनों	-14995
▁ठिकाणे	-14996
▁दमिश्क	-14997
▁निगडीत	-14998
▁पांढरे	-14999
▁मनोरंज	-15000
▁मालमत्	-15001
▁वापरात	-15002
▁सांभाळ	-15003
▁हातभार	-15004
▁चित्रित	-15005
▁दीनदयाळ	-15006
▁धोरणाचा	-15007
▁पार्वती	-15008
▁शिफारसी	-15009
▁कोटींहून	-15010
▁चार्टर्ड	-15011
▁जोडण्यात	-15012
▁नवोन्मेष	-15013
▁रेल्वेचे	-15014
▁सचिवांनी	-15015
▁सांगताना	-15016
▁सेंद्रिय	-15017
्याप्रमाणे	-15018
▁अपराधियों	-15019
▁चुनौतियां	-15020
▁नाविन्यता	-15021
▁आतंकवादियों	-15022
▁त्याच्याजवळ	-15023
▁यांच्यासाठी	-15024
▁उपाययोजनांची	-15025
▁पंतप्रधानांचा	-15026
ईई	-15027
डल	-15028
-12	-15029
.06	-15030
.10	-15031
माथ	-15032
ालय	-15033
ेशर	-15034
▁गम	-15035
▁शू	-15036
GATI	-15037
जीके	-15038
दर्द	-15039
नेशन	-15040
पाची	-15041
रजमा	-15042
वापर	-15043
▁अलं	-15044
▁ठिक	-15045
▁पेल	-15046
▁बही	-15047
▁वान	-15048
्सटेक	-15049
▁उक्त	-15050
▁उड़ा	-15051
▁कराव	-15052
▁करुब	-15053
▁करेन	-15054
▁क़ान	-15055
▁त्यौ	-15056
▁पैनल	-15057
▁भाजी	-15058
▁योनि	-15059
▁लिखी	-15060
मार्गा	-15061
▁अवसाद	-15062
▁आढळते	-15063
▁एकंदर	-15064
▁कोनों	-15065
▁क्षणी	-15066
▁चढ़ाई	-15067
▁प्रगट	-15068
▁प्रजा	-15069
▁फार्म	-15070
▁फिलिप	-15071
▁भोपाल	-15072
▁मिर्च	-15073
▁वगळता	-15074
▁वेस्ट	-15075
▁सांधे	-15076
▁सारखी	-15077
▁साहाय	-15078
▁स्पीड	-15079
▁हेलिक	-15080
वार्षिक	-15081
▁अमालेक	-15082
▁केनिया	-15083
▁कोल्हा	-15084
▁गेलेले	-15085
▁जाणारा	-15086
▁टॅक्सी	-15087
▁दफनाया	-15088
▁नेमणूक	-15089
▁पाहुणे	-15090
▁मांडला	-15091
▁यंत्रण	-15092
▁येणारी	-15093
▁वर्णित	-15094
भरामध्ये	-15095
▁अनुदाना	-15096
▁खातरजमा	-15097
▁गुजराती	-15098
▁पापांची	-15099
▁बाबेलला	-15100
▁मिद्यान	-15101
▁रवींद्र	-15102
▁राजाकडे	-15103
▁सांसदों	-15104
▁अंत्योदय	-15105
▁खूबसूरती	-15106
▁पवित्रता	-15107
▁पोर्टलवर	-15108
▁भरलेल्या	-15109
▁इस्राएलवर	-15110
▁पाठवण्यात	-15111
▁प्रतिबंधक	-15112
▁योजनेसाठी	-15113
▁अम्मोनियों	-15114
▁प्रकल्पाची	-15115
▁युवकांच्या	-15116
▁सहकार्याचे	-15117
▁कॉम्प्लेक्स	-15118
▁पुनरुज्जीवन	-15119
▁सेवानिवृत्त	-15120
▁अधिकाऱ्यांची	-15121
94	-15122
RDO	-15123
एटी	-15124
घाई	-15125
छित	-15126
ज़े	-15127
बोध	-15128
लिस	-15129
ापे	-15130
▁87	-15131
चनों	-15132
जीएस	-15133
फ्यू	-15134
सीबत	-15135
ोदरा	-15136
▁एटी	-15137
▁कसो	-15138
▁घों	-15139
▁धाव	-15140
▁धुत	-15141
▁मगर	-15142
▁मरु	-15143
▁लोड	-15144
▁सती	-15145
antri	-15146
कीर्ण	-15147
ताबिक	-15148
र्कता	-15149
ानिया	-15150
▁Head	-15151
▁अधिप	-15152
▁इनका	-15153
▁जावी	-15154
▁ठरली	-15155
▁ठाणे	-15156
▁तणाव	-15157
▁पारा	-15158
▁पॅरा	-15159
▁रेकी	-15160
▁वयोग	-15161
▁सीधी	-15162
▁केलेत	-15163
▁चाहती	-15164
▁चित्त	-15165
▁थांबा	-15166
▁दराने	-15167
▁निभाव	-15168
▁पहारे	-15169
▁प्यास	-15170
▁सैतान	-15171
मार्केट	-15172
▁अकाउंट	-15173
▁अभिसरण	-15174
▁कानावर	-15175
▁क्षमते	-15176
▁घरातून	-15177
▁परिक्र	-15178
▁बढ़ेगा	-15179
▁मुसीबत	-15180
▁राज्यघ	-15181
▁लाइनों	-15182
▁अलगीकरण	-15183
▁अलीकडेच	-15184
▁उदाहरणे	-15185
▁कैलेंडर	-15186
▁चैंपियन	-15187
▁डाउनलोड	-15188
▁पट्टिका	-15189
▁प्रजाती	-15190
▁मागच्या	-15191
▁माणसाचा	-15192
▁मुताबिक	-15193
▁मुदतवाढ	-15194
▁रविशंकर	-15195
▁स्क्रीन	-15196
▁स्तनपान	-15197
▁याजकांना	-15198
▁विश्वनाथ	-15199
▁सैन्याला	-15200
▁स्वयंपाक	-15201
▁हितासाठी	-15202
▁अभियानाचा	-15203
▁न्यायाधिक	-15204
▁बंगालच्या	-15205
▁व्यवस्थेत	-15206
▁क्षेत्राची	-15207
▁मानवतेच्या	-15208
▁कॉलेस्ट्रॉल	-15209
▁संग्रहालयात	-15210
▁कंपन्यांच्या	-15211
▁प्रकल्पासाठी	-15212
▁विद्यापीठाच्या	-15213
FC	-15214
SA	-15215
ंडर	-15216
टीज	-15217
तुस	-15218
थित	-15219
पक्	-15220
राय	-15221
रेब	-15222
साब	-15223
सून	-15224
▁ओप	-15225
▁झि	-15226
गिंग	-15227
चाली	-15228
देही	-15229
धाने	-15230
मधली	-15231
ळेचे	-15232
▁अबू	-15233
▁टाय	-15234
▁टोप	-15235
▁फरी	-15236
▁मुक	-15237
▁लिन	-15238
वासीर	-15239
स्युट	-15240
्याशी	-15241
▁आचार	-15242
▁उठने	-15243
▁जड़ी	-15244
▁नाणे	-15245
▁पॉवर	-15246
▁भाला	-15247
▁माँग	-15248
▁मैरी	-15249
▁संघा	-15250
▁सहका	-15251
▁अनलॉक	-15252
▁कार्ट	-15253
▁टाकील	-15254
▁मरणार	-15255
▁मशहूर	-15256
▁शरीरा	-15257
▁संघीय	-15258
▁सांगड	-15259
▁स्क्र	-15260
▁स्पेन	-15261
स्वार्थ	-15262
▁कुणाला	-15263
▁डैनियल	-15264
▁प्राणा	-15265
▁राजकोट	-15266
▁शहराला	-15267
▁हित्ती	-15268
▁PRAGATI	-15269
▁गुरुदेव	-15270
▁ज्यांचे	-15271
▁परिभाषा	-15272
▁पूर्वसं	-15273
▁सतर्कता	-15274
▁ट्रायफेड	-15275
▁देशांतील	-15276
▁युवकांनी	-15277
▁शक्तियों	-15278
▁सांगायचे	-15279
▁हथियारों	-15280
ण्यापेक्षा	-15281
▁लोकांकडून	-15282
▁वर्षानंतर	-15283
▁व्हिएतनाम	-15284
▁आर्थराइटिस	-15285
▁जगभरातल्या	-15286
▁डब्ल्यूएचओ	-15287
▁आपल्याबरोबर	-15288
▁वर्षापर्यंत	-15289
▁नागरिकांसाठी	-15290
PT	-15291
गळ	-15292
५०	-15293
हाल	-15294
ाशी	-15295
्ता	-15296
▁ओल	-15297
▁नथ	-15298
inis	-15299
दाने	-15300
मधला	-15301
मेरा	-15302
हाइड	-15303
िमार	-15304
▁अँग	-15305
▁ऑरो	-15306
▁गगन	-15307
▁ज़र	-15308
▁तशा	-15309
▁पडा	-15310
▁पती	-15311
▁वोट	-15312
दिवशी	-15313
▁चंदन	-15314
▁चौबे	-15315
▁नाटक	-15316
▁बहने	-15317
▁बोडो	-15318
▁मस्त	-15319
▁वाया	-15320
▁शांघ	-15321
▁सभेत	-15322
▁साबर	-15323
णीच्या	-15324
▁उघडले	-15325
▁एलीशा	-15326
▁कल्पन	-15327
▁गाड़ी	-15328
▁गेम्स	-15329
▁चालला	-15330
▁छिद्र	-15331
▁जर्मन	-15332
▁जाणतो	-15333
▁दशकात	-15334
▁निशान	-15335
▁पशुओं	-15336
▁प्लेस	-15337
▁बेहोश	-15338
▁बॉक्स	-15339
▁मिळणे	-15340
▁शिबिर	-15341
▁सरसों	-15342
▁साबुन	-15343
▁होशील	-15344
▁अतिसार	-15345
▁ठिकाणा	-15346
▁बिगाड़	-15347
▁बॉम्बे	-15348
यांमध्ये	-15349
▁गोत्रों	-15350
▁जन्माला	-15351
▁जाण्यास	-15352
▁तात्पुर	-15353
▁त्यौहार	-15354
▁प्राधान	-15355
▁ब्रिटेन	-15356
▁समझौतों	-15357
▁समयबद्ध	-15358
▁सीपीएसई	-15359
▁उपक्रमों	-15360
▁एनडीआरएफ	-15361
▁कारणीभूत	-15362
▁तुरुंगात	-15363
▁माणसांनी	-15364
▁रिफाइनरी	-15365
▁विकासावर	-15366
▁त्यांनाही	-15367
▁रस्त्याने	-15368
▁लक्षद्वीप	-15369
▁प्राध्यापक	-15370
▁अनुप्रयोगों	-15371
▁अभियानाच्या	-15372
▁क्षेत्रातले	-15373
▁रेल्वेस्थान	-15374
▁इस्राएलमध्ये	-15375
▁निर्जंतुकीकरण	-15376
▁महाराष्ट्राचे	-15377
LE	-15378
OC	-15379
हु	-15380
बीज	-15381
ैरे	-15382
▁बख	-15383
करों	-15384
पंथी	-15385
प्ती	-15386
र्गी	-15387
ानुक	-15388
िफिक	-15389
▁INS	-15390
▁अपू	-15391
▁आबे	-15392
▁गेम	-15393
▁गोप	-15394
▁डिम	-15395
▁बघू	-15396
क्काम	-15397
ुकेशन	-15398
▁CSIR	-15399
▁अम्ब	-15400
▁खुर्	-15401
▁ट्री	-15402
▁पड़ी	-15403
▁प्लॅ	-15404
▁बनती	-15405
▁बनाओ	-15406
▁बहीण	-15407
▁मरने	-15408
▁रुपे	-15409
▁सांध	-15410
▁असंभव	-15411
▁आभूषण	-15412
▁उभ्या	-15413
▁काटने	-15414
▁गर्भग	-15415
▁पकडले	-15416
▁प्रबल	-15417
▁शल्लू	-15418
▁सुदूर	-15419
▁सोचते	-15420
▁स्नाय	-15421
अमेरिका	-15422
▁अब्राम	-15423
▁ईटानगर	-15424
▁कायमचा	-15425
▁गुणगान	-15426
▁चंपारण	-15427
▁छोड़ने	-15428
▁तिमाही	-15429
▁नादारी	-15430
▁परिपक्	-15431
▁शर्तों	-15432
▁शॉपिंग	-15433
▁सड़कें	-15434
▁सातत्य	-15435
▁हथियार	-15436
्यांबाबत	-15437
▁";&#39;	-15438
▁अन्वेषण	-15439
▁आजपासून	-15440
▁घाटियों	-15441
▁नीतिमान	-15442
▁पात्रता	-15443
▁माइक्रो	-15444
▁लाभप्रद	-15445
▁वियतनाम	-15446
▁वृक्षों	-15447
▁सणाच्या	-15448
▁सांगावे	-15449
्यांबरोबर	-15450
▁अभियानात	-15451
▁निर्भरता	-15452
▁मूत्राशय	-15453
▁सर्विसेज	-15454
पर्यंतच्या	-15455
▁प्रशंसनीय	-15456
▁सगळ्यांना	-15457
▁समस्यांचे	-15458
▁स्वीकारले	-15459
▁ह्याशिवाय	-15460
▁परवडणाऱ्या	-15461
▁पृथ्वीच्या	-15462
प्रधानमंत्री	-15463
▁इस्राएलमधील	-15464
▁करण्याकरिता	-15465
▁क्षतिग्रस्त	-15466
▁रस्त्याच्या	-15467
na	-15468
औष	-15469
डॉ	-15470
नै	-15471
बद	-15472
Gov	-15473
eva	-15474
जिन	-15475
भेद	-15476
ासं	-15477
▁६०	-15478
यारा	-15479
राहो	-15480
ष्मा	-15481
▁GST	-15482
▁आंब	-15483
▁उठी	-15484
▁डाळ	-15485
▁पॅन	-15486
▁महे	-15487
▁स्फ	-15488
काकडे	-15489
र्दकै	-15490
ारोपण	-15491
▁अतिक	-15492
▁आईबी	-15493
▁करवा	-15494
▁कोची	-15495
▁खास्	-15496
▁घंटा	-15497
▁नीली	-15498
▁पिका	-15499
▁बघित	-15500
▁मिठा	-15501
▁मेजर	-15502
▁रावत	-15503
▁विंड	-15504
▁सगाई	-15505
▁सुखा	-15506
प्रेशन	-15507
▁उभरते	-15508
▁गुंडा	-15509
▁जगाने	-15510
▁दलाचे	-15511
[...]
