<pad>	0
<s>	0
</s>	0
<unk>	0
[MASK]	0
▁क	-0
या	-1
▁स	-2
▁म	-3
्या	-4
▁प	-5
्र	-6
▁आ	-7
▁ह	-8
ार	-9
▁त	-10
▁व	-11
▁के	-12
▁द	-13
▁अ	-14
▁न	-15
▁ज	-16
र्	-17
्य	-18
ान	-19
ला	-20
▁ब	-21
ें	-22
▁र	-23
ों	-24
▁उ	-25
▁ल	-26
▁कर	-27
▁है	-28
ने	-29
ता	-30
▁प्र	-31
िक	-32
ां	-33
▁औ	-34
ले	-35
▁और	-36
▁भ	-37
ना	-38
ित	-39
▁ग	-40
▁में	-41
च्या	-42
▁को	-43
वा	-44
▁श	-45
ंत	-46
▁य	-47
ात	-48
क्	-49
्ह	-50
▁की	-51
▁.	-52
स्	-53
हे	-54
▁का	-55
▁ए	-56
▁पर	-57
▁कि	-58
▁या	-59
▁से	-60
▁आहे	-61
्व	-62
▁आण	-63
▁इ	-64
चा	-65
सा	-66
ेश	-67
ती	-68
▁हो	-69
▁आणि	-70
ली	-71
ही	-72
▁सं	-73
चे	-74
िए	-75
▁त्या	-76
ून	-77
▁वि	-78
▁रा	-79
्री	-80
ल्या	-81
ते	-82
▁एक	-83
्ट	-84
से	-85
ण्या	-86
नी	-87
ची	-88
▁दि	-89
▁लिए	-90
हा	-91
ोग	-92
▁,	-93
▁सा	-94
क्ष	-95
रा	-96
त्	-97
▁दे	-98
▁ने	-99
मा	-100
▁नि	-101
री	-102
▁ख	-103
▁जा	-104
ति	-105
ष्ट	-106
▁च	-107
ठी	-108
▁स्	-109
ंद	-110
गा	-111
▁हैं	-112
▁वा	-113
▁मा	-114
णा	-115
्रा	-116
▁तु	-117
▁भार	-118
▁घ	-119
कार	-120
▁सु	-121
▁आप	-122
▁पा	-123
साठी	-124
वर	-125
ध्य	-126
ेत	-127
▁2	-128
वि	-129
के	-130
▁इस	-131
द्	-132
िय	-133
▁सम	-134
ल्	-135
▁उन	-136
ड़	-137
▁ना	-138
▁थ	-139
▁ते	-140
का	-141
िया	-142
धान	-143
▁फ	-144
▁यह	-145
्ष	-146
ास	-147
ाने	-148
▁।	-149
ील	-150
▁कार	-151
▁अप	-152
▁मु	-153
▁मंत	-154
र्व	-155
▁राज	-156
▁तुम	-157
▁ला	-158
ोज	-159
मी	-160
▁अस	-161
▁जो	-162
▁म्ह	-163
▁पु	-164
▁त्यां	-165
प्र	-166
ोक	-167
रे	-168
▁1	-169
स्थ	-170
▁देश	-171
▁ड	-172
▁उप	-173
स्त	-174
ारी	-175
दी	-176
▁किया	-177
वी	-178
▁बा	-179
िन	-180
ंग	-181
▁मह	-182
▁20	-183
ारा	-184
ंड	-185
▁भी	-186
▁हम	-187
▁ट	-188
कर	-189
ध्ये	-190
▁झ	-191
▁करने	-192
की	-193
▁उस	-194
▁भारत	-195
▁क्ष	-196
दा	-197
▁करण्या	-198
वे	-199
▁मि	-200
्यां	-201
भा	-202
ार्	-203
सी	-204
च्	-205
ारे	-206
▁अध	-207
▁मो	-208
णे	-209
▁लोक	-210
▁(	-211
▁अन	-212
द्ध	-213
▁तो	-214
टी	-215
मध्ये	-216
▁साथ	-217
▁वे	-218
मु	-219
श्	-220
्हा	-221
▁सर	-222
ेल	-223
▁ध	-224
्रीय	-225
▁आज	-226
▁यां	-227
णी	-228
▁ये	-229
▁भा	-230
▁हे	-231
▁मी	-232
▁स्व	-233
▁पू	-234
▁तर	-235
देश	-236
▁हा	-237
ैं	-238
शी	-239
▁विक	-240
हीं	-241
▁उन्ह	-242
▁कहा	-243
र्ष	-244
शा	-245
▁सर्व	-246
▁स्थ	-247
ूप	-248
▁झा	-249
ियों	-250
र्ण	-251
▁उत्	-252
तो	-253
▁दो	-254
▁ले	-255
▁नहीं	-256
▁क्षेत	-257
▁आहेत	-258
▁मे	-259
लय	-260
▁अधिक	-261
▁व्य	-262
ंध	-263
ओं	-264
पा	-265
▁असे	-266
▁केले	-267
बर	-268
र्थ	-269
्ही	-270
▁सरकार	-271
▁नाही	-272
क्र	-273
्ञ	-274
रु	-275
▁परि	-276
मान	-277
▁ही	-278
▁केंद	-279
ळे	-280
तर	-281
ाप	-282
ांग	-283
▁कु	-284
जा	-285
▁राष्ट	-286
क्त	-287
न्	-288
▁चा	-289
ांना	-290
बा	-291
गे	-292
गी	-293
पू	-294
र्य	-295
▁पह	-296
त्र	-297
▁था	-298
िर	-299
भी	-300
तील	-301
▁क्षेत्र	-302
▁दु	-303
▁मैं	-304
कि	-305
▁201	-306
▁अपने	-307
तात	-308
▁आम	-309
▁म्हण	-310
▁गया	-311
द्य	-312
▁सह	-313
▁जि	-314
▁हु	-315
ाना	-316
▁जी	-317
प्रधान	-318
्त	-319
▁मंत्री	-320
जी	-321
ढ़	-322
▁ठ	-323
योग	-324
▁निर्	-325
िम	-326
ंतप्रधान	-327
कड	-328
▁पंतप्रधान	-329
धी	-330
मेश	-331
▁वह	-332
▁वर्ष	-333
ंतर	-334
ोंने	-335
▁प्रधान	-336
▁काम	-337
मेश्व	-338
▁तक	-339
ंत्र	-340
चार	-341
▁परमेश्व	-342
ाय	-343
▁लोग	-344
खा	-345
गर	-346
क्षा	-347
लेल्या	-348
धार	-349
णार	-350
िला	-351
▁द्व	-352
िती	-353
▁गु	-354
▁रु	-355
ूर	-356
द्र	-357
▁कार्य	-358
च्छ	-359
गत	-360
दान	-361
▁उन्होंने	-362
▁श्री	-363
00	-364
जे	-365
▁छ	-366
मुळे	-367
तीय	-368
▁मंत्रा	-369
▁प्रति	-370
▁होते	-371
▁अनु	-372
बंध	-373
▁आपल्या	-374
त्य	-375
िल	-376
शे	-377
ूं	-378
▁“	-379
ब्	-380
▁ती	-381
ऱ्या	-382
▁राज्य	-383
▁दिया	-384
▁रूप	-385
नि	-386
▁जात	-387
हर	-388
▁सभी	-389
▁माझ	-390
सार	-391
ेट	-392
▁म्हणा	-393
▁आय	-394
ळा	-395
ोल	-396
ज्ञ	-397
▁सक	-398
ांनी	-399
वास	-400
ित्र	-401
सर	-402
ोजना	-403
▁विकास	-404
ईल	-405
ेव	-406
▁बी	-407
नों	-408
ोर	-409
थे	-410
ोध	-411
डी	-412
▁मान	-413
▁बन	-414
ळी	-415
्म	-416
ुन	-417
विध	-418
माण	-419
ण्यासाठी	-420
ातील	-421
▁सि	-422
िका	-423
▁भारतीय	-424
टर	-425
▁-	-426
▁नवी	-427
पी	-428
त्व	-429
▁देख	-430
ांच्या	-431
िक्ष	-432
▁गो	-433
▁व्या	-434
▁मंत्रालय	-435
▁सी	-436
ष्	-437
▁सांग	-438
ंब	-439
▁आव	-440
▁लोगों	-441
ुर	-442
▁केली	-443
ानी	-444
▁सुर	-445
▁ऐ	-446
▁शक	-447
▁3	-448
▁स्वा	-449
▁त्यांनी	-450
स्ट	-451
▁पी	-452
▁जाए	-453
पर	-454
20	-455
▁अव	-456
ूत	-457
शन	-458
▁बढ़	-459
▁ओ	-460
▁करते	-461
ल्ली	-462
द्या	-463
";	-464
हि	-465
पास	-466
पूर्ण	-467
दल	-468
▁द्वारा	-469
र्म	-470
्यों	-471
▁दिल्ली	-472
▁ऑ	-473
▁केंद्र	-474
▁होता	-475
को	-476
▁मोदी	-477
▁राष्ट्र	-478
▁अभ	-479
▁दी	-480
द्योग	-481
▁करता	-482
▁हुए	-483
एल	-484
श्य	-485
▁बह	-486
▁गे	-487
▁”	-488
क्षण	-489
ेंद्र	-490
्यात	-491
ेक	-492
▁जब	-493
कृ	-494
▁भू	-495
▁दा	-496
▁थे	-497
क्रम	-498
▁कारण	-499
्न	-500
▁संबंध	-501
वन	-502
झे	-503
मंत	-504
▁पो	-505
▁खा	-506
▁प्रा	-507
▁तू	-508
▁यांनी	-509
▁ऊ	-510
श्व	-511
▁सो	-512
▁समा	-513
जन	-514
▁परमेश्वर	-515
▁म्हणून	-516
दि	-517
▁मू	-518
चित	-519
ध्यम	-520
ण्यात	-521
▁शा	-522
दे	-523
▁घे	-524
ल्प	-525
▁राजा	-526
एस	-527
▁साम	-528
▁मार्	-529
मंत्री	-530
्स	-531
▁उसके	-532
र्यंत	-533
▁पि	-534
▁मला	-535
▁तुम्ही	-536
रो	-537
▁यु	-538
▁नर	-539
▁केंद्रीय	-540
दर्	-541
▁तसे	-542
सं	-543
▁काही	-544
▁वै	-545
▁चाह	-546
किन	-547
▁दिव	-548
त्या	-549
▁गए	-550
▁करण्यात	-551
वस्थ	-552
िज	-553
19	-554
श्यक	-555
ौर	-556
▁योग	-557
▁योजना	-558
▁जे	-559
वळ	-560
▁मद	-561
लो	-562
ांचे	-563
में	-564
शेष	-565
▁तुम्ह	-566
लों	-567
ुत	-568
▁जै	-569
िंग	-570
▁5	-571
िट	-572
▁नरेंद्र	-573
▁करण्यासाठी	-574
▁लेकिन	-575
▁वाढ	-576
▁केला	-577
▁राष्ट्रीय	-578
▁अब	-579
ज्ञान	-580
▁त्यांना	-581
▁ई	-582
यु	-583
▁अपनी	-584
व्हा	-585
▁उनके	-586
वेश	-587
▁शि	-588
हन	-589
कडे	-590
▁आवश्यक	-591
ठा	-592
▁उद्	-593
एम	-594
▁यहो	-595
▁सेवा	-596
▁कृ	-597
पाद	-598
▁यांच्या	-599
▁भाग	-600
▁तसेच	-601
वाद	-602
▁कम	-603
क्ति	-604
▁घर	-605
▁महा	-606
▁सू	-607
▁त्यांच्या	-608
▁बना	-609
टा	-610
▁इन	-611
ंज	-612
▁जिस	-613
▁प्रत्य	-614
ेंगे	-615
▁क्यों	-616
▁आर	-617
वार	-618
▁हि	-619
पासून	-620
▁बै	-621
▁गा	-622
▁विशेष	-623
ऊन	-624
ये	-625
▁उन्हें	-626
▁माध्यम	-627
हत	-628
करण	-629
▁पास	-630
▁ता	-631
ड़ा	-632
ेर	-633
कों	-634
▁इस्रा	-635
विष	-636
▁लाग	-637
डा	-638
्यान	-639
▁हमारे	-640
वर्	-641
▁लग	-642
▁होती	-643
▁करा	-644
ष्टी	-645
▁रहा	-646
▁भारता	-647
▁मिळ	-648
▁रहे	-649
दार	-650
▁देव	-651
यों	-652
▁लाभ	-653
▁मन	-654
ग्र	-655
जार	-656
▁तेव्हा	-657
च्च	-658
वान	-659
ग्	-660
▁माझ्या	-661
▁पुर	-662
▁ज्या	-663
▁रुप	-664
▁बीच	-665
▁आले	-666
बी	-667
ोन	-668
▁अर्थ	-669
टन	-670
▁बात	-671
ांची	-672
णाऱ्या	-673
▁म्हणाले	-674
▁आता	-675
▁निर्माण	-676
▁शिक्ष	-677
▁दोन	-678
मि	-679
▁शु	-680
ख्य	-681
▁निय	-682
▁ह्या	-683
मध	-684
▁बे	-685
▁क्योंकि	-686
▁दृ	-687
▁भर	-688
▁व्याप	-689
▁‘	-690
▁सब	-691
ख्या	-692
▁जन	-693
हो	-694
▁उसे	-695
▁उत्पाद	-696
▁गई	-697
हार	-698
र्ग	-699
▁हर	-700
ोड़	-701
ंप	-702
▁संस्थ	-703
▁लाख	-704
ांचा	-705
▁वित	-706
▁पै	-707
▁घेत	-708
▁रख	-709
▁हूं	-710
िस	-711
▁रेल	-712
▁सांगित	-713
▁करत	-714
▁";	-715
▁करना	-716
श्वास	-717
▁जाता	-718
▁प्रश	-719
ोत्	-720
▁आम्ही	-721
▁लक्ष	-722
▁मेरे	-723
▁इस्राएल	-724
▁दर	-725
व्य	-726
▁पण	-727
्रे	-728
▁डॉ	-729
▁थी	-730
▁खु	-731
▁नव	-732
▁चाहिए	-733
▁तरह	-734
▁4	-735
मार	-736
ूस	-737
▁माह	-738
रण	-739
▁दूर	-740
▁पूर्व	-741
▁दिन	-742
िप	-743
▁मुझे	-744
▁त्याच्या	-745
ांत	-746
र्जा	-747
▁विचार	-748
▁किं	-749
▁इंड	-750
▁समय	-751
▁सुविध	-752
▁रह	-753
▁प्रदेश	-754
▁यहोवा	-755
बत	-756
▁कुछ	-757
▁:	-758
▁राह	-759
▁प्रकार	-760
▁त्याला	-761
▁प्रधानमंत्री	-762
▁काय	-763
ार्थ	-764
▁बाद	-765
▁2020	-766
▁मंत्र	-767
टे	-768
▁झाले	-769
▁करे	-770
यी	-771
▁आपण	-772
▁जर	-773
भाव	-774
ुष	-775
ूक	-776
ंगा	-777
▁मंद	-778
▁नी	-779
▁स्ट	-780
▁महत्व	-781
▁होगा	-782
▁परमेश्वरा	-783
▁उसने	-784
ंना	-785
▁शहर	-786
र्थिक	-787
▁प्रत्येक	-788
▁जग	-789
▁प्रदान	-790
▁पहले	-791
पर्यंत	-792
▁जीवन	-793
स्ता	-794
▁मज	-795
▁कमी	-796
▁कोई	-797
▁बोल	-798
लया	-799
यार	-800
▁तुझ	-801
▁जाएगा	-802
▁स्थान	-803
▁अंत	-804
कल्प	-805
▁ठेव	-806
शि	-807
भाग	-808
नेक	-809
-19	-810
▁पाहि	-811
ड़ी	-812
ातून	-813
ोबर	-814
▁उपल	-815
▁अनेक	-816
ोजन	-817
▁बहुत	-818
▁घा	-819
▁महिला	-820
लन	-821
ात्र	-822
▁उद्योग	-823
ब्ध	-824
▁अम	-825
▁आर्थिक	-826
▁बु	-827
पे	-828
▁सांगितले	-829
श्चित	-830
▁स्थाप	-831
▁माहिती	-832
▁उपलब्ध	-833
▁येथे	-834
मुख	-835
तिक	-836
▁वाले	-837
्यांना	-838
▁बैठ	-839
▁बि	-840
▁समु	-841
▁कोवि	-842
▁रोज	-843
डे	-844
▁सकता	-845
ांमध्ये	-846
▁किए	-847
भर	-848
▁कार्या	-849
▁जल	-850
▁सुधार	-851
राष्ट	-852
ड़े	-853
ंच	-854
दारी	-855
▁किंवा	-856
लि	-857
▁पार	-858
▁होईल	-859
▁अशा	-860
▁रोग	-861
▁विश्वास	-862
▁कह	-863
▁देवा	-864
▁?	-865
्हाला	-866
▁तीन	-867
हाँ	-868
क्ट	-869
▁कार्यक्रम	-870
▁पुन	-871
▁आरोग	-872
युक्त	-873
▁उत्तर	-874
▁त्याने	-875
▁पूर्ण	-876
▁मग	-877
▁होने	-878
▁फिर	-879
▁असेल	-880
▁जु	-881
▁रो	-882
र्प	-883
▁दिवस	-884
▁2018	-885
▁’	-886
▁6	-887
भार	-888
▁2019	-889
▁कै	-890
▁7	-891
ुक	-892
▁लोकांना	-893
▁सुविधा	-894
▁अन्य	-895
▁उपयोग	-896
▁अध्य	-897
▁मार्ग	-898
माणे	-899
▁कई	-900
▁पर्य	-901
्यू	-902
खी	-903
क्ती	-904
वात	-905
घा	-906
मिक	-907
▁ति	-908
च्छा	-909
ंचा	-910
सान	-911
पट	-912
द्दल	-913
▁दिले	-914
▁वाट	-915
▁आत्	-916
म्	-917
आर	-918
▁कॉ	-919
जर	-920
वल	-921
▁C	-922
▁तंत्र	-923
▁म्हणजे	-924
था	-925
▁आधार	-926
प्	-927
ृद्ध	-928
▁स्वत	-929
▁तुमच्या	-930
▁असल्या	-931
चना	-932
▁भग	-933
▁म्हणाला	-934
▁मुख्य	-935
▁आली	-936
दर	-937
▁ग्रा	-938
▁दिली	-939
ण्याची	-940
ताओं	-941
▁असा	-942
▁स्वच्छ	-943
▁पुढ	-944
िमंड	-945
निया	-946
▁यात	-947
प्रमाणे	-948
बरोबर	-949
द्व	-950
▁असून	-951
▁सहकार	-952
▁जान	-953
▁प्राप	-954
यत्	-955
ंतु	-956
ैन	-957
▁गोष्टी	-958
▁संर	-959
▁कोटी	-960
वस्था	-961
▁स्त	-962
▁प्रमुख	-963
▁महत्	-964
बद्दल	-965
▁क्र	-966
▁आरोग्य	-967
▁व्यक्त	-968
▁इसके	-969
ंक	-970
▁मजब	-971
लिए	-972
▁एका	-973
ष्ठ	-974
▁खूप	-975
ज़	-976
▁इंडिया	-977
▁डा	-978
नो	-979
▁चांग	-980
▁चर्	-981
लेले	-982
स्थ्य	-983
स्य	-984
धन	-985
▁वी	-986
ोष	-987
▁करेगा	-988
▁चाल	-989
▁सर्	-990
हाय	-991
▁सार	-992
भव	-993
▁काळ	-994
▁इसलिए	-995
▁ची	-996
▁मंज	-997
िकी	-998
धा	-999
्याय	-1000
▁दर्	-1001
▁)	-1002
▁कृष	-1003
▁स्वास्थ्य	-1004
▁माण	-1005
गार	-1006
▁करोड़	-1007
▁पुत्र	-1008
टक	-1009
▁नागर	-1010
र्ट	-1011
िव	-1012
शु	-1013
▁गर	-1014
▁हाथ	-1015
▁सद	-1016
▁क्षम	-1017
▁करी	-1018
▁जाते	-1019
▁प्राप्त	-1020
▁रुपये	-1021
्वे	-1022
▁अति	-1023
वरण	-1024
▁पंतप्रधानांनी	-1025
▁क्या	-1026
▁मंदिर	-1027
▁मंत्रिमंड	-1028
▁इतर	-1029
▁प्रयत्	-1030
▁ऊर्जा	-1031
▁राष्ट्रप	-1032
तम	-1033
▁सकते	-1034
वण	-1035
▁यहू	-1036
▁रुग्	-1037
ेशन	-1038
वित्र	-1039
▁कार्यालय	-1040
▁करतो	-1041
▁सुरक्षा	-1042
▁महत्वपूर्ण	-1043
▁अध्यक्ष	-1044
▁देशा	-1045
ंच्या	-1046
▁दौर	-1047
▁विष	-1048
▁बो	-1049
▁मजबूत	-1050
▁टा	-1051
▁नागरिक	-1052
▁झाली	-1053
▁सहयोग	-1054
▁जिन	-1055
र्गत	-1056
▁मोठ	-1057
▁तब	-1058
▁अंतर	-1059
आई	-1060
ांस	-1061
▁असलेल्या	-1062
▁रही	-1063
▁बारे	-1064
▁कोविड	-1065
शल	-1066
▁चार	-1067
▁सुरु	-1068
▁किसी	-1069
▁प्रयत्न	-1070
मे	-1071
ंट	-1072
▁विविध	-1073
वेळी	-1074
▁नाम	-1075
▁बढ़ा	-1076
्यांनी	-1077
पर्	-1078
▁सबसे	-1079
▁बदल	-1080
मिल	-1081
वले	-1082
ढा	-1083
▁वस्त	-1084
▁पाठ	-1085
वरी	-1086
▁जाने	-1087
▁संबंधित	-1088
▁श्र	-1089
▁अवसर	-1090
▁मैंने	-1091
र्त	-1092
▁दौरान	-1093
▁देखील	-1094
यक	-1095
▁मिल	-1096
कट	-1097
▁समझ	-1098
▁चे	-1099
▁होत	-1100
▁बां	-1101
नात	-1102
ात्म	-1103
▁दुनिया	-1104
▁आला	-1105
▁नियम	-1106
▁हवा	-1107
▁पवित्र	-1108
▁व्यापार	-1109
▁भगवान	-1110
▁आन	-1111
एं	-1112
▁;	-1113
ुरू	-1114
▁जास्त	-1115
▁हजार	-1116
▁मित्र	-1117
वून	-1118
▁मदत	-1119
ांसाठी	-1120
▁जेव	-1121
▁महाम	-1122
यन	-1123
▁दोनों	-1124
▁गरी	-1125
काश	-1126
ूल	-1127
▁इसे	-1128
यर	-1129
ूरी	-1130
▁देने	-1131
▁कल्या	-1132
▁व्यक्ति	-1133
000	-1134
▁लि	-1135
▁पड	-1136
▁करून	-1137
▁19	-1138
▁केल्या	-1139
यास	-1140
▁परिष	-1141
क्षी	-1142
सि	-1143
▁हमें	-1144
▁मध्ये	-1145
वड	-1146
दर्श	-1147
िन्न	-1148
न्न	-1149
▁8	-1150
▁ज्ञ	-1151
▁10	-1152
▁वापर	-1153
भग	-1154
▁कौ	-1155
▁बार	-1156
▁करेंगे	-1157
कडून	-1158
▁एम	-1159
व्या	-1160
बाबत	-1161
▁ओर	-1162
स्ते	-1163
▁मुल	-1164
▁आगे	-1165
▁तरी	-1166
▁विकस	-1167
▁झाला	-1168
▁स्थित	-1169
▁अशी	-1170
▁चर्चा	-1171
▁चित्र	-1172
▁सामा	-1173
ंची	-1174
जू	-1175
▁तुझ्या	-1176
▁तुम्हाला	-1177
▁शरी	-1178
▁उनकी	-1179
▁करणे	-1180
ेड	-1181
र्स	-1182
शोध	-1183
▁येत	-1184
▁शुरू	-1185
▁माम	-1186
ियन	-1187
ंदर	-1188
▁9	-1189
▁कोण	-1190
▁एन	-1191
▁क्षमता	-1192
ूंगा	-1193
▁तहत	-1194
▁विभाग	-1195
मधील	-1196
ID	-1197
▁साल	-1198
जिक	-1199
39	-1200
▁निर	-1201
▁शे	-1202
▁निर्म	-1203
▁आवा	-1204
▁जैसे	-1205
▁2017	-1206
▁चु	-1207
▁आवश्यकता	-1208
▁खिला	-1209
▁विकसित	-1210
▁निर्ण	-1211
▁हुआ	-1212
▁आई	-1213
▁सौ	-1214
▁लिया	-1215
स्कृ	-1216
ध्या	-1217
नंतर	-1218
▁व्यव	-1219
▁धन	-1220
▁पहु	-1221
▁आया	-1222
▁रेल्वे	-1223
▁क्षेत्रात	-1224
आय	-1225
▁पाया	-1226
हास	-1227
ोजित	-1228
ंभ	-1229
्यांच्या	-1230
ात्मक	-1231
ृह	-1232
▁उत्पादन	-1233
▁आमच्या	-1234
▁तयार	-1235
▁कल्याण	-1236
▁बांध	-1237
▁मौ	-1238
▁गरीब	-1239
शील	-1240
▁भे	-1241
▁आद	-1242
▁फि	-1243
स्कार	-1244
▁संरक्षण	-1245
▁विभ	-1246
▁आपके	-1247
पूर्व	-1248
▁संयुक्त	-1249
▁शामिल	-1250
▁प्रभ	-1251
ुल	-1252
▁प्रोत्	-1253
▁निक	-1254
श्च	-1255
▁सां	-1256
▁पे	-1257
▁परिय	-1258
▁प्रोत्सा	-1259
▁दिला	-1260
▁आनंद	-1261
▁विश्व	-1262
ियम	-1263
्रो	-1264
ंह	-1265
▁करें	-1266
▁सार्व	-1267
▁परियोजना	-1268
▁कंप	-1269
▁मूल	-1270
स्थित	-1271
▁CO	-1272
▁विभिन्न	-1273
▁महान	-1274
त्ती	-1275
▁देशात	-1276
▁परंतु	-1277
▁भविष	-1278
▁मिळा	-1279
धे	-1280
▁नवीन	-1281
रिक	-1282
▁15	-1283
▁युवा	-1284
▁प्रक्र	-1285
VID	-1286
▁पाहिजे	-1287
ाती	-1288
इन	-1289
पणे	-1290
▁यासाठी	-1291
▁ब्र	-1292
▁पद	-1293
वाय	-1294
षण	-1295
▁पाह	-1296
▁लॉ	-1297
▁आदि	-1298
▁संशोध	-1299
तन	-1300
बद्ध	-1301
▁दोन्ही	-1302
&#	-1303
ोट	-1304
39;	-1305
&#39;	-1306
पुर	-1307
▁प्रयास	-1308
क्षित	-1309
▁मुला	-1310
▁शिक्षा	-1311
▁पृ	-1312
▁COVID	-1313
वत	-1314
▁लगभग	-1315
▁१	-1316
▁ढ	-1317
▁सच	-1318
▁ऑफ	-1319
▁सहाय	-1320
गतिक	-1321
▁क्षेत्रों	-1322
▁मार	-1323
▁बनाने	-1324
कीय	-1325
ण्याचा	-1326
▁पर्या	-1327
करी	-1328
ैस	-1329
▁तै	-1330
▁उच्च	-1331
▁बस	-1332
▁I	-1333
प्त	-1334
ुष्य	-1335
ोजने	-1336
▁माल	-1337
विषयी	-1338
▁टक्	-1339
्ल	-1340
▁संख्या	-1341
▁नई	-1342
▁जागतिक	-1343
▁दुस	-1344
▁सामाजिक	-1345
▁अर्थव्य	-1346
▁अधिकार	-1347
▁आयोजित	-1348
▁पिता	-1349
▁वेग	-1350
ण्याचे	-1351
णाम	-1352
्वी	-1353
▁असते	-1354
▁हों	-1355
▁गां	-1356
▁खिलाफ	-1357
▁कराय	-1358
▁पिछ	-1359
निश्चित	-1360
▁भूमि	-1361
▁परी	-1362
णारे	-1363
▁जीव	-1364
▁सात	-1365
▁आज्ञ	-1366
▁बच्च	-1367
▁अपना	-1368
▁जारी	-1369
▁आक	-1370
▁पानी	-1371
ंगे	-1372
▁देशों	-1373
▁हमारी	-1374
▁दृष्ट	-1375
▁नौ	-1376
▁अभिया	-1377
▁जाती	-1378
▁नेत	-1379
▁ट्र	-1380
▁सुनिश्चित	-1381
खे	-1382
▁विज्ञान	-1383
▁किसान	-1384
म्म	-1385
▁यो	-1386
जनिक	-1387
▁प्रभाव	-1388
▁अग	-1389
धिक	-1390
▁केवल	-1391
ताना	-1392
▁बच्चों	-1393
▁करुन	-1394
वारी	-1395
▁तुम्हारे	-1396
मो	-1397
ंचे	-1398
ांड	-1399
▁विस्त	-1400
▁सार्वजनिक	-1401
ासन	-1402
▁औष	-1403
▁भागी	-1404
▁जेव्हा	-1405
▁कर्म	-1406
धि	-1407
▁मृ	-1408
फा	-1409
▁मदद	-1410
▁येश	-1411
▁विद्या	-1412
▁योजने	-1413
वासी	-1414
लेम	-1415
▁शिक	-1416
ांवर	-1417
ुसार	-1418
▁केलेल्या	-1419
▁देता	-1420
एफ	-1421
▁प्रशिक्ष	-1422
▁आहो	-1423
▁बाहर	-1424
क्षम	-1425
▁वर	-1426
ळ्या	-1427
▁चौ	-1428
खर	-1429
▁परिणाम	-1430
द्वारे	-1431
▁आपले	-1432
▁आहोत	-1433
▁कर्	-1434
▁उद्देश	-1435
▁येशू	-1436
▁कान	-1437
▁देण्यात	-1438
चन	-1439
▁सैन	-1440
▁योग्य	-1441
▁आए	-1442
▁प्रसार	-1443
कारी	-1444
▁झाल्या	-1445
▁त्याचे	-1446
▁फिल्	-1447
शिया	-1448
पूर	-1449
▁घेऊन	-1450
▁पूरा	-1451
▁संब	-1452
▁असल्याचे	-1453
▁घोष	-1454
राष्ट्रीय	-1455
▁संघ	-1456
▁संपूर्ण	-1457
▁तुला	-1458
▁यात्रा	-1459
▁आस	-1460
ग्रह	-1461
▁प्रकल्प	-1462
ित्	-1463
ेंट	-1464
▁बता	-1465
▁झालेल्या	-1466
ध्	-1467
▁उपाय	-1468
ंबई	-1469
मीण	-1470
▁प्रग	-1471
▁दक्ष	-1472
▁यहाँ	-1473
चल	-1474
▁परिवार	-1475
▁प्रे	-1476
हरा	-1477
क्स	-1478
▁आदमी	-1479
▁निर्णय	-1480
ज्	-1481
▁दाख	-1482
▁वृद्ध	-1483
▁इत	-1484
हित	-1485
शलेम	-1486
▁दूस	-1487
▁होतो	-1488
वक	-1489
▁अल	-1490
▁गुजर	-1491
▁महारा	-1492
ंनी	-1493
▁मंत्रालया	-1494
▁शेत	-1495
▁ऐक	-1496
▁पृथ	-1497
▁जवळ	-1498
▁उसकी	-1499
▁डिज	-1500
▁अनुसार	-1501
▁टी	-1502
▁12	-1503
▁याह	-1504
▁बैठक	-1505
भे	-1506
ाते	-1507
टु	-1508
▁मै	-1509
तीने	-1510
एँ	-1511
एन	-1512
▁आज्ञा	-1513
▁नदी	-1514
▁पृथ्वी	-1515
तिहास	-1516
ंदा	-1517
▁प्रमाण	-1518
ापन	-1519
▁ग्रामीण	-1520
▁एव	-1521
ब्द	-1522
रुष	-1523
▁भाव	-1524
▁भूम	-1525
▁वन	-1526
▁शरीर	-1527
▁होणार	-1528
स्प	-1529
▁आंतर	-1530
▁संबोध	-1531
पै	-1532
▁प्रक्रिया	-1533
▁गेल्या	-1534
▁प्रौ	-1535
▁इं	-1536
▁स्वी	-1537
्याने	-1538
देशी	-1539
▁गति	-1540
सम	-1541
▁नाहीत	-1542
▁तेल	-1543
▁गर्	-1544
▁संधी	-1545
र्ड	-1546
ेंबर	-1547
ंती	-1548
▁हिस्	-1549
्याच्या	-1550
िटल	-1551
त्ता	-1552
▁करु	-1553
िता	-1554
▁चल	-1555
ट्ट	-1556
▁हुई	-1557
मक	-1558
▁मेरी	-1559
▁फिल्म	-1560
▁जाईल	-1561
▁अला	-1562
▁मुंबई	-1563
▁पिछले	-1564
वरील	-1565
म्यान	-1566
▁भूमिका	-1567
▁योगदान	-1568
▁चिक	-1569
▁यदि	-1570
▁गेले	-1571
▁आपको	-1572
▁तंत्रज्ञान	-1573
्यता	-1574
▁कुटु	-1575
▁वित्त	-1576
▁उपस्थित	-1577
▁मर	-1578
मीटर	-1579
▁भेट	-1580
▁पुरस्कार	-1581
▁प्रौद्योग	-1582
▁सुरू	-1583
▁शां	-1584
▁यावेळी	-1585
▁किलो	-1586
▁नए	-1587
मन	-1588
▁पाप	-1589
मार्	-1590
▁लो	-1591
भूत	-1592
▁घड	-1593
▁करू	-1594
▁सामने	-1595
्ड	-1596
मान्य	-1597
▁येईल	-1598
ण्याच्या	-1599
ासा	-1600
▁गृह	-1601
▁रक्त	-1602
▁ध्यान	-1603
▁उठ	-1604
▁यहूदा	-1605
▁मुलगा	-1606
▁चि	-1607
साय	-1608
राष्ट्र	-1609
▁रुग्ण	-1610
▁समस	-1611
पेक्षा	-1612
पु	-1613
▁अं	-1614
सु	-1615
▁परिवर्	-1616
▁आठ	-1617
टना	-1618
यू	-1619
ल्ले	-1620
रू	-1621
झा	-1622
▁आध	-1623
नाथ	-1624
▁सफ	-1625
▁राज्यों	-1626
शत	-1627
▁अलावा	-1628
▁वाली	-1629
▁प्रयोग	-1630
▁व्हा	-1631
▁विकासा	-1632
पाल	-1633
▁अगर	-1634
ूह	-1635
र्च	-1636
▁पुन्हा	-1637
▁पत्	-1638
इल	-1639
,000	-1640
▁आयोग	-1641
▁सूचना	-1642
▁देखा	-1643
▁डि	-1644
ॉल	-1645
▁च्या	-1646
▁हमने	-1647
▁जय	-1648
▁समाज	-1649
▁डिजिटल	-1650
▁पुरुष	-1651
▁पीएम	-1652
▁समावेश	-1653
▁जोड	-1654
तियों	-1655
यं	-1656
▁छो	-1657
▁याज	-1658
स्त्र	-1659
▁मत	-1660
▁धोर	-1661
▁!	-1662
▁एकत्र	-1663
▁व्यक्ती	-1664
▁मध	-1665
▁महत्वा	-1666
नीय	-1667
▁वर्षों	-1668
सह	-1669
▁स्प	-1670
▁प्रणा	-1671
▁रोजगार	-1672
▁बाजार	-1673
▁शब्द	-1674
▁गुंत	-1675
▁मूर्	-1676
▁समझौ	-1677
),	-1678
▁बेट	-1679
▁न्याय	-1680
पण	-1681
▁पुढे	-1682
▁ठिका	-1683
▁सचिव	-1684
▁करण्याची	-1685
▁ऐसा	-1686
▁राष्ट्रपति	-1687
▁प्रकाश	-1688
▁लोकांनी	-1689
▁पर्यटन	-1690
▁यहां	-1691
▁पूरी	-1692
▁काढ	-1693
▁दिस	-1694
▁अभि	-1695
कु	-1696
▁भारतात	-1697
फी	-1698
▁ठर	-1699
▁दक्षि	-1700
▁निवड	-1701
▁व्यवस्थ	-1702
▁फे	-1703
▁केवळ	-1704
▁त्याचा	-1705
▁कृषि	-1706
▁स्थापित	-1707
शय	-1708
राम	-1709
ोव	-1710
▁सरकारने	-1711
▁मंड	-1712
▁त्यांचे	-1713
▁किलोमीटर	-1714
▁उद्या	-1715
▁शक्ति	-1716
▁आह	-1717
▁मोठ्या	-1718
▁सिंह	-1719
▁बंद	-1720
▁सर्वात	-1721
▁माझे	-1722
▁करीत	-1723
खंड	-1724
▁बढ़ावा	-1725
▁मानव	-1726
▁भविष्य	-1727
▁चित्रपट	-1728
लक	-1729
हेर	-1730
▁मात्र	-1731
▁प्रोत्साहन	-1732
▁२	-1733
▁रक्षा	-1734
▁आत	-1735
▁कोणी	-1736
▁गुंतवण	-1737
▁बाब	-1738
▁प्रौद्योगिकी	-1739
▁स्तर	-1740
▁मामलों	-1741
▁प्रेर	-1742
▁महाराष्ट	-1743
▁होगी	-1744
▁लगा	-1745
▁जिसमें	-1746
थील	-1747
खाली	-1748
▁सोड	-1749
जवळ	-1750
▁टक्के	-1751
▁पर्व	-1752
▁प्रभु	-1753
▁संदेश	-1754
पैकी	-1755
▁समर्थ	-1756
दर्शन	-1757
िक्स	-1758
▁मनुष्य	-1759
ूट	-1760
▁बच्	-1761
▁अड	-1762
इयों	-1763
ण्यास	-1764
▁नव्ह	-1765
ोप	-1766
▁समुद्र	-1767
▁प्रशिक्षण	-1768
▁पहि	-1769
्यास	-1770
▁आत्मा	-1771
▁संशोधन	-1772
ुरी	-1773
▁सीमा	-1774
▁मंजूरी	-1775
▁वं	-1776
▁तैयार	-1777
▁शोध	-1778
▁उद्य	-1779
बे	-1780
द्धा	-1781
▁गांधी	-1782
▁संग	-1783
जों	-1784
▁निर्मिती	-1785
इट	-1786
यला	-1787
▁पर्यंत	-1788
वणी	-1789
लै	-1790
वली	-1791
▁माध्यमातून	-1792
▁अर्थव्यवस्था	-1793
▁करतात	-1794
▁ग्र	-1795
▁डी	-1796
▁दौ	-1797
▁संस्था	-1798
▁जाना	-1799
▁M	-1800
▁संस	-1801
▁क्षेत्रा	-1802
भागी	-1803
▁सक्षम	-1804
▁संबोधित	-1805
निर्	-1806
लब	-1807
▁खरे	-1808
▁परिषद	-1809
▁गुजरात	-1810
▁विस्तार	-1811
▁कुटुंब	-1812
▁खो	-1813
हरी	-1814
तीत	-1815
▁नस	-1816
ल्लेख	-1817
लाव	-1818
रिक्त	-1819
▁उल्लेख	-1820
▁11	-1821
▁बंध	-1822
▁परत	-1823
▁तुम्हें	-1824
▁बल्	-1825
ॉन	-1826
▁नाव	-1827
▁प्रणाली	-1828
▁प्रतिनि	-1829
▁आंतरराष्ट्रीय	-1830
ल्ला	-1831
ेंस	-1832
क्षीय	-1833
▁आपल्याला	-1834
▁कधी	-1835
▁&#39;	-1836
राज	-1837
▁आने	-1838
त्वा	-1839
न्स	-1840
▁मार्च	-1841
▁सहकार्य	-1842
▁अधिकारी	-1843
क्टर	-1844
▁जाऊ	-1845
▁वास्त	-1846
▁भारताच्या	-1847
▁व्यवस्था	-1848
▁वैश्व	-1849
▁जून	-1850
▁प्रवेश	-1851
▁निश्चित	-1852
▁समर्प	-1853
▁पाणी	-1854
▁टे	-1855
▁परमेश्वराने	-1856
▁कुल	-1857
▁भागीदारी	-1858
तु	-1859
▁कृषी	-1860
▁होऊ	-1861
▁माझा	-1862
▁करारा	-1863
▁संक	-1864
ैल	-1865
ांनो	-1866
▁रे	-1867
▁देशातील	-1868
▁30	-1869
▁जोर	-1870
ंस	-1871
मीन	-1872
▁कप	-1873
▁गरज	-1874
▁बनाया	-1875
▁सम्	-1876
▁याहवे	-1877
ऱ्यां	-1878
▁कहते	-1879
▁पश्च	-1880
घाटन	-1881
▁उठा	-1882
▁तुल	-1883
▁यामुळे	-1884
राष्ट्रप	-1885
ातल्या	-1886
▁आत्म	-1887
रावर	-1888
▁ताकि	-1889
▁वैश्विक	-1890
दय	-1891
▁करो	-1892
▁बँ	-1893
an	-1894
▁तेथे	-1895
▁नंतर	-1896
▁शकतो	-1897
▁अच्छ	-1898
▁सुरक्षित	-1899
लाई	-1900
▁समस्या	-1901
गरी	-1902
▁वेळ	-1903
▁जन्	-1904
▁रुपया	-1905
ारो	-1906
▁P	-1907
▁25	-1908
▁महाराष्ट्र	-1909
▁आयु	-1910
▁अनुभव	-1911
▁दिनों	-1912
बि	-1913
ित्त	-1914
-1	-1915
वला	-1916
▁अन्न	-1917
▁मध्य	-1918
लं	-1919
▁जिन्ह	-1920
▁लागू	-1921
▁निवेश	-1922
पणा	-1923
▁बैं	-1924
▁प्रस्ता	-1925
ब्र	-1926
▁एखा	-1927
▁त्यांची	-1928
▁जिल	-1929
▁आणखी	-1930
णारा	-1931
▁वार	-1932
▁करार	-1933
▁मुद्	-1934
ांच	-1935
मीर	-1936
▁दोस्त	-1937
▁शौ	-1938
▁प्रार्थ	-1939
हून	-1940
स्थान	-1941
यल	-1942
देख	-1943
▁करणार	-1944
▁24	-1945
▁देण्यासाठी	-1946
▁फा	-1947
▁बेह	-1948
▁गेला	-1949
स्थिती	-1950
▁आधारित	-1951
▁बद	-1952
▁उपराष्ट्रप	-1953
▁साध	-1954
▁18	-1955
▁स्थिति	-1956
बल	-1957
मेंट	-1958
▁एस	-1959
तों	-1960
▁नगर	-1961
▁याद	-1962
श्र	-1963
ुनिक	-1964
▁तथा	-1965
▁मही	-1966
▁काळात	-1967
▁व्यवहार	-1968
▁मृत्य	-1969
काम	-1970
ानों	-1971
▁गुण	-1972
▁नियंत्र	-1973
▁स्थापना	-1974
▁नये	-1975
▁होंगे	-1976
▁महामारी	-1977
▁अभियान	-1978
▁बहु	-1979
▁जिसे	-1980
▁14	-1981
▁कोरो	-1982
▁टाक	-1983
▁संस्कृ	-1984
▁संप	-1985
▁प्रभा	-1986
▁रेलवे	-1987
▁परिवर्तन	-1988
लेली	-1989
तून	-1990
्ला	-1991
▁खुद	-1992
▁त्याची	-1993
िरा	-1994
▁परा	-1995
▁उत्प	-1996
▁कौशल	-1997
▁घोषणा	-1998
▁दू	-1999
▁नेतृ	-2000
▁बच्चे	-2001
▁संकल्प	-2002
▁बड़ी	-2003
▁बाहेर	-2004
▁समुदा	-2005
▁द्या	-2006
कृत	-2007
ंबा	-2008
▁उद्घाटन	-2009
▁विमान	-2010
▁समृद्ध	-2011
तंत्र	-2012
▁बढ़ाने	-2013
ँच	-2014
कडा	-2015
▁पार्	-2016
▁स्वागत	-2017
डू	-2018
▁पहा	-2019
▁पं	-2020
दन	-2021
▁दक्षिण	-2022
▁पुरव	-2023
▁मिशन	-2024
▁चिकित्	-2025
ात्	-2026
▁उपचार	-2027
▁स्मार	-2028
।";	-2029
▁प्रार्थना	-2030
▁ऊपर	-2031
▁याजक	-2032
▁राम	-2033
हान	-2034
▁वित्	-2035
▁माग	-2036
ेशा	-2037
ुट	-2038
▁अमेर	-2039
▁अर्	-2040
▁50	-2041
▁शांति	-2042
▁दावी	-2043
ध्द	-2044
▁स्वीकार	-2045
▁वृद्धि	-2046
▁सरकारी	-2047
▁व्यापक	-2048
▁शिक्षण	-2049
ांला	-2050
▁सध्या	-2051
वाह	-2052
▁सामान्य	-2053
िड	-2054
▁"	-2055
▁यश	-2056
ियाँ	-2057
▁पद्ध	-2058
▁परीक्षण	-2059
ोड	-2060
विक	-2061
▁फाय	-2062
▁पेट	-2063
▁समान	-2064
▁राष्ट्रपती	-2065
▁सप	-2066
▁ज्ञान	-2067
मती	-2068
▁देते	-2069
▁`	-2070
▁वित्तीय	-2071
▁इच्छा	-2072
▁पालन	-2073
▁एप्र	-2074
लू	-2075
▁रोजी	-2076
▁भावना	-2077
टले	-2078
▁पत्र	-2079
▁दृष्टी	-2080
दम	-2081
क्रमा	-2082
▁समर्थन	-2083
▁संसा	-2084
▁बच	-2085
▁13	-2086
▁जैसा	-2087
▁वर्त	-2088
▁पूरे	-2089
▁त्याच	-2090
ंसा	-2091
ियो	-2092
▁वाहत	-2093
▁सहभागी	-2094
▁मूल्य	-2095
▁वचन	-2096
▁पाच	-2097
▁करती	-2098
▁त्यामुळे	-2099
▁S	-2100
▁संवाद	-2101
कू	-2102
▁करायला	-2103
ांक	-2104
▁अह	-2105
लेला	-2106
▁हवाई	-2107
▁रि	-2108
रों	-2109
▁रात	-2110
ज्ञानिक	-2111
▁आपला	-2112
▁धोरण	-2113
▁सदस्य	-2114
▁बल्कि	-2115
▁करण्याचे	-2116
भात	-2117
▁रुग्णा	-2118
ार्ट	-2119
मत	-2120
▁कला	-2121
▁एल	-2122
ढे	-2123
शिष्ट	-2124
▁अफ	-2125
▁सम्मान	-2126
▁पर्यावरण	-2127
▁सग	-2128
भू	-2129
▁संचा	-2130
▁सम्म	-2131
णीय	-2132
▁देत	-2133
देखील	-2134
▁तुझे	-2135
▁येथील	-2136
नाच्या	-2137
ईट	-2138
काळ	-2139
▁स्वयं	-2140
▁दोस्तों	-2141
▁चिकित्सा	-2142
▁कंपन	-2143
▁वर्षात	-2144
ड़क	-2145
▁त्व	-2146
▁आयोजन	-2147
▁उसका	-2148
नुसार	-2149
▁आल्या	-2150
▁आकर्ष	-2151
िपक्षीय	-2152
▁प्रभावी	-2153
▁आजार	-2154
नेट	-2155
ड़ों	-2156
▁सत	-2157
ष्ट्रीय	-2158
▁व्ह	-2159
▁घेतला	-2160
▁येणार	-2161
सव	-2162
▁डो	-2163
्राष्ट्रीय	-2164
▁शै	-2165
▁हस्ता	-2166
▁किसानों	-2167
रिया	-2168
ूण	-2169
▁पक्ष	-2170
स्ती	-2171
▁पड़	-2172
▁बड़े	-2173
▁सरा	-2174
▁अर्प	-2175
▁मना	-2176
शान	-2177
▁A	-2178
काल	-2179
▁कल	-2180
▁अंग	-2181
▁आपली	-2182
क्रिय	-2183
सिद्ध	-2184
ऱ्यांना	-2185
▁प्रस्ताव	-2186
▁स्वच्छता	-2187
▁जनते	-2188
▁करतील	-2189
▁वृ	-2190
▁पोहो	-2191
▁अंम	-2192
▁भाष	-2193
▁नीति	-2194
ांशी	-2195
▁मंजुरी	-2196
▁त्यांचा	-2197
िज्य	-2198
ेलन	-2199
▁द्विपक्षीय	-2200
▁महिन	-2201
▁अंतर्राष्ट्रीय	-2202
▁मेरा	-2203
▁आशा	-2204
वेत	-2205
्याला	-2206
▁शी	-2207
सिक	-2208
▁दिशा	-2209
▁अधिका	-2210
बाद	-2211
▁खात	-2212
णिज्य	-2213
▁उपक्रम	-2214
▁विद्यार्थ	-2215
क्षे	-2216
▁सहायता	-2217
▁मिस	-2218
▁मिळेल	-2219
▁इथे	-2220
▁यरु	-2221
ाच्या	-2222
▁स्वतंत्र	-2223
▁समर्पित	-2224
▁वैज्ञानिक	-2225
▁लव	-2226
▁100	-2227
▁स्पर्	-2228
▁शत्र	-2229
ोरे	-2230
▁दिल	-2231
▁खास	-2232
▁देशाच्या	-2233
▁21	-2234
▁जन्म	-2235
▁भोजन	-2236
▁एवं	-2237
विले	-2238
▁शांत	-2239
▁चुन	-2240
▁तकनी	-2241
पान	-2242
रोध	-2243
▁नका	-2244
▁मात	-2245
▁वाच	-2246
▁उत्तम	-2247
▁वर्	-2248
▁बेहतर	-2249
▁ठे	-2250
▁नष्ट	-2251
स्क	-2252
▁निर्देश	-2253
ोर्ट	-2254
▁पायाभूत	-2255
पूर्वी	-2256
▁खर्च	-2257
▁वाणिज्य	-2258
ठे	-2259
▁बनाए	-2260
▁पहल	-2261
▁नीचे	-2262
▁शेतक	-2263
ृत	-2264
श्वर	-2265
▁इससे	-2266
ंबर	-2267
▁रखा	-2268
▁खरी	-2269
▁दुष्ट	-2270
▁लक्षात	-2271
वण्यासाठी	-2272
▁निका	-2273
▁जंग	-2274
▁कोरोना	-2275
ar	-2276
▁कानून	-2277
▁धन्य	-2278
बंधन	-2279
▁होना	-2280
▁सकती	-2281
▁202	-2282
▁हात	-2283
▁सुंदर	-2284
िश	-2285
in	-2286
▁नम	-2287
▁सफल	-2288
▁यांना	-2289
ळख	-2290
▁देवाने	-2291
▁म्हटले	-2292
▁संपर्	-2293
▁छात्र	-2294
▁पोर्ट	-2295
▁चाच	-2296
▁पेश	-2297
▁डे	-2298
▁निम	-2299
दर्शक	-2300
▁संदर्	-2301
▁आम्हाला	-2302
▁बुन	-2303
▁आग	-2304
▁स्वर्ग	-2305
▁याचा	-2306
▁ऐसे	-2307
▁अज	-2308
▁नाश	-2309
▁दुर्	-2310
▁सम्मेलन	-2311
▁मित्रांनो	-2312
▁वाईट	-2313
▁परिषदे	-2314
िरी	-2315
किंग	-2316
▁लक्ष्य	-2317
▁सश	-2318
शिवाय	-2319
णारी	-2320
▁खे	-2321
▁-19	-2322
▁बरे	-2323
▁विन	-2324
▁16	-2325
सो	-2326
▁दुसऱ्या	-2327
▁N	-2328
▁मंत्रिमंडळ	-2329
▁अंतर्गत	-2330
ल्स	-2331
▁वर्ग	-2332
▁कोणत्या	-2333
▁ट्रे	-2334
▁न्या	-2335
▁सुधारणा	-2336
▁चांगले	-2337
▁अतिरिक्त	-2338
वाई	-2339
▁उद्देश्य	-2340
▁बचा	-2341
कर्	-2342
▁बताया	-2343
▁भु	-2344
▁बड़ा	-2345
्यांची	-2346
▁दरम्यान	-2347
▁पश्चिम	-2348
▁बैठकी	-2349
ज्ञाना	-2350
▁देगा	-2351
▁नेह	-2352
ंदी	-2353
वहन	-2354
▁अतिशय	-2355
न्फ	-2356
▁बुद्ध	-2357
▁सन्	-2358
ज्ज	-2359
▁करण्याच्या	-2360
▁वैद्य	-2361
वू	-2362
▁एफ	-2363
म्मू	-2364
▁मंत्रिमंडल	-2365
पन	-2366
▁औषध	-2367
▁समझौता	-2368
▁पोहोच	-2369
▁प्रतिबद्ध	-2370
ल्ड	-2371
चीन	-2372
▁बाल	-2373
स्तान	-2374
ैर	-2375
्यावर	-2376
▁संकट	-2377
रित	-2378
ूर्	-2379
स्वी	-2380
▁1.	-2381
ंद्र	-2382
▁एप्रिल	-2383
र्फ	-2384
▁इसका	-2385
रुद्ध	-2386
ंतर्गत	-2387
▁करण्याचा	-2388
ियादी	-2389
▁ऑन	-2390
दों	-2391
▁समज	-2392
▁वाप	-2393
▁अत्य	-2394
▁वर्तमान	-2395
▁संपर्क	-2396
उन	-2397
▁कैसे	-2398
▁घेतली	-2399
▁प्रसिद्ध	-2400
▁बुनियादी	-2401
▁समाधान	-2402
▁स्पष्ट	-2403
▁यरुशलेम	-2404
श्मीर	-2405
▁मुक्त	-2406
▁सामना	-2407
▁जरूर	-2408
▁सहित	-2409
्यांमध्ये	-2410
▁17	-2411
स्पर	-2412
▁करके	-2413
▁दिवशी	-2414
▁चुनौ	-2415
▁'	-2416
▁उत्पन्न	-2417
▁पौ	-2418
्रिक	-2419
▁पाहिले	-2420
्याचा	-2421
शेने	-2422
जावणी	-2423
▁पहुंच	-2424
मारे	-2425
▁उससे	-2426
▁पर्यटक	-2427
▁ऋ	-2428
लबजावणी	-2429
▁चला	-2430
ळून	-2431
▁मिला	-2432
▁लॉकडा	-2433
▁लेने	-2434
▁0	-2435
▁जम्मू	-2436
कारात्मक	-2437
▁नेहमी	-2438
▁ठिकाणी	-2439
▁छोड़	-2440
▁पूर्वी	-2441
ुकी	-2442
चर	-2443
▁दूसरे	-2444
▁युद्ध	-2445
▁सला	-2446
▁बिना	-2447
▁रखने	-2448
▁क्षेत्रातील	-2449
▁समूह	-2450
▁प्रेम	-2451
▁अंमलबजावणी	-2452
एसटी	-2453
▁आशी	-2454
▁दर्श	-2455
▁आवाहन	-2456
▁नेतृत्व	-2457
चीत	-2458
▁सामंज	-2459
▁उदा	-2460
▁करीन	-2461
लीन	-2462
▁दया	-2463
▁अधिकारियों	-2464
सारख्या	-2465
▁पहिल्या	-2466
▁यी	-2467
्यांचे	-2468
णासाठी	-2469
▁असतात	-2470
▁हमेशा	-2471
लभ	-2472
▁गिर	-2473
▁नवा	-2474
▁रंग	-2475
▁परियोजनाओं	-2476
▁विभा	-2477
दू	-2478
ष्क	-2479
▁कदम	-2480
▁असतो	-2481
▁अभिन	-2482
▁फार	-2483
▁यीशु	-2484
एच	-2485
▁आधुनिक	-2486
सू	-2487
▁धो	-2488
▁हृ	-2489
▁ओळख	-2490
▁एकूण	-2491
▁महीने	-2492
▁प्रयोगशा	-2493
▁आयुष	-2494
▁बिज	-2495
▁तल	-2496
▁मॉ	-2497
▁प्या	-2498
▁मुद	-2499
वृ	-2500
▁असो	-2501
▁अप्र	-2502
▁लघ	-2503
▁सके	-2504
▁वैद्यकीय	-2505
▁घाल	-2506
▁लागत	-2507
▁गण	-2508
▁इत्या	-2509
▁तेरा	-2510
▁देशभर	-2511
▁अभ्यास	-2512
▁आशीर्	-2513
▁अध्यक्षता	-2514
▁ताक	-2515
▁बातचीत	-2516
▁सामंजस्य	-2517
▁नुक	-2518
▁निधी	-2519
▁लाभार्थ	-2520
▁पैदा	-2521
▁स्टार्ट	-2522
ंख	-2523
▁लवकर	-2524
वाल	-2525
ंदन	-2526
▁वें	-2527
▁मध्यम	-2528
▁सौर	-2529
धान्य	-2530
मार्ग	-2531
हां	-2532
▁मोठी	-2533
▁दिखा	-2534
▁उदाहर	-2535
▁शकते	-2536
▁इतिहास	-2537
▁आव्ह	-2538
▁प्रयासों	-2539
▁खाली	-2540
▁मिले	-2541
▁आँ	-2542
▁जगा	-2543
बाब	-2544
▁उत्त	-2545
▁सूर्य	-2546
केल	-2547
्ले	-2548
▁नव्या	-2549
▁तुम्हांला	-2550
िनी	-2551
▁गुंतवणूक	-2552
▁200	-2553
दिष्ट	-2554
थी	-2555
▁मोठे	-2556
▁धर्म	-2557
्रि	-2558
गड	-2559
संद	-2560
▁जगह	-2561
अंतर्गत	-2562
जें	-2563
▁माझी	-2564
्याची	-2565
▁परिस्थिती	-2566
▁महिलाओं	-2567
नाव	-2568
मधून	-2569
टल	-2570
▁करताना	-2571
▁पता	-2572
▁जिल्ह	-2573
▁जमीन	-2574
यां	-2575
▁सुमारे	-2576
▁हित	-2577
▁आहात	-2578
▁निर्यात	-2579
▁राहि	-2580
▁वेळी	-2581
▁आशीर्वाद	-2582
▁खेल	-2583
▁भाइयों	-2584
▁सेना	-2585
▁सक्रिय	-2586
▁वस्तू	-2587
▁कठ	-2588
▁जहा	-2589
-20	-2590
्‍	-2591
ेक्षा	-2592
▁सेवक	-2593
चान	-2594
लित	-2595
ऊद	-2596
▁यू	-2597
▁प्राचीन	-2598
अप	-2599
ोगे	-2600
▁दिल्या	-2601
वाब	-2602
विद्या	-2603
ड़ने	-2604
▁असतील	-2605
सत	-2606
वर्ष	-2607
वर्धन	-2608
थमिक	-2609
▁घ्या	-2610
▁प्रगति	-2611
▁प्रकारे	-2612
हीत	-2613
▁प्रश्	-2614
ल्क	-2615
▁तेजी	-2616
▁वाता	-2617
▁कार्यान	-2618
▁दें	-2619
▁साझा	-2620
▁प्राथमिक	-2621
▁प्रबंधन	-2622
▁भ्र	-2623
▁कार्यान्व	-2624
क्क	-2625
▁मोठा	-2626
▁शिखर	-2627
सल	-2628
▁जहां	-2629
▁बधा	-2630
णाच्या	-2631
▁नियंत्रण	-2632
धारित	-2633
▁अच्छा	-2634
▁दाऊद	-2635
▁बधाई	-2636
▁करावे	-2637
▁वाहतूक	-2638
ारोह	-2639
▁हिस्सा	-2640
▁श्रे	-2641
▁करणाऱ्या	-2642
णाला	-2643
▁स्म	-2644
▁2016	-2645
▁तंत्रज्ञाना	-2646
▁आधी	-2647
सारखे	-2648
००	-2649
▁यांचे	-2650
▁आपकी	-2651
▁प्रतिशत	-2652
ईन	-2653
▁रहने	-2654
▁जाणार	-2655
▁प्रगती	-2656
ुओं	-2657
▁जयंती	-2658
▁``	-2659
▁विज	-2660
▁होतील	-2661
▁नों	-2662
▁गड	-2663
▁ज्ञापन	-2664
▁शासन	-2665
▁दृष्टिक	-2666
तिहासिक	-2667
खित	-2668
्याचे	-2669
▁आलेल्या	-2670
लाइन	-2671
▁दृष्टि	-2672
▁सरकारच्या	-2673
ांब	-2674
▁तत्	-2675
▁संत	-2676
ूँ	-2677
▁लाल	-2678
▁मान्यता	-2679
▁सुन	-2680
▁खुशी	-2681
▁घाटन	-2682
स्कृतिक	-2683
▁सदस	-2684
▁अवधि	-2685
▁डाल	-2686
▁उनका	-2687
▁शकत	-2688
▁दावीद	-2689
▁सिर	-2690
▁ईश्वर	-2691
साद	-2692
▁ऐतिहासिक	-2693
ेच्या	-2694
▁जाएगी	-2695
लेक्ट	-2696
▁सड़क	-2697
▁वंश	-2698
▁मांस	-2699
▁यरू	-2700
▁निवास	-2701
ोम	-2702
▁अच्छी	-2703
ियां	-2704
▁जल्	-2705
णू	-2706
ग्री	-2707
▁टन	-2708
▁रण	-2709
▁संगठ	-2710
क्षर	-2711
▁पीछ	-2712
▁परिवहन	-2713
ांज	-2714
िमित्त	-2715
▁उदाहरण	-2716
्याह	-2717
ूद	-2718
▁31	-2719
▁न्याया	-2720
▁प्रवास	-2721
ंता	-2722
▁घरा	-2723
▁चांगल्या	-2724
▁गौर	-2725
▁मिसर	-2726
▁हाला	-2727
▁इसी	-2728
▁उभार	-2729
▁पुढील	-2730
▁महि	-2731
▁प्रसारण	-2732
गु	-2733
▁अथ	-2734
्रास	-2735
▁सैनिक	-2736
▁यरूशलेम	-2737
▁सें	-2738
▁शक्य	-2739
वण्यात	-2740
▁समी	-2741
▁शकतात	-2742
▁सांस्कृतिक	-2743
▁सकारात्मक	-2744
▁रू	-2745
▁गुणव	-2746
▁पट	-2747
वाला	-2748
▁कभी	-2749
▁फ्र	-2750
▁यावर	-2751
▁इत्यादी	-2752
हरे	-2753
▁माणसा	-2754
▁डॉक्टर	-2755
▁नियमित	-2756
▁पदार्थ	-2757
▁आवाज	-2758
▁कार्यक्रमा	-2759
▁कॅ	-2760
▁मौजू	-2761
▁इलेक्ट	-2762
▁छोटे	-2763
डिया	-2764
म्मी	-2765
▁किन	-2766
दु	-2767
▁अलग	-2768
▁करील	-2769
▁कळ	-2770
▁प्रशंसा	-2771
▁केंद्रित	-2772
क्शन	-2773
▁आहेस	-2774
▁मूसा	-2775
्यांवर	-2776
▁बैंक	-2777
ोस	-2778
न्व	-2779
▁जुलै	-2780
▁प्रदर्शन	-2781
▁कल्प	-2782
▁इथ	-2783
.0	-2784
▁गंगा	-2785
्यांचा	-2786
ग्रहा	-2787
संधान	-2788
▁वेदी	-2789
▁गं	-2790
▁कामा	-2791
▁उद्दिष्ट	-2792
भाल	-2793
▁शहरों	-2794
▁व्याव	-2795
िष्ठ	-2796
▁शुभे	-2797
हिम	-2798
▁भागात	-2799
▁माणूस	-2800
▁दश	-2801
▁अनुसंधान	-2802
ूर्ति	-2803
▁अस्प	-2804
▁जातो	-2805
ंगी	-2806
▁भाई	-2807
▁उनसे	-2808
at	-2809
स्ट्र	-2810
ंमध्ये	-2811
▁यांचा	-2812
ष्टा	-2813
▁गुरु	-2814
▁विषय	-2815
▁प्रतिक	-2816
▁नोंद	-2817
▁वितरण	-2818
ेद	-2819
▁वाटते	-2820
▁ली	-2821
्राम	-2822
▁हाल	-2823
▁शक्ती	-2824
टने	-2825
▁उम्मी	-2826
.5	-2827
▁धा	-2828
▁नाय	-2829
▁किती	-2830
▁फै	-2831
▁खाद्य	-2832
▁लोकां	-2833
▁करेल	-2834
▁कोणत्याही	-2835
एगा	-2836
ताल	-2837
▁स्वतः	-2838
शाली	-2839
▁तुलना	-2840
हना	-2841
▁पुस्त	-2842
▁पॅ	-2843
▁धन्यवाद	-2844
▁राहा	-2845
▁वाला	-2846
थम	-2847
ल्पा	-2848
▁तीस	-2849
▁समारोह	-2850
▁येते	-2851
▁स्वातंत्र	-2852
क्ता	-2853
ात्मा	-2854
▁दूंगा	-2855
ोब	-2856
▁शुभ	-2857
▁जाण	-2858
▁वहाँ	-2859
▁उपकरण	-2860
गिरी	-2861
रत	-2862
▁कट	-2863
▁पोह	-2864
▁जिसके	-2865
▁जित	-2866
▁गतिविध	-2867
▁22	-2868
▁कने	-2869
▁तुमचा	-2870
▁शुभेच्छा	-2871
भीर	-2872
ीन	-2873
इड	-2874
वों	-2875
▁वरिष्ठ	-2876
▁असताना	-2877
-2	-2878
▁गि	-2879
▁वातावरण	-2880
ठीक	-2881
▁दौरा	-2882
नान	-2883
साथ	-2884
▁एखाद्या	-2885
▁बरो	-2886
▁कंपनी	-2887
▁अर	-2888
▁फक्त	-2889
▁सर्वे	-2890
▁ठीक	-2891
्ये	-2892
▁देतो	-2893
▁मिस्र	-2894
▁उम्मीद	-2895
▁जाएंगे	-2896
30	-2897
तेखाली	-2898
▁दवा	-2899
▁याची	-2900
मर	-2901
▁मेट	-2902
▁पहली	-2903
▁लेकर	-2904
▁मंदिरा	-2905
▁कायम	-2906
▁रोक	-2907
▁हिमा	-2908
▁महोत्	-2909
▁जिन्होंने	-2910
▁D	-2911
व्ह	-2912
▁जहाँ	-2913
ऊल	-2914
कां	-2915
िकल	-2916
▁काल	-2917
▁सुना	-2918
कृष्ट	-2919
▁यंत्र	-2920
▁यांची	-2921
▁प्रस	-2922
▁डॉल	-2923
लंब	-2924
▁महत्त्व	-2925
अर	-2926
सायिक	-2927
▁अध्यक्षतेखाली	-2928
▁लघु	-2929
▁भाषण	-2930
▁भीतर	-2931
▁परमेश्वराच्या	-2932
ित्व	-2933
ंटे	-2934
▁दिए	-2935
▁मंच	-2936
तः	-2937
्टी	-2938
▁प्रदर्श	-2939
▁यहु	-2940
▁औद्योग	-2941
▁घरे	-2942
रूप	-2943
▁28	-2944
▁हवे	-2945
▁वर्षे	-2946
▁लोकांच्या	-2947
▁सिद्ध	-2948
र्न	-2949
▁परस्पर	-2950
▁इज़	-2951
▁एकम	-2952
▁दृष्टिको	-2953
▁लढा	-2954
▁राही	-2955
di	-2956
ेला	-2957
ढी	-2958
ॉक	-2959
▁घेतले	-2960
काळी	-2961
▁मामले	-2962
▁दर्शन	-2963
कूल	-2964
▁मोशे	-2965
▁उद्यम	-2966
▁दह	-2967
▁सामर्थ	-2968
▁शोक	-2969
▁आदिवासी	-2970
▁राजस्थान	-2971
▁ऑग	-2972
▁समुद	-2973
▁देवाच्या	-2974
▁करूंगा	-2975
▁अंध	-2976
▁भूमी	-2977
▁संसाधन	-2978
कात	-2979
ष्ण	-2980
▁आमचे	-2981
▁न्यू	-2982
er	-2983
गो	-2984
▁आपूर्ति	-2985
▁त्यात	-2986
▁असलेले	-2987
ारंभ	-2988
्यातील	-2989
▁स्त्री	-2990
as	-2991
▁थो	-2992
ढावा	-2993
▁रोगी	-2994
▁मोबा	-2995
▁विदेशी	-2996
▁संबंधों	-2997
राइल	-2998
▁प्रेरणा	-2999
▁तरीके	-3000
▁तुमचे	-3001
▁जाओ	-3002
▁पुरवठा	-3003
▁स्थानी	-3004
▁नागरिकों	-3005
त्मक	-3006
▁देना	-3007
▁गोष्ट	-3008
▁माहीत	-3009
▁बाय	-3010
▁शुरु	-3011
▁गंभीर	-3012
▁शुद्ध	-3013
▁प्रभावित	-3014
▁महात्मा	-3015
▁गुणवत्ता	-3016
▁विशा	-3017
▁1,	-3018
▁औद्योगिक	-3019
र्गिक	-3020
▁अत्यंत	-3021
ियर	-3022
▁शहरी	-3023
धारण	-3024
▁निकाल	-3025
मारी	-3026
▁युवक	-3027
▁आपने	-3028
ल्याने	-3029
▁संग्रहा	-3030
▁बळ	-3031
पत्र	-3032
▁लहान	-3033
▁म्हणतो	-3034
▁प्रतिनिध	-3035
क्या	-3036
▁इसकी	-3037
▁परंप	-3038
मति	-3039
मिनी	-3040
▁युवाओं	-3041
▁छात्रों	-3042
त्ति	-3043
▁बजा	-3044
चारी	-3045
मंड	-3046
ड्या	-3047
▁लंब	-3048
▁हमारा	-3049
▁जानकारी	-3050
ढ़ा	-3051
▁26	-3052
▁वाह	-3053
बू	-3054
▁आदर	-3055
▁मुझ	-3056
रीय	-3057
▁राख	-3058
▁माणस	-3059
▁कॉन्फ	-3060
▁संक्रम	-3061
▁आढावा	-3062
ैसर्गिक	-3063
▁बल	-3064
ँचा	-3065
िक्	-3066
▁पांच	-3067
▁प्रती	-3068
▁बिजली	-3069
दया	-3070
वधान	-3071
▁अभी	-3072
▁आतंक	-3073
▁पशु	-3074
▁बरोबर	-3075
▁ब्रिक्स	-3076
▁प्रमाणात	-3077
▁सभा	-3078
▁इच्छ	-3079
ुण	-3080
▁इंटर	-3081
विद्यालय	-3082
▁व्यावसायिक	-3083
▁अर्पण	-3084
▁फॉ	-3085
▁होतात	-3086
▁उपायय	-3087
50	-3088
बिनेट	-3089
▁एमएस	-3090
▁गेली	-3091
लाच्या	-3092
▁मुख्यमंत्री	-3093
▁प्रक	-3094
▁उपराष्ट्रपती	-3095
▁पुल	-3096
▁संदे	-3097
▁स्वामी	-3098
▁पत्थ	-3099
▁इसमें	-3100
त्त	-3101
रुन	-3102
▁ख्रि	-3103
▁शास	-3104
▁चाचणी	-3105
▁प्रत्यक्ष	-3106
ब्ल	-3107
▁नैसर्गिक	-3108
▁कार्यान्वयन	-3109
▁शुरुआ	-3110
▁होऊन	-3111
▁मंत्रिमंडळा	-3112
बह	-3113
▁गाँ	-3114
▁यशस्वी	-3115
▁दृष्टीने	-3116
जरा	-3117
▁रणनी	-3118
▁आभार	-3119
कान	-3120
▁जबकि	-3121
▁द्वार	-3122
▁जमा	-3123
र्भात	-3124
▁क्रम	-3125
वर्षी	-3126
▁2014	-3127
▁ऑगस्ट	-3128
▁ढांचे	-3129
▁वीं	-3130
▁आराम	-3131
▁साझे	-3132
राच्या	-3133
▁प्रश्न	-3134
▁संभाव	-3135
रल	-3136
▁जम	-3137
▁लौ	-3138
▁दिशेने	-3139
▁थेट	-3140
▁एक्स	-3141
▁शिष	-3142
▁जमिनी	-3143
▁सुलभ	-3144
▁लढ	-3145
▁फायदा	-3146
▁विभागा	-3147
दूत	-3148
▁दहशत	-3149
नाला	-3150
ोव्ह	-3151
कालीन	-3152
▁आकार	-3153
▁निकल	-3154
▁मृत्यु	-3155
▁प्रशासन	-3156
▁महत्त्वा	-3157
ांमुळे	-3158
▁लगे	-3159
▁रस्ते	-3160
▁योजन	-3161
.20	-3162
त्री	-3163
▁बाजू	-3164
▁मुले	-3165
▁हृदय	-3166
▁करेगी	-3167
▁सर्वेक्षण	-3168
एमई	-3169
प्प	-3170
▁इला	-3171
मंत्र	-3172
▁अंतिम	-3173
▁काळजी	-3174
▁समुदाय	-3175
▁पहचान	-3176
▁चीजों	-3177
ायी	-3178
िनियम	-3179
▁प्रभू	-3180
▁समीक्षा	-3181
▁आवास	-3182
▁जबाब	-3183
▁सराहना	-3184
ायला	-3185
▁सेवाओं	-3186
▁यांच्यात	-3187
सभा	-3188
▁ज़	-3189
निर्माण	-3190
वेल	-3191
▁आढ	-3192
समोर	-3193
▁निपट	-3194
कृति	-3195
▁उड	-3196
▁तिच्या	-3197
दृ	-3198
लम	-3199
▁दूध	-3200
हारना	-3201
▁विशिष्ट	-3202
▁उचल	-3203
▁माता	-3204
▁लाने	-3205
जात	-3206
्यो	-3207
▁अभिनंदन	-3208
▁आव्हान	-3209
▁उत्पादक	-3210
वेदन	-3211
डर	-3212
▁फल	-3213
▁हस्ते	-3214
पात	-3215
ार्मिक	-3216
राध	-3217
ाचे	-3218
▁नेट	-3219
▁नुकसान	-3220
लग	-3221
▁आकाश	-3222
▁याच	-3223
▁जिससे	-3224
▁प्रोत्साहित	-3225
वासा	-3226
ियल	-3227
▁पात	-3228
▁खरेदी	-3229
▁इज़राइल	-3230
▁27	-3231
▁अश	-3232
प्ता	-3233
नाचे	-3234
▁पर्वत	-3235
▁एकत्रित	-3236
▁भारतातील	-3237
ेटा	-3238
▁एकी	-3239
▁३	-3240
▁उभ	-3241
ड़ाई	-3242
▁–	-3243
▁सेव	-3244
▁सेवन	-3245
▁गैस	-3246
▁भाषा	-3247
▁राहील	-3248
▁ज्यादा	-3249
▁मीडिया	-3250
▁आदान	-3251
▁लांब	-3252
▁देखने	-3253
▁सन्मान	-3254
▁विद्य	-3255
दरम्यान	-3256
▁धार्मिक	-3257
▁चालू	-3258
म्र	-3259
▁होत्या	-3260
क्ष्म	-3261
▁ताकत	-3262
▁23	-3263
्रोल	-3264
▁विश्	-3265
▁म्हणजेच	-3266
▁सर्वोत्	-3267
▁स्मार्ट	-3268
▁बिल	-3269
ल्यावर	-3270
▁व्यवस्थापन	-3271
वर्क	-3272
▁गाव	-3273
्यासाठी	-3274
▁स्थिर	-3275
..	-3276
▁तेज	-3277
▁राष्ट्रा	-3278
▁उर्	-3279
▁जाऊन	-3280
▁प्रस्त	-3281
▁बोला	-3282
▁सहा	-3283
▁ऐसी	-3284
▁गैर	-3285
▁पुरुषों	-3286
▁B	-3287
▁बँक	-3288
▁समित	-3289
▁संस्कृति	-3290
▁मंत्रालयाने	-3291
▁धर	-3292
▁ठेवा	-3293
हक	-3294
▁नको	-3295
माने	-3296
▁करावा	-3297
▁जानते	-3298
▁जीवित	-3299
सन	-3300
▁छा	-3301
▁देखभाल	-3302
ट्टी	-3303
▁जीएसटी	-3304
▁अना	-3305
▁पीछे	-3306
▁उद्यान	-3307
▁प्रेरित	-3308
सेल	-3309
ॉर्ड	-3310
▁पोहच	-3311
▁सोने	-3312
▁आँख	-3313
▁पसर	-3314
कृतिक	-3315
बरोबरच	-3316
▁नवाचार	-3317
दित	-3318
्षिक	-3319
▁सत्र	-3320
▁कैबिनेट	-3321
▁निर्धारित	-3322
▁सर्वश	-3323
▁चालना	-3324
▁बंगा	-3325
ुती	-3326
▁देऊ	-3327
▁कर्ज	-3328
▁जानेवारी	-3329
▁मीटर	-3330
▁करण्यास	-3331
थून	-3332
र्घ	-3333
ंडी	-3334
▁नेताओं	-3335
▁धु	-3336
▁नायडू	-3337
ियान	-3338
▁सतत	-3339
▁तरुण	-3340
▁महस	-3341
▁अधिनियम	-3342
▁प्रतिबंध	-3343
पूर्वक	-3344
▁संस्थान	-3345
▁तों	-3346
▁प्रथम	-3347
ेने	-3348
▁माँ	-3349
▁नावा	-3350
▁स्थानीय	-3351
यरस	-3352
▁आग्रह	-3353
▁इमार	-3354
▁जातील	-3355
वित	-3356
▁भवन	-3357
▁लागले	-3358
▁वर्षी	-3359
▁वड	-3360
एंगे	-3361
सोबत	-3362
▁निजी	-3363
al	-3364
मण	-3365
्यु	-3366
▁राहत	-3367
▁एकदा	-3368
▁हस्ताक्षर	-3369
▁2022	-3370
▁उत्सा	-3371
▁पत्नी	-3372
▁दृष्टिकोण	-3373
▁डाला	-3374
▁समिती	-3375
▁स्थापन	-3376
▁कहता	-3377
▁सेंटर	-3378
▁मण	-3379
▁ठेवले	-3380
▁40	-3381
▁नग	-3382
▁अर्थव्यवस्थ	-3383
डु	-3384
र्क	-3385
▁रिप	-3386
▁हर्ष	-3387
▁समन्व	-3388
▁वेगाने	-3389
▁प्राकृतिक	-3390
▁दर्द	-3391
▁अत्या	-3392
▁सांगतो	-3393
▁साझेदारी	-3394
▁कल्पना	-3395
▁मुद्दों	-3396
▁थांब	-3397
▁संस्थानों	-3398
णाचे	-3399
▁विरा	-3400
स्व	-3401
▁कवर	-3402
▁साइ	-3403
▁रखते	-3404
▁मिळाली	-3405
▁सर्वांना	-3406
माल	-3407
▁जातात	-3408
▁उपराष्ट्रपति	-3409
▁ऋण	-3410
▁शत	-3411
ासून	-3412
▁श्रम	-3413
▁जिसने	-3414
र्श	-3415
ाची	-3416
जारी	-3417
क्षणिक	-3418
▁स्थिती	-3419
नाचा	-3420
▁क्री	-3421
▁जागा	-3422
▁यहूदी	-3423
▁परंपरा	-3424
ैव	-3425
ारण	-3426
▁मिन	-3427
▁संदर्भ	-3428
▁प्रकल्पा	-3429
यिक	-3430
▁विशाल	-3431
ov	-3432
▁उत	-3433
▁बैठकीत	-3434
िओ	-3435
ॉट	-3436
देन	-3437
▁खरीद	-3438
▁भेजा	-3439
गाव	-3440
▁घटना	-3441
▁पासून	-3442
▁विदेश	-3443
▁पोर्टल	-3444
ब्ज	-3445
▁रहता	-3446
▁बिहार	-3447
बो	-3448
वरुन	-3449
▁वारा	-3450
▁मानसिक	-3451
ातार	-3452
▁अग्र	-3453
▁असेही	-3454
▁तुमची	-3455
▁एज	-3456
लावधी	-3457
▁त्रास	-3458
ेशी	-3459
▁29	-3460
ऊंगा	-3461
▁निहारना	-3462
▁शेतकरी	-3463
▁G	-3464
▁विषा	-3465
▁नोव्ह	-3466
▁बलि	-3467
▁तिला	-3468
▁शुरुआत	-3469
ळू	-3470
▁अगदी	-3471
मधल्या	-3472
▁चरण	-3473
▁मात्रा	-3474
▁कालावधी	-3475
▁भारताचे	-3476
▁मांग	-3477
▁उत्कृष्ट	-3478
▁स्वतंत्रता	-3479
▁बौ	-3480
्रॉन	-3481
क्टोबर	-3482
▁बघ	-3483
▁देणे	-3484
▁चाहते	-3485
▁तलवार	-3486
यचे	-3487
वादी	-3488
▁पलि	-3489
▁तेरे	-3490
सुद्धा	-3491
्टेंबर	-3492
▁घटक	-3493
▁जला	-3494
▁लेवी	-3495
▁झु	-3496
▁शैक्षणिक	-3497
▁दहा	-3498
विषयक	-3499
▁नोव्हेंबर	-3500
▁मास्क	-3501
▁R	-3502
हीर	-3503
नासाठी	-3504
शू	-3505
ॅट	-3506
▁बहा	-3507
▁अर्थात	-3508
▁देशां	-3509
▁गट	-3510
▁सै	-3511
सेना	-3512
▁तुझी	-3513
▁वाहन	-3514
▁जवाब	-3515
▁दिलेल्या	-3516
बळ	-3517
फ्ट	-3518
▁राब	-3519
न्द्र	-3520
▁सप्टेंबर	-3521
कट्	-3522
▁आढळ	-3523
▁इकट्	-3524
▁संसद	-3525
इस	-3526
राई	-3527
▁तपास	-3528
▁गडकरी	-3529
▁भारती	-3530
राब	-3531
दियों	-3532
▁अंदा	-3533
▁पूजा	-3534
▁बहनों	-3535
▁मसी	-3536
▁जंगल	-3537
▁ग्राम	-3538
▁देखते	-3539
▁लॉकडाउन	-3540
▁२०	-3541
▁असं	-3542
▁बंगाल	-3543
▁मॉड	-3544
▁कार्	-3545
▁खत	-3546
▁शहा	-3547
▁संभव	-3548
विटी	-3549
.4	-3550
▁टीम	-3551
▁जागर	-3552
▁जण	-3553
▁विध	-3554
▁शकेल	-3555
▁महामार्	-3556
▁चां	-3557
फार	-3558
▁उत्स	-3559
▁तिथे	-3560
▁स्त्र	-3561
ंदोल	-3562
ंसाठी	-3563
▁अरु	-3564
▁गोवा	-3565
▁पीढ़	-3566
▁प्रवासी	-3567
स्त्रा	-3568
▁विरासत	-3569
▁वाज	-3570
▁मसीह	-3571
▁मांड	-3572
▁विद्यापी	-3573
▁श्रद्ध	-3574
▁कित	-3575
▁वार्षिक	-3576
▁मधु	-3577
▁वेब	-3578
▁सुबह	-3579
भाष	-3580
▁डिस	-3581
▁बेटे	-3582
▁लगातार	-3583
ळव	-3584
डियो	-3585
▁विधे	-3586
▁स्थानिक	-3587
दायक	-3588
▁बंदर	-3589
▁सफलता	-3590
ार्ड	-3591
▁हूँ	-3592
ृंख	-3593
▁शेव	-3594
▁प्रो	-3595
जि	-3596
केज	-3597
▁पहुँच	-3598
▁प्रतिबद्धता	-3599
▁गौरव	-3600
ीप	-3601
ेस	-3602
ब्रु	-3603
▁यामध्ये	-3604
शुद्ध	-3605
गम	-3606
वादा	-3607
▁हवामान	-3608
फ्	-3609
▁जाग	-3610
कामना	-3611
▁येतील	-3612
▁लाया	-3613
▁संतु	-3614
▁सल्ला	-3615
▁घेण्यात	-3616
गढ़	-3617
सों	-3618
भूमी	-3619
र्जी	-3620
प्रदान	-3621
▁करावी	-3622
▁रास्ते	-3623
▁स्थानों	-3624
गल	-3625
लीस	-3626
▁जिन्हें	-3627
वणे	-3628
▁उपा	-3629
▁होम	-3630
▁रस्त	-3631
▁आदेश	-3632
▁काफी	-3633
▁म्हणूनच	-3634
▁सही	-3635
▁गतिविधियों	-3636
▁बने	-3637
नेत	-3638
लाम	-3639
▁लगता	-3640
▁शकता	-3641
▁सलाह	-3642
ाराच्या	-3643
▁कौशल्य	-3644
▁ऑक्टोबर	-3645
▁क्षेत्रीय	-3646
▁75	-3647
▁क्ल	-3648
▁अथवा	-3649
▁द्रा	-3650
▁परिसर	-3651
▁उपयुक्त	-3652
▁अनि	-3653
▁वायु	-3654
ब्रुवारी	-3655
पद	-3656
▁चम	-3657
▁घरों	-3658
▁निरंतर	-3659
▁प्ले	-3660
▁कुठ	-3661
▁अप्रैल	-3662
.2	-3663
▁भारताने	-3664
ंवर	-3665
णाचा	-3666
स्टर	-3667
▁बंधू	-3668
▁कामगार	-3669
▁येणाऱ्या	-3670
ँड	-3671
▁हस्त	-3672
▁एंड	-3673
दना	-3674
करणीय	-3675
▁दूरी	-3676
▁इलेक्ट्रॉन	-3677
▁फेब्रुवारी	-3678
व्र	-3679
▁त्वचा	-3680
▁परमेश्वराला	-3681
▁मिलियन	-3682
▁सरकारों	-3683
▁दास	-3684
संबंध	-3685
▁एशिया	-3686
▁सर्वो	-3687
▁जल्द	-3688
▁आशिया	-3689
▁दीर्घ	-3690
▁पार्क	-3691
▁योजनाओं	-3692
▁डर	-3693
▁उसी	-3694
▁कुमार	-3695
▁त्र	-3696
हू	-3697
रीत	-3698
▁हल	-3699
ेचे	-3700
नाची	-3701
▁आंदोल	-3702
घड	-3703
णसी	-3704
क्षक	-3705
▁देखो	-3706
▁समाप्त	-3707
on	-3708
▁तट	-3709
▁रस	-3710
▁मनुष	-3711
▁तकनीकी	-3712
▁व्यवसाय	-3713
▁शुभकामना	-3714
▁अली	-3715
▁थीं	-3716
▁रोख	-3717
▁संकेत	-3718
▁रोगियों	-3719
क्सी	-3720
▁एमएसएमई	-3721
वंत	-3722
श्वत	-3723
▁दिल्लीत	-3724
▁डों	-3725
▁रात्री	-3726
▁नया	-3727
▁उभे	-3728
▁झार	-3729
▁श्रमिक	-3730
▁घात	-3731
▁मेड	-3732
▁भारताला	-3733
सायन	-3734
▁लॉन्	-3735
▁जागरूक	-3736
▁तास	-3737
▁फर	-3738
▁रहते	-3739
▁जगातील	-3740
▁वर्षां	-3741
यात	-3742
ाचा	-3743
▁नेटवर्क	-3744
▁री	-3745
▁पैसे	-3746
ांतर्गत	-3747
▁विश्वविद्यालय	-3748
▁आंध	-3749
▁होणाऱ्या	-3750
ृती	-3751
▁दर्जा	-3752
▁कर्मचारी	-3753
ैंड	-3754
▁चिंता	-3755
▁देंगे	-3756
▁वास्तव	-3757
जब	-3758
ोजक	-3759
ोरी	-3760
▁आमचा	-3761
▁प्रतिनिधी	-3762
▁मई	-3763
▁खोल	-3764
▁क्रोध	-3765
▁शिक्षक	-3766
▁मेट्रो	-3767
▁सूक्ष्म	-3768
▁मल	-3769
पथ	-3770
▁याको	-3771
▁माणसे	-3772
▁इस्राए	-3773
ृंखला	-3774
▁2015	-3775
निर्भर	-3776
वीन	-3777
▁70	-3778
▁जलवा	-3779
▁तुझा	-3780
▁तीव्र	-3781
▁मूल्या	-3782
▁संभावना	-3783
.1	-3784
▁स्रो	-3785
▁आसियान	-3786
▁मार्गा	-3787
▁पूछ	-3788
▁सिं	-3789
▁प्रिय	-3790
▁अपेक्षा	-3791
विण्यासाठी	-3792
▁युग	-3793
▁त्यानंतर	-3794
▁संचालन	-3795
नाटक	-3796
▁जाहीर	-3797
▁डेटा	-3798
म्मे	-3799
▁ऑनलाइन	-3800
यान	-3801
▁बौद्ध	-3802
ध्यक्ष	-3803
▁मूर्ख	-3804
▁शुल्क	-3805
▁पथ	-3806
▁चले	-3807
▁अगले	-3808
रेल	-3809
▁उंच	-3810
▁बांग	-3811
▁येऊन	-3812
▁सोडून	-3813
▁हिंद	-3814
▁नागरी	-3815
▁फु	-3816
▁जसे	-3817
▁रेड	-3818
▁श्रद्धांज	-3819
▁शत्रू	-3820
▁गरीबों	-3821
▁तुम्हारा	-3822
▁उचित	-3823
▁खून	-3824
▁उनमें	-3825
▁पर्वता	-3826
▁राज्यात	-3827
▁चुनौतियों	-3828
▁पाळ	-3829
▁अंतरा	-3830
▁परीक्षा	-3831
ndi	-3832
मर्श	-3833
▁कायदा	-3834
▁परमेश्वराचा	-3835
वेग	-3836
▁मेंढ	-3837
▁शांतता	-3838
▁पेट्रोल	-3839
th	-3840
ौन	-3841
▁काप	-3842
▁हिर	-3843
▁वाराणसी	-3844
िब	-3845
वें	-3846
▁रिपोर्ट	-3847
▁राजमार्ग	-3848
▁आतापर्यंत	-3849
▁गर्भ	-3850
▁कोर	-3851
▁जैसी	-3852
▁भुगत	-3853
▁केलेले	-3854
▁घरी	-3855
▁आपका	-3856
▁भागीदार	-3857
▁विवरण	-3858
घे	-3859
चं	-3860
▁मैदान	-3861
पि	-3862
▁गठ	-3863
▁आते	-3864
▁ब्ल	-3865
स्करण	-3866
▁पत्थर	-3867
▁प्रशास	-3868
▁शाश्वत	-3869
संदर्भात	-3870
बु	-3871
▁सूर	-3872
▁देशाला	-3873
▁याच्या	-3874
▁सर्वोच्च	-3875
▁प्रकारच्या	-3876
ंपर	-3877
तीला	-3878
▁समिति	-3879
▁विमानत	-3880
जोर	-3881
याला	-3882
▁दृढ	-3883
▁कुशल	-3884
काला	-3885
▁काट	-3886
▁खड़ा	-3887
▁बलिदान	-3888
▁राजधान	-3889
▁घेण्यासाठी	-3890
▁लिम	-3891
▁साफ	-3892
▁वापस	-3893
ांश	-3894
▁दोष	-3895
▁टक्क	-3896
▁परिवारों	-3897
▁मार्गदर्शक	-3898
बन	-3899
पुढे	-3900
▁देईल	-3901
ापासून	-3902
▁लक्षण	-3903
काच्या	-3904
▁हरिया	-3905
ानंतर	-3906
▁अशुद्ध	-3907
▁कर्नाटक	-3908
▁विरुद्ध	-3909
▁सुरुवात	-3910
▁विशेषज्ञ	-3911
▁अल्प	-3912
▁ईशान	-3913
▁कामगिरी	-3914
िटी	-3915
्यूट	-3916
▁बनव	-3917
▁दूसरी	-3918
▁लड़ाई	-3919
▁व्यक्तियों	-3920
▁भि	-3921
प्न	-3922
▁सशक्त	-3923
‍या	-3924
▁निघ	-3925
▁मुख	-3926
▁किमी	-3927
▁गर्व	-3928
▁लॉन्च	-3929
याह	-3930
लात	-3931
णावर	-3932
संख्या	-3933
▁शुभार	-3934
▁आमंत्र	-3935
▁कार्यों	-3936
▁चर	-3937
▁जैव	-3938
▁डिसेंबर	-3939
डून	-3940
▁हास	-3941
▁60	-3942
▁बज	-3943
▁बोलत	-3944
ारीरिक	-3945
▁जगभर	-3946
▁अपराध	-3947
▁चंद्र	-3948
▁जिम्मे	-3949
▁दस	-3950
▁कोल	-3951
▁सहाय्य	-3952
▁नै	-3953
▁आयात	-3954
▁जहाज	-3955
▁जलवायु	-3956
नेस	-3957
▁आयुष्य	-3958
▁मृत्यू	-3959
शास	-3960
णाची	-3961
▁हिस्से	-3962
▁शारीरिक	-3963
▁श्रृंखला	-3964
ेंशन	-3965
▁अजून	-3966
मिन	-3967
▁बर	-3968
▁सहज	-3969
▁५	-3970
▁घोषित	-3971
▁बाबेल	-3972
▁संचार	-3973
▁रिक	-3974
▁सत्य	-3975
▁आकां	-3976
▁समझौते	-3977
▁भारताची	-3978
▁सर्वोत्तम	-3979
▁तां	-3980
▁इकट्ठा	-3981
▁वीडियो	-3982
▁स्वप्न	-3983
णु	-3984
▁रक्षण	-3985
▁निर्मा	-3986
▁तत्व	-3987
▁येतात	-3988
▁साह	-3989
▁हाथों	-3990
▁उल	-3991
यारी	-3992
िर्म	-3993
ri	-3994
्वर	-3995
राज्य	-3996
▁सारी	-3997
प्रकार	-3998
▁सामर्थ्य	-3999
▁कैं	-4000
गरानी	-4001
▁आतंकवाद	-4002
न्या	-4003
▁दरवा	-4004
▁अच्छे	-4005
▁कार्ड	-4006
▁पातळी	-4007
▁चांगली	-4008
▁मूर्ती	-4009
▁अमेरिका	-4010
.3	-4011
▁पक	-4012
▁घंटे	-4013
▁चाहता	-4014
▁उत्तरा	-4015
▁पर्याप्त	-4016
▁मुली	-4017
▁संस्कृती	-4018
▁वाग	-4019
नगर	-4020
माग	-4021
▁आख	-4022
▁अवस्थ	-4023
▁महिमा	-4024
▁सैन्य	-4025
िटेड	-4026
▁चीन	-4027
▁पोषण	-4028
▁बोलते	-4029
▁देशातल्या	-4030
▁जगात	-4031
▁कोणीही	-4032
▁बदलाव	-4033
▁विधेयक	-4034
▁खोज	-4035
▁करणारे	-4036
▁प्रारंभ	-4037
▁झोप	-4038
▁खाज	-4039
▁होणे	-4040
▁भुगतान	-4041
▁निगरानी	-4042
्डा	-4043
▁ट्रेन	-4044
▁कर्त	-4045
▁ग्री	-4046
▁झारखंड	-4047
▁विषाणू	-4048
▁महामार्ग	-4049
▁एच	-4050
▁येऊ	-4051
▁संग्रहालय	-4052
▁स्वातंत्र्य	-4053
व्ही	-4054
▁हाता	-4055
ब्ल्यू	-4056
म्प	-4057
▁ऐकले	-4058
▁पुनरु	-4059
▁मागणी	-4060
▁लिमिटेड	-4061
▁खाने	-4062
▁निष्	-4063
▁आश्वास	-4064
▁शुभारंभ	-4065
▁जबाबदारी	-4066
डि	-4067
▁मानले	-4068
▁साध्य	-4069
▁छु	-4070
▁कोविद	-4071
▁*	-4072
▁हाती	-4073
▁महसूस	-4074
जण	-4075
▁दान	-4076
▁एकमेक	-4077
▁अस्पताल	-4078
ंकि	-4079
▁आणले	-4080
▁कनेक्ट	-4081
पाळ	-4082
▁यूर	-4083
.7	-4084
जल	-4085
्वा	-4086
ांतर	-4087
▁देणार	-4088
▁मान्य	-4089
▁कर्मचा	-4090
▁स्तरावर	-4091
▁राजधानी	-4092
.6	-4093
ंनो	-4094
ोट्या	-4095
▁निभा	-4096
▁वेळे	-4097
स्टम	-4098
▁निकट	-4099
▁सेवे	-4100
ानुसार	-4101
▁निम्न	-4102
▁संसाध	-4103
तेच्या	-4104
▁सुविधाओं	-4105
फत	-4106
▁एली	-4107
▁वेळा	-4108
▁कॉर्प	-4109
▁उत्साह	-4110
▁किस	-4111
▁देऊन	-4112
▁नेता	-4113
▁भगिनी	-4114
नावर	-4115
▁लोकांचा	-4116
▁सित	-4117
▁बोर्ड	-4118
टकों	-4119
देशक	-4120
सीसी	-4121
▁दिखाई	-4122
▁संगठन	-4123
▁बचत	-4124
▁स्मरण	-4125
▁समुद्री	-4126
▁प्रस्तुत	-4127
▁उतर	-4128
▁बेथ	-4129
▁स्थल	-4130
▁यिर्म	-4131
▁सरदार	-4132
तरी	-4133
▁दल	-4134
▁निरा	-4135
▁सांगा	-4136
निंग	-4137
▁यून	-4138
▁वजन	-4139
्रिया	-4140
▁साथी	-4141
▁पात्र	-4142
▁वर्षा	-4143
▁वृक्ष	-4144
▁चांगला	-4145
▁सदस्यों	-4146
▁गल	-4147
प्रिय	-4148
▁चांदी	-4149
▁लागेल	-4150
en	-4151
▁अटल	-4152
▁उर्वर	-4153
ूब	-4154
ंटी	-4155
नाम	-4156
▁नक्	-4157
▁माना	-4158
▁पद्धती	-4159
शनल	-4160
▁कसे	-4161
▁गरजे	-4162
▁आकर्षित	-4163
▁आश्च	-4164
ra	-4165
गामी	-4166
▁ताप	-4167
▁वीर	-4168
▁आहार	-4169
▁कृती	-4170
▁चुनाव	-4171
तांना	-4172
▁प्ला	-4173
▁दिसून	-4174
▁क्रीडा	-4175
▁विकासासाठी	-4176
यत	-4177
▁शाह	-4178
▁लिहि	-4179
▁प्राधिक	-4180
▁वास्तविक	-4181
▁मंत्रिमंडळाने	-4182
स्टी	-4183
▁अब्रा	-4184
▁यात्र	-4185
▁हालांकि	-4186
िये	-4187
▁अफ्री	-4188
वीत	-4189
हीम	-4190
स्वर	-4191
▁मरी	-4192
ळ्यात	-4193
▁भ्रष्टा	-4194
▁इस्राएलच्या	-4195
उंड	-4196
▁गी	-4197
▁फुट	-4198
▁फैस	-4199
▁सुख	-4200
शीलता	-4201
▁जिलों	-4202
▁स्वाक्ष	-4203
▁नवीकरणीय	-4204
▁आत्मनिर्भर	-4205
दाना	-4206
▁मानवी	-4207
▁शुभकामनाएं	-4208
गीत	-4209
िस्तान	-4210
▁विरोध	-4211
▁उत्पादों	-4212
▁उज	-4213
▁वीज	-4214
▁स्मारक	-4215
▁शौल	-4216
▁जनता	-4217
▁देवी	-4218
▁राहिला	-4219
जु	-4220
ोगी	-4221
▁कधीही	-4222
▁अबी	-4223
▁हार	-4224
▁येतो	-4225
▁शहरा	-4226
▁मिळणार	-4227
▁वेगवेग	-4228
▁2019-20	-4229
es	-4230
▁ग्राहक	-4231
ेन	-4232
ेशनल	-4233
▁तार	-4234
▁लगाने	-4235
▁४	-4236
▁पॉ	-4237
▁म्हणतात	-4238
▁अंतरिक्ष	-4239
▁सहकारी	-4240
▁साप	-4241
▁नौकर	-4242
वाश	-4243
▁डाय	-4244
स्टिक	-4245
वृत्ती	-4246
▁राहिले	-4247
▁महत्त्वपूर्ण	-4248
▁अख	-4249
▁पोल	-4250
▁वहां	-4251
▁जिसका	-4252
▁संदर्भात	-4253
▁तरफ	-4254
▁पाहा	-4255
▁लें	-4256
▁शपथ	-4257
▁अभिमान	-4258
ल्यानंतर	-4259
र्गा	-4260
▁उंची	-4261
▁आंदोलन	-4262
TI	-4263
कल	-4264
▁गॅ	-4265
▁वस	-4266
▁भेज	-4267
▁तोंड	-4268
▁मागे	-4269
पो	-4270
याच्या	-4271
▁आसानी	-4272
▁तुलनेत	-4273
चारा	-4274
▁विजय	-4275
टका	-4276
बंदी	-4277
▁आश्वासन	-4278
▁मुलांना	-4279
▁पुनर्	-4280
विरुद्ध	-4281
▁पद्धतीने	-4282
▁रुग्णालया	-4283
▁उद	-4284
लाईन	-4285
▁बीज	-4286
▁प्यार	-4287
▁मधुमे	-4288
▁संदेष्ट	-4289
▁कंपनियों	-4290
▁खंड	-4291
▁खड़े	-4292
▁गाँव	-4293
▁उजा	-4294
▁कौन	-4295
▁दुख	-4296
▁अमित	-4297
वरून	-4298
ंपरिक	-4299
▁स्टेशन	-4300
▁प्रदेशात	-4301
▁जरूरत	-4302
▁वितरित	-4303
▁घेऊ	-4304
▁यही	-4305
▁याचे	-4306
▁घरेलू	-4307
▁बीमारी	-4308
▁मोबाइल	-4309
▁नव्हे	-4310
संख्य	-4311
▁आमची	-4312
▁समाजा	-4313
▁उद्योजक	-4314
▁त्यावेळी	-4315
▁प्रतिक्रिया	-4316
▁ढा	-4317
करिता	-4318
▁सोच	-4319
▁कॉले	-4320
.8	-4321
▁मुद्रा	-4322
न्द	-4323
▁डॉलर	-4324
▁बनाई	-4325
▁संक्रमण	-4326
▁सिंग	-4327
▁बाजारपे	-4328
▁जाव	-4329
▁जेथे	-4330
ड़ियों	-4331
▁बीमार	-4332
▁तिस	-4333
▁श्रीलं	-4334
▁प्रतिष्ठ	-4335
▁पेट्रोलियम	-4336
▁नव्हते	-4337
ष्टि	-4338
▁बेटी	-4339
▁पूर्वज	-4340
शाला	-4341
▁बाळ	-4342
▁अनुमति	-4343
▁श्रेणी	-4344
▁देशांच्या	-4345
▁मार्गदर्शन	-4346
▁तुर	-4347
▁तक्र	-4348
▁विचारों	-4349
नर	-4350
▁उपभ	-4351
▁द्वीप	-4352
▁सप्ता	-4353
ानिमित्त	-4354
▁2018-19	-4355
ेत्र	-4356
▁कां	-4357
▁रोड	-4358
चित्र	-4359
िविटी	-4360
▁जवान	-4361
▁सादर	-4362
▁आदर्श	-4363
▁समन्वय	-4364
▁गर्म	-4365
▁शौचा	-4366
▁आश्चर्य	-4367
मोर	-4368
तेचा	-4369
▁गोयल	-4370
▁प्री	-4371
▁सर्वा	-4372
▁देवाची	-4373
▁महिन्यात	-4374
▁मंत्रालयाच्या	-4375
दिन	-4376
स्म	-4377
▁निवडण	-4378
▁अध्ययन	-4379
▁अनुमान	-4380
ल्ल्या	-4381
▁शकणार	-4382
▁आरा	-4383
▁अमेरिक	-4384
▁खुश	-4385
▁बर्	-4386
▁शिम	-4387
▁जिले	-4388
▁मेहन	-4389
▁सकें	-4390
▁प्राधान्य	-4391
ळाच्या	-4392
▁चीजें	-4393
▁संख्य	-4394
्यांसाठी	-4395
▁हस्तांतर	-4396
▁प्रयोगशाला	-4397
▁ठार	-4398
▁भारी	-4399
ंजी	-4400
▁भागा	-4401
▁शाऊल	-4402
▁उपायों	-4403
▁प्रसाद	-4404
▁प्रत्ये	-4405
▁वेत	-4406
▁शक्यता	-4407
चाल	-4408
▁फी	-4409
कडील	-4410
शाही	-4411
▁बुद्धि	-4412
▁स्वरूप	-4413
▁पार्श्व	-4414
ेवर	-4415
▁लोकांचे	-4416
▁ज्यामुळे	-4417
▁परमेश्वराची	-4418
▁लागला	-4419
▁पाय	-4420
▁पेर	-4421
▁लाइ	-4422
▁पाँच	-4423
रोज	-4424
▁नाग	-4425
▁साठी	-4426
लेट	-4427
▁घाटी	-4428
▁निघा	-4429
▁साधन	-4430
▁महत्वाचे	-4431
क्कम	-4432
त्रिक	-4433
▁कोशि	-4434
्यायला	-4435
▁हासिल	-4436
▁राज्यमंत्री	-4437
विन	-4438
▁भय	-4439
▁खाते	-4440
▁कार्यक्रमात	-4441
▁योजनेअंतर्गत	-4442
ंडा	-4443
भारत	-4444
▁दिवसा	-4445
▁संध्या	-4446
▁मंदिरात	-4447
▁पहला	-4448
▁आसपास	-4449
▁प्राथमिकता	-4450
▁पाड	-4451
▁फॉर	-4452
चारियों	-4453
▁जख	-4454
▁राजनी	-4455
िसू	-4456
▁वज	-4457
▁आसा	-4458
▁संघर्ष	-4459
▁कार्यरत	-4460
जित	-4461
द्द	-4462
▁अश्	-4463
स्तर	-4464
ॉर्म	-4465
▁कोरिया	-4466
▁स्वस्थ	-4467
▁शेतकऱ्यांना	-4468
ोरेट	-4469
▁देखरे	-4470
▁पुलिस	-4471
▁लोकप्रिय	-4472
,5	-4473
लेस	-4474
▁धर्	-4475
ऱ्यांनी	-4476
▁निपटने	-4477
▁संबंधी	-4478
▁राहू	-4479
▁35	-4480
▁तला	-4481
▁बाग	-4482
▁कठोर	-4483
▁मौसम	-4484
▁अवलंब	-4485
प्रकारे	-4486
▁त्यावर	-4487
▁मौजूदा	-4488
ंकर	-4489
▁पेक्षा	-4490
ay	-4491
▁उघड	-4492
▁लाव	-4493
▁Indi	-4494
▁बुला	-4495
▁अधिसू	-4496
▁कोशिश	-4497
▁सकाळी	-4498
▁समोर	-4499
▁असलेली	-4500
▁कश्मीर	-4501
?";	-4502
्लो	-4503
▁खरो	-4504
▁शान	-4505
▁सिंगा	-4506
▁देशभरात	-4507
ण्ड	-4508
पटा	-4509
▁पोट	-4510
▁एयर	-4511
▁जागरूकता	-4512
देव	-4513
▁चक्र	-4514
▁देवाला	-4515
▁केंद्रा	-4516
▁(1	-4517
्वान	-4518
▁बनने	-4519
▁मिळते	-4520
▁सहभाग	-4521
▁कनेक्टिविटी	-4522
बला	-4523
न्ना	-4524
▁पित	-4525
▁रचना	-4526
▁नागरिकांना	-4527
भि	-4528
▁बजट	-4529
▁आपत्ती	-4530
▁देशवास	-4531
▁याला	-4532
▁पारंपरिक	-4533
-18	-4534
ेचा	-4535
▁भांड	-4536
▁वाटत	-4537
▁विवे	-4538
▁मौजूद	-4539
▁कायद्या	-4540
▁अहम	-4541
▁शिकाय	-4542
्राइ	-4543
▁टप्प	-4544
▁वाढव	-4545
▁शीर्ष	-4546
▁आयुर्व	-4547
▁सामग्री	-4548
▁पंतप्रधानांच्या	-4549
▁U	-4550
दरा	-4551
▁एड	-4552
▁छह	-4553
वाणी	-4554
▁लेख	-4555
▁प्रावधान	-4556
▁रथ	-4557
▁आंध्र	-4558
ोबत	-4559
▁देण्याची	-4560
or	-4561
तेने	-4562
▁पंचा	-4563
▁भव्य	-4564
▁राष्ट्रों	-4565
ीय	-4566
रोप	-4567
ुति	-4568
▁विप	-4569
▁संय	-4570
▁विस्तृत	-4571
▁हर्षवर्धन	-4572
राला	-4573
सारखा	-4574
▁क्रां	-4575
▁परिषदेत	-4576
▁आभ	-4577
▁रखी	-4578
▁जानता	-4579
▁जुलाई	-4580
▁टो	-4581
▁काढून	-4582
▁सप्ताह	-4583
▁इका	-4584
▁कौत	-4585
▁चढ़ा	-4586
▁पटेल	-4587
▁मुंह	-4588
▁आगामी	-4589
▁जनतेला	-4590
▁पुस्तक	-4591
ंकन	-4592
▁योसे	-4593
▁झाल्यावर	-4594
ंधन	-4595
▁जुड़े	-4596
▁बुराई	-4597
▁आह्वान	-4598
▁प्रकृति	-4599
▁500	-4600
▁असू	-4601
कर्ता	-4602
▁इलाज	-4603
▁उठाए	-4604
▁अहर	-4605
▁उभय	-4606
▁खुले	-4607
▁जिल्हा	-4608
▁स्थायी	-4609
▁त्यासाठी	-4610
▁•	-4611
▁कर्मचारियों	-4612
▁अगस्त	-4613
▁घट	-4614
▁निस	-4615
▁पंजा	-4616
▁मारा	-4617
▁लॉकडाऊन	-4618
वट	-4619
याम	-4620
माला	-4621
▁बरा	-4622
▁कौतुक	-4623
▁वंशज	-4624
▁खाजगी	-4625
▁मेक	-4626
▁जावे	-4627
▁सामान	-4628
▁लोकांची	-4629
डक	-4630
▁दार	-4631
▁बदला	-4632
तीच्या	-4633
संबंधी	-4634
▁लवकरच	-4635
▁नेत्यांनी	-4636
▁आफ	-4637
▁मत्	-4638
व्यात	-4639
▁भेटी	-4640
▁पाण्या	-4641
▁शब्दों	-4642
▁गुंतवणुकी	-4643
थि	-4644
▁लागते	-4645
ूबर	-4646
▁भाऊ	-4647
ष्मान	-4648
▁मुका	-4649
▁लढाई	-4650
▁रहेगा	-4651
▁तपासणी	-4652
▁लु	-4653
▁सामु	-4654
▁अनुकूल	-4655
▁अद्	-4656
▁पूर	-4657
▁दुष्	-4658
▁सभ	-4659
▁तिने	-4660
▁आजारा	-4661
▁जिवंत	-4662
गाह	-4663
▁रोटी	-4664
▁मंत्रिमंडळाची	-4665
िवा	-4666
▁उज्ज	-4667
▁बाजूला	-4668
ॉप	-4669
िर्	-4670
▁जिथे	-4671
▁जिनके	-4672
▁वायरस	-4673
▁तुम्हारी	-4674
▁आराख	-4675
▁घरात	-4676
▁बचाव	-4677
▁दीवार	-4678
बार	-4679
्हे	-4680
शास्त्र	-4681
▁महोत्स	-4682
▁उपाययोजना	-4683
▁टिक	-4684
▁दैन	-4685
▁लंबे	-4686
▁सांगत	-4687
▁चुनौती	-4688
▁तीर्थ	-4689
▁पार्श्वभूमी	-4690
ंगिक	-4691
▁ठिकाण	-4692
▁एकीकृत	-4693
ऱ्यांच्या	-4694
▁आमंत्रित	-4695
फे	-4696
सागर	-4697
▁सुव	-4698
▁स्क	-4699
▁उपास	-4700
▁पोस्ट	-4701
▁हिमाचल	-4702
▁उपलब्धता	-4703
▁धी	-4704
▁शास्त्र	-4705
▁सशस्त्र	-4706
तार	-4707
▁अग्	-4708
▁धोका	-4709
▁मित्रों	-4710
▁घृ	-4711
याने	-4712
▁मर्या	-4713
नाश	-4714
▁फोन	-4715
▁मोड	-4716
स्वरूप	-4717
▁परवान	-4718
▁मुद्दे	-4719
▁80	-4720
▁अंदर	-4721
▁व्हावे	-4722
▁उत्तराखंड	-4723
▁भूत	-4724
्रेड	-4725
▁इतके	-4726
▁नौसेना	-4727
▁संग्रह	-4728
▁भीड़	-4729
▁मुलगे	-4730
▁विषयक	-4731
▁विनंती	-4732
,4	-4733
▁शो	-4734
दायी	-4735
वाही	-4736
▁आलो	-4737
▁आँखों	-4738
▁मिळाले	-4739
▁हरियाणा	-4740
▁केस	-4741
▁नमूद	-4742
▁सुझा	-4743
▁मनुष्यबळ	-4744
▁बैल	-4745
शलक्ष	-4746
▁पुष्क	-4747
▁होकर	-4748
▁कैंसर	-4749
▁श्रद्धांजलि	-4750
त्म	-4751
ासी	-4752
करून	-4753
▁रखना	-4754
▁नेहमीच	-4755
▁झील	-4756
क्टूबर	-4757
▁अध्या	-4758
▁पारदर्	-4759
घर	-4760
▁गहरा	-4761
▁वालों	-4762
▁श्रीमती	-4763
हम	-4764
▁T	-4765
▁बाज	-4766
▁जानवर	-4767
▁पराभव	-4768
▁तमिल	-4769
▁पंजाब	-4770
षित	-4771
▁छोटी	-4772
▁नोंदणी	-4773
ाला	-4774
तेचे	-4775
त्रा	-4776
बादी	-4777
▁आवड	-4778
▁कृपा	-4779
▁मालदी	-4780
▁कारख	-4781
▁पुष्कळ	-4782
▁स्रोत	-4783
▁पैमाने	-4784
▁भारताचा	-4785
फ़	-4786
भुत	-4787
ेलो	-4788
करोग	-4789
्यून	-4790
▁पदक	-4791
क्षेप	-4792
▁कॉन्फर	-4793
ंश	-4794
▁H	-4795
केट	-4796
▁नित	-4797
त्तीस	-4798
▁वन्य	-4799
▁कमजोर	-4800
▁चेहरे	-4801
जो	-4802
▁तप	-4803
▁दशलक्ष	-4804
▁अंतरावर	-4805
ीव	-4806
▁बर्फ	-4807
आप	-4808
▁कब	-4809
▁घु	-4810
▁झू	-4811
▁सीम	-4812
▁परिवर्त	-4813
▁विद्यार्थी	-4814
त्याने	-4815
▁राहणार	-4816
▁पर्यटकों	-4817
तल	-4818
▁सहन	-4819
▁मदती	-4820
किस्तान	-4821
▁जवळपास	-4822
▁आसान	-4823
▁खरोखर	-4824
▁तकनीक	-4825
▁कोविंद	-4826
▁प्रतीक	-4827
कारक	-4828
▁जिला	-4829
▁पुणे	-4830
▁जनवरी	-4831
▁आपाप	-4832
▁पेड़	-4833
▁सिटी	-4834
▁प्रमा	-4835
▁/	-4836
▁बाबी	-4837
▁मिळत	-4838
▁महासं	-4839
▁मोहिम	-4840
▁देवाचे	-4841
▁विचारले	-4842
▁रखें	-4843
स्तरीय	-4844
▁लोकशाही	-4845
▁आकांक्षा	-4846
आधी	-4847
▁ठा	-4848
कुमार	-4849
▁आपदा	-4850
▁वायू	-4851
▁जिनमें	-4852
▁अक्टूबर	-4853
▁गॅस	-4854
▁उन्न	-4855
▁बाबा	-4856
ांकडून	-4857
▁निवार	-4858
▁अवसरों	-4859
▁महोत्सव	-4860
▁सध्याच्या	-4861
▁ऐप	-4862
ड़ित	-4863
▁अल्	-4864
▁वेदना	-4865
▁महामहिम	-4866
▁यासारख्या	-4867
विड	-4868
▁तिर	-4869
▁दूत	-4870
▁सोन	-4871
▁साधला	-4872
▁स्पर्ध	-4873
तान	-4874
प्रती	-4875
▁बॉ	-4876
ार्ज	-4877
▁150	-4878
▁अधि	-4879
▁नाथ	-4880
▁चुके	-4881
▁जपान	-4882
▁बाकी	-4883
गृह	-4884
बाम	-4885
▁वेतन	-4886
तिरिक्त	-4887
▁वस्तूं	-4888
कूब	-4889
दूर	-4890
▁छि	-4891
▁पाव	-4892
▁चाहे	-4893
▁करायचे	-4894
▁कार्यालया	-4895
▁विद्यापीठ	-4896
्रेंस	-4897
▁मिळाला	-4898
▁90	-4899
▁फूट	-4900
▁रोम	-4901
▁आठवण	-4902
▁2017-18	-4903
दात	-4904
रुप	-4905
त्कार	-4906
25	-4907
उस	-4908
ोत्तर	-4909
▁मनात	-4910
▁मिलकर	-4911
▁मरण	-4912
▁उद्ध	-4913
▁नसेल	-4914
▁त्याग	-4915
▁सितंबर	-4916
पीई	-4917
याँ	-4918
र्ज	-4919
ध्दा	-4920
▁पिक	-4921
▁भ्रष्टाचार	-4922
.9	-4923
▁उड़	-4924
▁प्राणी	-4925
▁बिलियन	-4926
▁प्रसन्न	-4927
▁ख्रिस्ता	-4928
पादन	-4929
▁पैर	-4930
▁मेडिकल	-4931
एक	-4932
▁लै	-4933
ूहिक	-4934
▁भंड	-4935
▁ऊँचा	-4936
▁वाळव	-4937
▁दूसरा	-4938
▁समग्र	-4939
▁साकार	-4940
ँकि	-4941
▁विजे	-4942
▁सहमत	-4943
▁मालदीव	-4944
▁राजनाथ	-4945
▁विनिर्माण	-4946
▁लौट	-4947
िय्याह	-4948
▁पाहून	-4949
▁पेंशन	-4950
▁दावीदा	-4951
धित	-4952
▁टै	-4953
ितीय	-4954
▁आम्ह	-4955
▁अनुदान	-4956
▁राजकीय	-4957
▁सामूहिक	-4958
▁अका	-4959
▁नेशनल	-4960
▁संगीत	-4961
ांपासून	-4962
II	-4963
▁मोज	-4964
▁व्यवस्थाप	-4965
,1	-4966
▁भौ	-4967
▁साब	-4968
▁पुजारी	-4969
▁निर्मित	-4970
▁आयुर्वेद	-4971
▁राज्यपाल	-4972
सेस	-4973
▁गती	-4974
शासित	-4975
▁हालाँकि	-4976
चने	-4977
पीय	-4978
▁घाबर	-4979
▁चुकी	-4980
▁बांधकाम	-4981
चक	-4982
ंशी	-4983
फ्त	-4984
▁धार	-4985
▁तेरी	-4986
▁अधर्म	-4987
▁पक्षी	-4988
▁दृष्टीको	-4989
▁कॉन्फरन्स	-4990
▁अवि	-4991
▁परदेशी	-4992
▁बढ़ाया	-4993
▁प्रकारचे	-4994
च्चा	-4995
▁अरब	-4996
▁भरपूर	-4997
▁गांवों	-4998
ओयू	-4999
रील	-5000
▁कदा	-5001
विधान	-5002
प्रदेश	-5003
▁कर्करोग	-5004
▁यंत्रणा	-5005
▁आयुष्मान	-5006
,6	-5007
▁कच	-5008
▁डोंग	-5009
▁रसायन	-5010
▁साजरा	-5011
विण्यात	-5012
,7	-5013
आईडी	-5014
▁उभा	-5015
.2020	-5016
▁पहिला	-5017
▁याकूब	-5018
श्रम	-5019
▁बारा	-5020
▁कामका	-5021
▁रास्ता	-5022
▁परामर्श	-5023
▁ओडि	-5024
▁तरत	-5025
▁जवळजवळ	-5026
▁लाभार्थियों	-5027
कोप	-5028
नेस्	-5029
▁सारे	-5030
▁इनमें	-5031
▁कोणाला	-5032
▁पूर्णपणे	-5033
आब	-5034
त्मिक	-5035
स्पर्	-5036
▁मित्रहो	-5037
▁प्राधिकरण	-5038
ब्दी	-5039
▁जोख	-5040
▁शेती	-5041
▁इथल्या	-5042
लु	-5043
मिळ	-5044
▁श्	-5045
▁नोक	-5046
चारिक	-5047
▁बढ़ती	-5048
▁सागरी	-5049
▁काश्मीर	-5050
ोरम	-5051
▁नजर	-5052
▁मृत	-5053
▁सिर्फ	-5054
▁फंड	-5055
▁उम्र	-5056
▁ट्रै	-5057
▁प्रदू	-5058
▁सम्मानित	-5059
▁ड्र	-5060
▁देती	-5061
▁लिखा	-5062
▁जाणून	-5063
▁सचिवा	-5064
▁उपस्थिति	-5065
डो	-5066
▁K	-5067
▁असम	-5068
▁संसाधनों	-5069
▁J	-5070
▁इरा	-5071
▁चमक	-5072
▁देईन	-5073
▁लेते	-5074
ांपैकी	-5075
▁प्राण	-5076
▁सातत्याने	-5077
दो	-5078
ॉजी	-5079
▁पेय	-5080
▁बँके	-5081
▁धोरणात्मक	-5082
डेट	-5083
▁कशा	-5084
▁साय	-5085
▁सगळे	-5086
्लादेश	-5087
▁शिकार	-5088
कर्ताओं	-5089
शूर	-5090
▁अडच	-5091
देशिक	-5092
▁तुमने	-5093
णाचल	-5094
▁जलद	-5095
दाबाद	-5096
▁उपग्रह	-5097
▁मधुमेह	-5098
▁होण्याची	-5099
▁सुश	-5100
▁दिग्	-5101
▁नकोस	-5102
▁परेश	-5103
▁वडील	-5104
▁वाचा	-5105
▁शेवट	-5106
▁सिने	-5107
णार्या	-5108
वाच्या	-5109
ंचाई	-5110
▁नवे	-5111
▁सीओ	-5112
▁मधील	-5113
▁अद्भुत	-5114
▁काहीही	-5115
▁दिव्या	-5116
▁माननीय	-5117
▁चीज	-5118
▁फैल	-5119
▁देखरेख	-5120
▁सिस्टम	-5121
लाचे	-5122
▁कठी	-5123
▁यहुवे	-5124
▁तुम्हा	-5125
is	-5126
▁37	-5127
त्तर	-5128
▁साठ	-5129
▁सिल	-5130
ंदर्य	-5131
लिखित	-5132
▁सज्ज	-5133
▁तुमसे	-5134
▁मेहनत	-5135
▁येशूने	-5136
ोवर	-5137
▁सव	-5138
▁शाम	-5139
▁आठवड	-5140
▁व्हिड	-5141
▁हिस्सों	-5142
ME	-5143
▁पुराने	-5144
▁सिंहास	-5145
▁समृद्धि	-5146
▁कार्यकारी	-5147
▁६	-5148
▁सृ	-5149
▁दिख	-5150
▁एकता	-5151
▁कठीण	-5152
▁आबादी	-5153
▁घडवून	-5154
▁सौंदर्य	-5155
ूम	-5156
जीव	-5157
टली	-5158
▁खी	-5159
▁हेच	-5160
▁जापान	-5161
▁मुझसे	-5162
समा	-5163
▁नक	-5164
▁युर	-5165
▁अंतराळ	-5166
▁पीड़ित	-5167
▁त्याचबरोबर	-5168
मैं	-5169
हेब	-5170
ेगा	-5171
याचे	-5172
यांना	-5173
▁दौऱ्या	-5174
डीओ	-5175
शिला	-5176
▁आघा	-5177
▁बळकट	-5178
▁पावले	-5179
▁वेगवेगळ्या	-5180
▁ओडिशा	-5181
▁याकोब	-5182
▁प्रतिभा	-5183
▁लाभार्थी	-5184
थ्य	-5185
▁फू	-5186
लाही	-5187
▁हाँ	-5188
▁नवंबर	-5189
ww	-5190
दोन	-5191
▁हिज	-5192
▁उत्सव	-5193
▁दृश्य	-5194
▁संवेदन	-5195
▁शेतकऱ्यां	-5196
ित्स	-5197
▁काळा	-5198
▁सिक्	-5199
▁संरचना	-5200
▁प्रादेशिक	-5201
सीय	-5202
▁दगड	-5203
▁मस्	-5204
▁प्लेट	-5205
▁गुन	-5206
फॉर्म	-5207
▁लंबा	-5208
▁क्षमा	-5209
▁हितधार	-5210
▁परवानगी	-5211
▁होण्यासाठी	-5212
ेज	-5213
ोषण	-5214
कार्	-5215
▁बजे	-5216
▁इच्छित	-5217
▁व्हिडिओ	-5218
▁देशांमध्ये	-5219
ii	-5220
ंथ	-5221
▁नो	-5222
▁राय	-5223
ंगत	-5224
▁तरतूद	-5225
ताप	-5226
▁मछ	-5227
▁सीधे	-5228
क्तिमान	-5229
लास	-5230
▁चो	-5231
▁साख	-5232
▁सूची	-5233
▁विक्र	-5234
▁असलेला	-5235
▁संघटने	-5236
स्‍	-5237
▁कमांड	-5238
ल्यामुळे	-5239
▁व्यापारी	-5240
▁कपडे	-5241
▁किनार	-5242
▁प्रका	-5243
▁चाचण्या	-5244
▁सर्वाधिक	-5245
मेर	-5246
राचे	-5247
▁प्रच	-5248
▁छत्तीस	-5249
▁विमानतळ	-5250
▁असणाऱ्या	-5251
▁दिव्यांग	-5252
ंभा	-5253
किल	-5254
▁सीख	-5255
▁प्रवाह	-5256
▁मिलेगी	-5257
▁मनश्	-5258
▁राशि	-5259
▁कपड़े	-5260
▁जुड़ा	-5261
निमित्त	-5262
▁केंद्रशासित	-5263
▁प्ल	-5264
▁कुठे	-5265
▁वाढत	-5266
ल्याचे	-5267
▁संविधान	-5268
▁अपे	-5269
विष्ट	-5270
▁अर्थसं	-5271
▁अफ्रीका	-5272
▁१९	-5273
नाडु	-5274
ेडकर	-5275
▁अहा	-5276
▁शेर	-5277
▁स्तंभ	-5278
▁विविधता	-5279
▁सोशल	-5280
▁ब्रिट	-5281
▁बाबतीत	-5282
▁डोक	-5283
▁पां	-5284
▁प्राय	-5285
▁बनाना	-5286
▁आकर्षण	-5287
▁मिलेगा	-5288
it	-5289
लिक	-5290
▁लाइन	-5291
▁गर्भा	-5292
▁मूल्यांकन	-5293
ST	-5294
म्ब	-5295
▁घाट	-5296
▁दृढ़	-5297
▁उर्जा	-5298
▁ठेवून	-5299
▁अश्शूर	-5300
▁सर्वशक्तिमान	-5301
▁आओ	-5302
▁फळ	-5303
▁लप	-5304
र्जे	-5305
▁कोट	-5306
▁घृणा	-5307
▁दुसरा	-5308
▁कदाचित	-5309
▁किनारे	-5310
▁शौचालय	-5311
▁पुत्रों	-5312
▁गाय	-5313
धिकार	-5314
वियों	-5315
▁याबाबत	-5316
▁तांत्रिक	-5317
,8	-5318
यंकर	-5319
ान्स	-5320
▁कोळ	-5321
▁दाखव	-5322
ताच्या	-5323
▁Indias	-5324
▁व्यवसा	-5325
घात	-5326
▁कटि	-5327
▁स्कूल	-5328
▁मैत्री	-5329
▁भारतीयों	-5330
▁घेता	-5331
▁टेली	-5332
ौल	-5333
कीम	-5334
▁खि	-5335
हारी	-5336
▁ठरेल	-5337
▁पंजी	-5338
जनक	-5339
▁चक	-5340
सारखी	-5341
▁सीएस	-5342
▁शकतील	-5343
▁सचिवालय	-5344
▁केंद्रों	-5345
र्ती	-5346
हायला	-5347
▁समस्याओं	-5348
▁प्रस्तावित	-5349
▁कार्यक्रमों	-5350
फर	-5351
▁जीत	-5352
ांमधील	-5353
▁अनुरोध	-5354
▁खात्री	-5355
▁संपत्ती	-5356
▁कक्ष	-5357
▁कामे	-5358
▁पाठि	-5359
▁आघाडी	-5360
▁वस्त्र	-5361
▁चिकित्स	-5362
▁वस्तुओं	-5363
खन	-5364
▁गोल	-5365
▁बें	-5366
▁मशी	-5367
▁शिव	-5368
▁रखता	-5369
▁संसर्ग	-5370
▁महत्वाची	-5371
ज़र	-5372
ल्‍	-5373
िप्	-5374
भाग्य	-5375
▁कुंभ	-5376
▁जेणे	-5377
▁किमान	-5378
▁ईशान्य	-5379
▁सुद्धा	-5380
▁करारावर	-5381
▁अस्त	-5382
▁नामक	-5383
▁सन	-5384
▁खूब	-5385
▁श्वास	-5386
▁सहायक	-5387
▁प्रतिमा	-5388
▁प्रदर्शित	-5389
▁मिली	-5390
▁कोणते	-5391
▁भयंकर	-5392
▁व्यक्तिगत	-5393
▁तय	-5394
तेची	-5395
▁मनो	-5396
▁औषधे	-5397
▁घेणे	-5398
▁जोड़	-5399
▁अधोरे	-5400
▁शिष्य	-5401
पालन	-5402
िनार	-5403
▁रिस	-5404
▁अर्ज	-5405
टाच्या	-5406
▁कार्र	-5407
▁लगाया	-5408
▁कराराला	-5409
▁PM	-5410
▁अब्ज	-5411
▁अब्राहा	-5412
▁राजनीतिक	-5413
वाण	-5414
▁स्थळ	-5415
▁दिवसात	-5416
▁हजारों	-5417
▁बोलताना	-5418
▁रणनीतिक	-5419
▁सरकारचे	-5420
▁बाव	-5421
प्रेस	-5422
▁सत्या	-5423
▁हारून	-5424
▁मां	-5425
▁इतकी	-5426
▁अमेरिकी	-5427
▁पड़ता	-5428
▁वस्तु	-5429
▁खेळ	-5430
▁पीढ़ी	-5431
▁कॉन्फ्रेंस	-5432
▁तंत्रज्ञानाचा	-5433
ताच	-5434
फाई	-5435
बान	-5436
▁होय	-5437
्रेष्ठ	-5438
▁चारों	-5439
▁मत्स्य	-5440
▁अरुणाचल	-5441
▁बांग्लादेश	-5442
दंड	-5443
▁संबोधन	-5444
▁नियुक्त	-5445
▁शम	-5446
▁वाद	-5447
▁सदी	-5448
ांकित	-5449
▁लड़ने	-5450
▁उल्लेखनीय	-5451
▁राजाओं	-5452
▁बाजारपेठ	-5453
वावे	-5454
▁गाठ	-5455
▁मौत	-5456
▁सिय	-5457
रुध्द	-5458
▁उपकर	-5459
▁उत्तरे	-5460
▁जाणाऱ्या	-5461
▁राष्ट्राध्यक्ष	-5462
ोवती	-5463
▁नेले	-5464
▁अनावरण	-5465
▁राज्ये	-5466
▁राहतील	-5467
and	-5468
▁हॉ	-5469
▁द्र	-5470
▁धूप	-5471
▁सरोवर	-5472
▁भगिनींनो	-5473
चि	-5474
गान	-5475
▁डाक	-5476
▁बिन	-5477
▁पुढा	-5478
▁रहती	-5479
पचारिक	-5480
▁माणसाला	-5481
▁संवर्धन	-5482
वै	-5483
ताब्दी	-5484
▁मूर्ति	-5485
काता	-5486
न्नई	-5487
ापित	-5488
▁गरम	-5489
▁नार	-5490
▁इस्ते	-5491
▁इस्तेमाल	-5492
अल	-5493
खल	-5494
▁चढ	-5495
▁मानक	-5496
▁शराब	-5497
▁अधोरेखित	-5498
▁तमिलनाडु	-5499
शक्ती	-5500
▁ऑनलाईन	-5501
▁कार्रवाई	-5502
▁परमेश्वराचे	-5503
,9	-5504
▁घो	-5505
▁विल	-5506
▁प्रतिस्पर्	-5507
्ती	-5508
▁करोगे	-5509
▁करणारा	-5510
▁निम्नलिखित	-5511
सूर	-5512
क्चर	-5513
▁अंदाज	-5514
▁निरोगी	-5515
▁पहाड़ी	-5516
रोधी	-5517
▁असता	-5518
▁बीमा	-5519
▁कोणती	-5520
▁हल्ला	-5521
काचे	-5522
▁उपभो	-5523
▁मॉडल	-5524
▁कराया	-5525
▁डॉलर्स	-5526
▁असल्यामुळे	-5527
og	-5528
पोर्ट	-5529
▁एजें	-5530
▁दवाओं	-5531
▁धान्य	-5532
▁संगठनों	-5533
▁प्रयोगशाळा	-5534
कश	-5535
▁सुनी	-5536
▁मंदिराच्या	-5537
,3	-5538
जेत	-5539
▁शं	-5540
▁दाय	-5541
प्रति	-5542
▁जांच	-5543
▁इंडियन	-5544
▁देवाचा	-5545
▁शानदार	-5546
▁कॉर्पोरेट	-5547
ैली	-5548
▁फस	-5549
)।	-5550
▁चुका	-5551
▁दुर्ग	-5552
▁साधारण	-5553
▁परिणामस्वरूप	-5554
ch	-5555
प्रा	-5556
▁वाणी	-5557
▁राजाला	-5558
▁व्यायाम	-5559
▁श्रीलंका	-5560
,2	-5561
सब	-5562
राचा	-5563
विली	-5564
▁एवढे	-5565
▁उत्सुक	-5566
▁आणण्यासाठी	-5567
फल	-5568
ग्ध	-5569
पती	-5570
ैर्य	-5571
▁खेत	-5572
▁इंडो	-5573
तेसाठी	-5574
▁संचालक	-5575
▁वैशिष्ट	-5576
▁स्वदेशी	-5577
▁त्यांच्यावर	-5578
▁लक	-5579
लांग	-5580
▁२०१	-5581
▁आध्या	-5582
▁महत्वाच्या	-5583
▁पार्श्वभूमीवर	-5584
परी	-5585
▁विमा	-5586
▁व्हि	-5587
▁प्रचार	-5588
िव्ह	-5589
गीकरण	-5590
च्चार	-5591
▁कड़ी	-5592
▁एखादा	-5593
▁दिशान	-5594
▁शक्तिशाली	-5595
ट्स	-5596
▁भूक	-5597
▁काशी	-5598
▁चेहरा	-5599
▁लाखों	-5600
▁छोट्या	-5601
▁मनश्शे	-5602
▁उपाययोजन	-5603
पीएफ	-5604
▁अभूत	-5605
▁तारी	-5606
▁रहें	-5607
▁जोखिम	-5608
▁वंचित	-5609
▁ज्यांना	-5610
▁फिल्मों	-5611
थान	-5612
सात	-5613
चालन	-5614
वाना	-5615
▁एक्	-5616
▁माइ	-5617
▁अनिवार	-5618
▁पहुँचा	-5619
▁अभूतपूर्व	-5620
ेची	-5621
पीसी	-5622
ांसह	-5623
▁ऐका	-5624
▁एकाच	-5625
▁जागी	-5626
▁तेथील	-5627
▁राजाने	-5628
षा	-5629
▁ग्रह	-5630
▁छोटा	-5631
▁भविष्यात	-5632
▁सोल	-5633
ड़कों	-5634
▁गुफा	-5635
▁ब्रा	-5636
▁सलाम	-5637
▁स्कू	-5638
▁पैकेज	-5639
ापर्यंत	-5640
▁कटिबद्ध	-5641
ळीत	-5642
वजी	-5643
ण्यावर	-5644
▁चेन्नई	-5645
▁त्वरित	-5646
▁कर्तव्य	-5647
▁सहकार्या	-5648
▁आध्यात्मिक	-5649
AR	-5650
दायिक	-5651
▁केरल	-5652
▁भेंट	-5653
▁शिकवण	-5654
पति	-5655
▁वध	-5656
पीजी	-5657
▁जुन	-5658
▁अभिष	-5659
▁कहीं	-5660
▁यहूद	-5661
वीआईडी	-5662
▁रोकने	-5663
▁येत्या	-5664
ढ़े	-5665
माणिक	-5666
▁ईमान	-5667
▁झुंड	-5668
▁बेटा	-5669
▁तरीही	-5670
▁दररोज	-5671
▁द्वारे	-5672
रळ	-5673
विर	-5674
ज्ञा	-5675
▁बदलने	-5676
▁क्रिया	-5677
▁स्पर्धा	-5678
▁देण्याचे	-5679
▁इसहा	-5680
▁पुरे	-5681
ग्रस्त	-5682
्यातून	-5683
▁बुलाया	-5684
▁वेबिनार	-5685
▁माझ्यावर	-5686
इम	-5687
▁अम्म	-5688
▁पाऊल	-5689
▁बाधा	-5690
▁रुपयांची	-5691
गण	-5692
पाला	-5693
िर्देश	-5694
▁अडचणी	-5695
▁अहरोन	-5696
▁द्यावे	-5697
▁कोलकाता	-5698
▁गांधीजी	-5699
▁दिशानिर्देश	-5700
ंव	-5701
क्न	-5702
वतो	-5703
्डी	-5704
▁तलाश	-5705
▁कोणता	-5706
▁F	-5707
▁बेल	-5708
▁अवश्य	-5709
▁पैरों	-5710
▁विशेषतः	-5711
▁स्थिरता	-5712
▁L	-5713
जूद	-5714
वाहा	-5715
्वित	-5716
लियों	-5717
▁नसते	-5718
▁बलों	-5719
▁देतात	-5720
▁सर्वश्रेष्ठ	-5721
ळावर	-5722
▁पैसा	-5723
▁बावजूद	-5724
▁अधिकाऱ्यां	-5725
IC	-5726
षक	-5727
▁आती	-5728
▁विपण	-5729
▁तेलंग	-5730
▁भिंती	-5731
▁दरवाजे	-5732
▁36	-5733
वायला	-5734
▁प्रथा	-5735
▁बाबुल	-5736
▁उपकरणों	-5737
क्का	-5738
याचा	-5739
▁मेजब	-5740
▁सारा	-5741
▁हार्	-5742
▁बढ़ने	-5743
▁तत्त्व	-5744
▁निती	-5745
▁सबका	-5746
▁पातळीवर	-5747
ad	-5748
इंग	-5749
ेश्वर	-5750
▁अद्य	-5751
▁बारह	-5752
▁अवशेष	-5753
▁उसमें	-5754
स्ट्रेल	-5755
▁उज्ज्व	-5756
▁ह्याच्या	-5757
▁नियंत्रित	-5758
▁आइ	-5759
संबर	-5760
▁मंडळ	-5761
▁चर्चे	-5762
▁मुकाबला	-5763
▁स्टार्टअप	-5764
िना	-5765
जाती	-5766
▁नारा	-5767
▁शांती	-5768
▁उपयोगी	-5769
▁स्तरीय	-5770
▁याशिवाय	-5771
▁नॅ	-5772
▁आंख	-5773
▁पड़ा	-5774
▁पीने	-5775
▁तयारी	-5776
▁पाठ्य	-5777
▁अनिवार्य	-5778
ईम	-5779
जरी	-5780
धीश	-5781
▁कॉर	-5782
▁वही	-5783
▁रोजग	-5784
ख्यिकी	-5785
▁पृष्ठ	-5786
▁आजच्या	-5787
▁सिद्धांत	-5788
तेला	-5789
तालों	-5790
▁ऊर्जे	-5791
▁मिलता	-5792
▁पुष्टि	-5793
▁तोड	-5794
▁चुना	-5795
▁स्पर्श	-5796
▁पत्रकार	-5797
ur	-5798
सेवा	-5799
▁फैला	-5800
▁सेंट	-5801
▁खालील	-5802
▁नक्की	-5803
▁वाटचाल	-5804
▁सुधारण	-5805
▁जितेंद्र	-5806
▁स्वाक्षऱ्या	-5807
-21	-5808
ब्ब	-5809
▁दोघ	-5810
▁सेट	-5811
▁मिलने	-5812
▁सत्ता	-5813
▁अस्पतालों	-5814
▁अक्ष	-5815
▁वाटा	-5816
▁मारले	-5817
▁मोबाईल	-5818
,0	-5819
▁नेम	-5820
▁फिरौन	-5821
▁शिकायत	-5822
▁सर्वांनी	-5823
▁अंतरराष्ट्रीय	-5824
कै	-5825
▁सागर	-5826
▁शिफार	-5827
▁आपापल्या	-5828
▁दुः	-5829
▁आईटी	-5830
▁मातृ	-5831
▁रोगों	-5832
▁पक्षों	-5833
▁32	-5834
▁रक्कम	-5835
▁एकात्म	-5836
▁इलेक्ट्रॉनिक	-5837
ँचे	-5838
मिळना	-5839
▁असले	-5840
▁रिकॉर्ड	-5841
▁देशभरातील	-5842
▁NI	-5843
न्तु	-5844
प्पा	-5845
सीटी	-5846
▁फसल	-5847
▁स्पे	-5848
▁विक्री	-5849
▁सगळ्या	-5850
▁प्रवासा	-5851
▁जिम्मेदारी	-5852
18	-5853
एसए	-5854
साव	-5855
र्मा	-5856
लैंड	-5857
▁वजह	-5858
▁आपणा	-5859
▁फारो	-5860
▁ठेवला	-5861
▁महासागर	-5862
▁दबा	-5863
▁अंधे	-5864
▁अस्थ	-5865
▁केरळ	-5866
▁नगरी	-5867
▁नाविन	-5868
▁मूत्र	-5869
▁आकर्षक	-5870
▁पर्यटना	-5871
40	-5872
कांना	-5873
▁दिसंबर	-5874
▁लोकसभा	-5875
▁MS	-5876
▁जेट	-5877
▁रैं	-5878
ासाठी	-5879
▁पलिश्	-5880
▁कालावधीत	-5881
▁त्याच्यावर	-5882
लीय	-5883
ृति	-5884
▁कसा	-5885
▁बनी	-5886
नातून	-5887
वर्ती	-5888
▁जल्दी	-5889
डब्ल्यू	-5890
▁नव्हता	-5891
▁ख्रिस्त	-5892
वीं	-5893
▁अन्	-5894
▁किर	-5895
▁लेन	-5896
▁करीब	-5897
▁धारा	-5898
▁शस्त्र	-5899
▁आम्हांला	-5900
▁लोकतंत्र	-5901
▁दला	-5902
▁हेत	-5903
▁पिढी	-5904
▁दुसरी	-5905
▁पहिले	-5906
▁राहून	-5907
▁झालेले	-5908
▁प्रतिष्ठित	-5909
ल्थ	-5910
▁हड	-5911
▁खान	-5912
▁गोळा	-5913
▁तोड़	-5914
▁स्नान	-5915
▁निदेशक	-5916
▁सांगितल्या	-5917
ारस	-5918
▁तित	-5919
▁भरा	-5920
▁हल्	-5921
▁कमतर	-5922
▁नाहीस	-5923
▁दिनानिमित्त	-5924
▁जनरल	-5925
▁तैनात	-5926
▁सुरेश	-5927
▁केलेली	-5928
▁वाळवंट	-5929
मुक्त	-5930
▁जेवण	-5931
▁फार्	-5932
▁यानी	-5933
▁पहाड़	-5934
▁प्रामाणिक	-5935
ब्रा	-5936
ोपीय	-5937
▁दुर्घ	-5938
▁प्रोट	-5939
▁द्राक्ष	-5940
ंटों	-5941
▁हवी	-5942
▁कुठल्या	-5943
▁यावर्षी	-5944
टान	-5945
▁मिश्र	-5946
▁स्तुती	-5947
▁धार्मिकता	-5948
▁E	-5949
ंबू	-5950
▁काउ	-5951
▁एम्स	-5952
▁वाहि	-5953
har	-5954
▁दफ	-5955
▁जरी	-5956
▁जर्म	-5957
▁प्रसं	-5958
▁मंजूर	-5959
विश्वास	-5960
▁नावाने	-5961
▁संचालित	-5962
▁सीओवीआईडी	-5963
्‍या	-5964
▁पकड़	-5965
▁पाहिजेत	-5966
▁चित्रपटा	-5967
▁श्रमिकों	-5968
.\	-5969
वता	-5970
▁आजा	-5971
▁डोळ	-5972
ार्ता	-5973
▁नींव	-5974
▁हिंसा	-5975
▁राजकुमार	-5976
▁क्षेत्राला	-5977
मधे	-5978
र्द	-5979
इटिस	-5980
ोबार	-5981
▁दशक	-5982
▁इमारत	-5983
▁बुद्धिमान	-5984
▁विकासाच्या	-5985
ळण	-5986
किम	-5987
ेंज	-5988
भूमि	-5989
धुनिक	-5990
▁गुलाम	-5991
▁तुरंत	-5992
▁सर्वसा	-5993
तुम	-5994
लाब	-5995
▁पत	-5996
▁अवगत	-5997
▁देखी	-5998
▁तारीख	-5999
▁प्रां	-6000
▁ट्रांस	-6001
ध्व	-6002
▁करनी	-6003
▁शिशु	-6004
▁गावात	-6005
▁देशाची	-6006
▁चमत्कार	-6007
▁विद्युती	-6008
▁कार्यक्षम	-6009
▁अंड	-6010
▁तळ	-6011
▁इसने	-6012
▁लगेच	-6013
▁वचनबद्ध	-6014
▁यात्रियों	-6015
यण	-6016
पया	-6017
ढ्या	-6018
▁अडथ	-6019
▁उभर	-6020
▁मंग	-6021
▁लागतो	-6022
▁ट्रस्ट	-6023
▁नदीच्या	-6024
▁निवडणूक	-6025
▁योजनेच्या	-6026
दाब	-6027
ब्बा	-6028
▁निदान	-6029
▁कुटुंबा	-6030
▁नेतृत्वा	-6031
▁प्रतिसाद	-6032
▁एक्सप्रेस	-6033
जय	-6034
▁९	-6035
▁अय	-6036
▁माजी	-6037
स्ट्रेलिया	-6038
नु	-6039
पीएम	-6040
▁असत	-6041
▁पाल	-6042
▁डिजा	-6043
शाच्या	-6044
▁सहमती	-6045
▁सामुदायिक	-6046
विला	-6047
▁अमा	-6048
▁कैद	-6049
▁बंदरगाह	-6050
▁म्हणाली	-6051
▁अहमदाबाद	-6052
▁परिषदेच्या	-6053
राव	-6054
वाचे	-6055
▁चौक	-6056
▁ताब	-6057
▁सुझाव	-6058
ed	-6059
र्चा	-6060
▁डेव	-6061
▁ऊँचाई	-6062
▁क्रेड	-6063
▁प्रकट	-6064
▁उपक्रमा	-6065
▁पाठिंबा	-6066
▁कोश	-6067
▁निघून	-6068
▁विषया	-6069
▁साहित	-6070
▁समूहों	-6071
▁सण	-6072
त्ये	-6073
▁नमु	-6074
▁बाई	-6075
▁रवि	-6076
फारिश	-6077
▁सदैव	-6078
▁मुख्या	-6079
▁शत्रूं	-6080
▁सिफारिश	-6081
▁क्षेत्रातल्या	-6082
गंध	-6083
ळाचे	-6084
▁इन्फ	-6085
▁छाया	-6086
▁निरी	-6087
▁आलेले	-6088
▁दोहरा	-6089
▁विपणन	-6090
▁परिचालन	-6091
▁असल्याने	-6092
▁घेतलेल्या	-6093
▁जिल्ह्यात	-6094
▁इलेक्ट्रॉनिक्स	-6095
▁खादी	-6096
▁खाना	-6097
▁मिळू	-6098
▁यज्ञ	-6099
▁सापड	-6100
▁याह्वे	-6101
▁पर्यावर	-6102
▁वर्षाच्या	-6103
▁७	-6104
लोम	-6105
▁अपेक्षित	-6106
▁करण्याबाबत	-6107
▁V	-6108
कीन	-6109
लमोन	-6110
▁कारा	-6111
▁पाने	-6112
▁सुलै	-6113
टो	-6114
▁कन	-6115
▁199	-6116
▁निधन	-6117
▁यहोश	-6118
▁सोबत	-6119
▁व्यास	-6120
▁सुलैमान	-6121
▁आवश्यकताओं	-6122
शिप	-6123
र्फे	-6124
▁कच्	-6125
▁विटा	-6126
वतंत्र	-6127
▁उठाया	-6128
▁कनेक्शन	-6129
▁सुरक्षे	-6130
▁दहशतवादा	-6131
▁भरो	-6132
▁कष्ट	-6133
▁वनस्प	-6134
▁दरवर्षी	-6135
▁अत्याधुनिक	-6136
पक	-6137
जीन	-6138
▁चिन	-6139
▁राग	-6140
▁संच	-6141
निर्म	-6142
▁रणनीति	-6143
▁क्रेडिट	-6144
▁o	-6145
श्म	-6146
▁टुक	-6147
▁माय	-6148
▁टर्म	-6149
▁अनुसर	-6150
▁कोयला	-6151
मिळनाडू	-6152
▁सावधान	-6153
▁देणाऱ्या	-6154
▁पारदर्शक	-6155
▁ठेवण्यासाठी	-6156
प्ट	-6157
▁भव	-6158
स्टीट	-6159
▁चीनी	-6160
▁रूग्	-6161
▁लेना	-6162
▁टाकले	-6163
कडी	-6164
▁गौ	-6165
ेंडर	-6166
▁गठन	-6167
▁ग्लो	-6168
▁किंमत	-6169
▁यहोया	-6170
▁लांबी	-6171
▁शहरात	-6172
▁सड़कों	-6173
▁समुद्रा	-6174
ion	-6175
्डे	-6176
ज्या	-6177
▁इंग	-6178
▁मोह	-6179
▁मनोर	-6180
ंबेडकर	-6181
▁पाहता	-6182
▁सहमति	-6183
▁येशूला	-6184
▁वृद्धी	-6185
▁अधिकांश	-6186
▁शताब्दी	-6187
▁यांच्यातील	-6188
गन	-6189
डीला	-6190
▁खूपच	-6191
रुस्ती	-6192
स्ट्री	-6193
▁प्रवाश	-6194
▁देशांनी	-6195
▁पाठ्यक्रम	-6196
17	-6197
▁Mo	-6198
▁चढ़	-6199
क्तिक	-6200
▁नेते	-6201
▁कॉलेज	-6202
▁त्वचे	-6203
▁पीपीई	-6204
▁लेंगे	-6205
▁शलमोन	-6206
▁उर्वरक	-6207
▁बैंकों	-6208
फु	-6209
मिता	-6210
▁198	-6211
▁नरे	-6212
▁दर्ज	-6213
▁यावे	-6214
▁रहना	-6215
▁रशिया	-6216
▁इंटरनेट	-6217
▁कर्मियों	-6218
रीन	-6219
व्व	-6220
▁ज्यात	-6221
▁येथून	-6222
▁संस्करण	-6223
▁आधारशिला	-6224
▁विद्यार्थ्यांना	-6225
कला	-6226
पिंग	-6227
▁भेद	-6228
▁साद	-6229
▁बहाद	-6230
▁रुग्णालय	-6231
▁वैज्ञानिकों	-6232
▁हट	-6233
▁उदय	-6234
▁योसेफ	-6235
▁उद्धार	-6236
▁मानवता	-6237
▁हस्तक्षेप	-6238
▁हितधारकों	-6239
ai	-6240
बलि	-6241
िले	-6242
▁45	-6243
▁बू	-6244
आयटी	-6245
प्रस	-6246
पाच्या	-6247
▁फरवरी	-6248
▁म्यान	-6249
नल	-6250
मह	-6251
िनल	-6252
▁पीक	-6253
▁पाहत	-6254
▁विसर	-6255
▁कोळसा	-6256
▁टेक्न	-6257
▁हिंदी	-6258
▁विवेकान	-6259
गोल	-6260
दोम	-6261
पर्य	-6262
▁खनि	-6263
पमेंट	-6264
▁खोटे	-6265
▁गिला	-6266
▁बाढ़	-6267
▁पारित	-6268
्यांमार	-6269
▁लोकांसाठी	-6270
सभ	-6271
▁फिल	-6272
त्रिम	-6273
▁पारि	-6274
▁बातों	-6275
▁समजून	-6276
▁योजनेचा	-6277
▁प्रतियोग	-6278
▁रुग्णाला	-6279
gov	-6280
ंजन	-6281
फाय	-6282
ुरा	-6283
▁औषधी	-6284
▁रोखण्यासाठी	-6285
▁विश	-6286
▁गरजा	-6287
▁सृजन	-6288
्यामीन	-6289
▁देशांना	-6290
▁सुधारों	-6291
▁समाविष्ट	-6292
▁देण्याच्या	-6293
ॉर	-6294
ोसी	-6295
▁अंक	-6296
▁इफ्	-6297
▁चुक	-6298
कालिक	-6299
▁विधान	-6300
▁राज्यांना	-6301
दिक	-6302
ूने	-6303
डीपी	-6304
ांडा	-6305
▁ठोस	-6306
▁खत्म	-6307
▁गेलो	-6308
▁टपाल	-6309
▁तापमान	-6310
▁दक्षता	-6311
▁त्यातून	-6312
▁दीन	-6313
▁आएगा	-6314
▁दिसत	-6315
▁अनुसू	-6316
▁एजेंस	-6317
विरुध्द	-6318
▁जोड़ने	-6319
▁स्त्रिया	-6320
▁अधीन	-6321
▁छाती	-6322
▁दूरसं	-6323
▁बातें	-6324
▁लकड़ी	-6325
▁मुंबईत	-6326
▁साक्षी	-6327
▁भागातील	-6328
▁प्रमाणावर	-6329
▁मील	-6330
▁प्रदूषण	-6331
▁प्रक्रिय	-6332
ॉम	-6333
▁पस	-6334
▁तेव	-6335
▁बीस	-6336
▁निगम	-6337
▁बाळग	-6338
▁जोडणी	-6339
▁पेशकश	-6340
▁मंडळी	-6341
ैम	-6342
लिंग	-6343
▁बिक	-6344
▁लड़	-6345
▁बारी	-6346
▁बोलला	-6347
▁जमिनीवर	-6348
▁रुपयांच्या	-6349
IB	-6350
पार	-6351
▁संभा	-6352
▁देवता	-6353
▁नेपाळ	-6354
▁स्वप्	-6355
▁आराखडा	-6356
▁इस्राएलचा	-6357
CC	-6358
क्रो	-6359
▁तेच	-6360
ोलॉजी	-6361
▁MSME	-6362
▁पडले	-6363
▁मिनट	-6364
क्रिया	-6365
▁रात्र	-6366
▁तरीकों	-6367
▁प्रकाशन	-6368
▁मुलाकात	-6369
▁निवृत्ती	-6370
▁पंतप्रधानांचे	-6371
लग्न	-6372
▁मले	-6373
▁मसा	-6374
▁कहना	-6375
▁पाहू	-6376
▁इसहाक	-6377
▁पलिश्तियों	-6378
ानु	-6379
▁ईय	-6380
▁जाएँ	-6381
▁बंधन	-6382
▁भेड़	-6383
▁याने	-6384
▁अक्षय	-6385
▁उठाने	-6386
▁विकार	-6387
▁गरजेचे	-6388
▁सुवर्ण	-6389
▁केल्याने	-6390
▁प्रकाशित	-6391
▁यांच्याशी	-6392
निट	-6393
▁धू	-6394
ान्वित	-6395
▁महीनों	-6396
▁मोशेला	-6397
▁सिनेमा	-6398
▁यापूर्वी	-6399
▁माझ्याकडे	-6400
▁विवेकानंद	-6401
▁अहाब	-6402
▁नीती	-6403
▁समानता	-6404
▁म्यानमार	-6405
▁राहणाऱ्या	-6406
यह	-6407
▁65	-6408
▁टू	-6409
▁काग	-6410
▁सस्ती	-6411
▁दावीदाने	-6412
▁पाकिस्तान	-6413
▁लाभान्वित	-6414
▁जाण्यासाठी	-6415
ओगे	-6416
बिया	-6417
▁आना	-6418
▁किट	-6419
▁जागे	-6420
▁पट्ट	-6421
▁पुरा	-6422
्यांशी	-6423
▁मिळून	-6424
▁मोशेने	-6425
▁परिषदेचे	-6426
▁राजाच्या	-6427
▁प्रतिनिधित्व	-6428
थाम	-6429
ल्य	-6430
▁बंग	-6431
▁आसाम	-6432
▁नाते	-6433
▁वर्ण	-6434
▁साली	-6435
▁देण्या	-6436
▁पड़ोसी	-6437
▁दहशतवाद	-6438
-17	-6439
कारा	-6440
▁इन्	-6441
▁एंटी	-6442
▁चलने	-6443
▁सांस	-6444
वृत्ति	-6445
▁खासगी	-6446
▁हृदया	-6447
▁ज्याला	-6448
▁हस्तांतरण	-6449
▁देशांतर्गत	-6450
अलग	-6451
पोषण	-6452
▁रिज	-6453
▁हाच	-6454
▁करणा	-6455
▁थोडे	-6456
▁सपने	-6457
िकीकरण	-6458
▁अहवाल	-6459
▁उपहार	-6460
▁खूबसूर	-6461
प्रमाणेच	-6462
▁न्यायाधीश	-6463
▁टाका	-6464
▁गरीबी	-6465
▁धर्मी	-6466
▁मानना	-6467
▁ज्यांनी	-6468
▁वय	-6469
्राव	-6470
▁आपसे	-6471
▁ईंधन	-6472
▁मासिक	-6473
▁वारसा	-6474
▁अभिषेक	-6475
▁पीढ़ियों	-6476
▁म्यांमार	-6477
▁अँ	-6478
▁पॉल	-6479
▁भूल	-6480
वल्या	-6481
शालोम	-6482
▁काना	-6483
▁दिवा	-6484
▁फाउंड	-6485
▁बेटों	-6486
▁सुगंध	-6487
▁कृत्रिम	-6488
▁तिसऱ्या	-6489
▁याविषयी	-6490
▁करण्यावर	-6491
▁१०	-6492
पीएस	-6493
▁अस्	-6494
▁जैन	-6495
▁टीका	-6496
▁उभारणी	-6497
▁सांगून	-6498
▁मार्गावर	-6499
▁केल्यानंतर	-6500
▁प्रतिनिधिमंड	-6501
▁क्षेत्रामध्ये	-6502
▁ध्व	-6503
▁मुफ्त	-6504
▁सूचित	-6505
▁समारंभ	-6506
▁प्रसंस्करण	-6507
सिंग	-6508
▁बळी	-6509
▁शैली	-6510
▁कार्म	-6511
▁दुसरे	-6512
▁परदेश	-6513
▁स्थला	-6514
▁खरोखरच	-6515
▁(2	-6516
▁नब	-6517
▁रॉ	-6518
▁वळ	-6519
▁खां	-6520
ांतून	-6521
▁आयकर	-6522
क्षेत्र	-6523
▁अंग्रे	-6524
▁पाठविले	-6525
थ्या	-6526
▁दुःख	-6527
▁मालम	-6528
▁पोलीस	-6529
▁बनवले	-6530
▁बनाता	-6531
▁34	-6532
▁आर्	-6533
▁मूळ	-6534
चार्य	-6535
नेस्सर	-6536
▁निंदा	-6537
▁बढ़ते	-6538
▁अर्पित	-6539
▁पेशेवर	-6540
▁मिलाकर	-6541
▁2020-21	-6542
▁सांख्यिकी	-6543
▁त्याचप्रमाणे	-6544
कता	-6545
गाल	-6546
परि	-6547
▁मॅ	-6548
त्ते	-6549
▁श्व	-6550
▁चट्ट	-6551
▁येणे	-6552
▁इंस्टीट	-6553
▁सारख्या	-6554
▁निर्माता	-6555
▁संख्येने	-6556
गां	-6557
्‍य	-6558
ासार	-6559
▁फ्ल	-6560
▁तज्ञ	-6561
▁मंचा	-6562
▁माती	-6563
▁स्तन	-6564
▁वेगळे	-6565
▁जीवनात	-6566
▁मदतीने	-6567
▁म्हणणे	-6568
▁यासंदर्भात	-6569
इप	-6570
ह्न	-6571
▁33	-6572
▁खज	-6573
सभेत	-6574
▁बंधु	-6575
समावेश	-6576
▁नेपाल	-6577
यांच्या	-6578
▁विकल्प	-6579
मंत्र्यांनी	-6580
▁झाल्यानंतर	-6581
▁वाढवण्यासाठी	-6582
वानी	-6583
▁हटा	-6584
▁किरण	-6585
▁घालून	-6586
▁देतील	-6587
▁रस्ता	-6588
▁पलिष्ट	-6589
IS	-6590
काचा	-6591
▁पड़े	-6592
ांबाबत	-6593
▁आवाज़	-6594
▁परमाण	-6595
▁कलाकार	-6596
▁संलग्न	-6597
▁अबशालोम	-6598
▁इच्छितो	-6599
▁अध्यादेश	-6600
▁महत्वाचा	-6601
उट	-6602
▁हज	-6603
▁कथा	-6604
▁नात	-6605
▁मधे	-6606
ांकडे	-6607
द्वारा	-6608
▁वापरा	-6609
▁गाड्या	-6610
▁सेवकों	-6611
ांपेक्षा	-6612
घ्र	-6613
ूसु	-6614
कावर	-6615
मागे	-6616
▁आधुन	-6617
▁तोमर	-6618
▁बादल	-6619
▁डेविड	-6620
▁मानतो	-6621
▁उपकरणे	-6622
▁फाउंडेशन	-6623
▁विभागाच्या	-6624
▁आत्मविश्वास	-6625
▁हथ	-6626
▁गिरा	-6627
▁गुना	-6628
▁दाहि	-6629
▁समार	-6630
▁गुप्त	-6631
▁विश्ले	-6632
▁वाहतुकी	-6633
FF	-6634
▁s	-6635
फिक	-6636
दाता	-6637
▁शही	-6638
▁औषधि	-6639
▁भरोसा	-6640
▁विशेषत	-6641
▁स्वयंसे	-6642
▁ठेवण्यात	-6643
▁विकासाला	-6644
▁केल्याबद्दल	-6645
आईटी	-6646
▁फिट	-6647
▁लसी	-6648
▁बरेच	-6649
▁मतलब	-6650
▁लंबी	-6651
▁हंगा	-6652
▁जगाला	-6653
▁लागली	-6654
▁सुभाष	-6655
▁ग्लोबल	-6656
▁कोणताही	-6657
▁जरूरतों	-6658
▁ऑस्ट्रेलिया	-6659
थॉन	-6660
▁55	-6661
▁खराब	-6662
▁तक्रार	-6663
▁सिंहासन	-6664
▁महत्वाकां	-6665
▁प्रतिनिधियों	-6666
ोजे	-6667
▁42	-6668
▁Sh	-6669
▁नाक	-6670
▁हमी	-6671
▁हेल्थ	-6672
▁निर्मला	-6673
id	-6674
डन	-6675
कोट	-6676
▁गेह	-6677
▁बाह	-6678
▁मरा	-6679
सर्या	-6680
▁जोडले	-6681
▁मिलती	-6682
▁वाटेल	-6683
▁इमारती	-6684
▁परेशान	-6685
▁इस्राएली	-6686
▁संकल्पना	-6687
▁मंत्रियों	-6688
▁194	-6689
▁इंट	-6690
▁पचा	-6691
▁महल	-6692
▁चर्च	-6693
ासंगिक	-6694
▁तेथून	-6695
▁पॅकेज	-6696
▁परमाणु	-6697
▁प्रासंगिक	-6698
कून	-6699
दिव	-6700
नाने	-6701
स्मा	-6702
▁सद्	-6703
▁यादी	-6704
▁सीमित	-6705
▁एलपीजी	-6706
▁निवारण	-6707
▁अर्थसंकल्प	-6708
वाने	-6709
▁अकाद	-6710
▁काले	-6711
▁क्षण	-6712
जातियों	-6713
्यपूर्ण	-6714
र्भ	-6715
ल्ल	-6716
▁ऑपर	-6717
▁झूठ	-6718
▁पंख	-6719
▁निया	-6720
▁साडे	-6721
▁झाल्याचे	-6722
▁प्रदेशातील	-6723
पुरव	-6724
साइट	-6725
▁धान	-6726
▁शिल	-6727
▁डोळे	-6728
▁घंटों	-6729
▁प्रेस	-6730
▁बहुता	-6731
▁जुन्या	-6732
▁गणराज्य	-6733
▁निमंत्र	-6734
ज्य	-6735
▁सॉ	-6736
िपुर	-6737
▁पकड	-6738
▁सोप	-6739
साहेब	-6740
▁तनाव	-6741
स्थानी	-6742
▁खर्चा	-6743
▁पाण्यात	-6744
▁प्रोटोक	-6745
▁जेणेकरून	-6746
▁देण्याचा	-6747
▁पृथ्वीवर	-6748
निक	-6749
▁चू	-6750
डीआर	-6751
▁इतक्या	-6752
▁उपासना	-6753
▁स्तुति	-6754
▁उत्पादने	-6755
▁उद्देशाने	-6756
यती	-6757
ूपी	-6758
▁1000	-6759
▁आर्ट	-6760
▁हिमालय	-6761
▁निवासियों	-6762
▁सर्वसमावेश	-6763
करा	-6764
लेख	-6765
▁अम्	-6766
▁पौल	-6767
▁मोक	-6768
▁बोली	-6769
▁वाढवि	-6770
▁मान्यवर	-6771
▁आयुष्यात	-6772
am	-6773
लिश	-6774
▁तिक	-6775
स्तीत	-6776
▁इतना	-6777
▁कधीच	-6778
▁रद्द	-6779
▁इंजीन	-6780
▁जरूरी	-6781
▁ढांचा	-6782
▁दैनिक	-6783
▁पूंजी	-6784
▁कामकाज	-6785
▁डिजाइन	-6786
▁पाठवले	-6787
▁समर्पण	-6788
▁प्रकारची	-6789
ंका	-6790
▁इंद	-6791
▁इको	-6792
द्वार	-6793
▁किले	-6794
▁पाठी	-6795
▁उड्डा	-6796
▁देशाचे	-6797
RA	-6798
़ा	-6799
एनएस	-6800
चालक	-6801
दुखी	-6802
ल्‍ली	-6803
हाय्य	-6804
▁प्रि	-6805
▁जोड़ा	-6806
▁बायको	-6807
▁सौभाग्य	-6808
▁सख	-6809
लयात	-6810
ूसुफ	-6811
▁फें	-6812
▁बेड	-6813
▁अखंड	-6814
स्परिक	-6815
▁आजादी	-6816
▁यहोशू	-6817
ांबरोबर	-6818
▁झालेली	-6819
▁ह्याचा	-6820
ांपर्यंत	-6821
ज़ार	-6822
▁अनंत	-6823
▁रामा	-6824
▁व्ही	-6825
▁अवस्था	-6826
▁लिहिले	-6827
▁ह्याला	-6828
▁कोणतेही	-6829
▁पुढाकार	-6830
▁यहूदाच्या	-6831
▁परिस्थितीत	-6832
लेक	-6833
▁अके	-6834
▁ऐकू	-6835
▁क्व	-6836
▁पंच	-6837
▁सांगू	-6838
▁घराण्या	-6839
▁तंत्रज्ञानाच्या	-6840
▁मंत्रिमंडळाच्या	-6841
एनए	-6842
रण्य	-6843
सीएम	-6844
▁कशी	-6845
▁युक्त	-6846
▁व्हावी	-6847
▁अत्यधिक	-6848
▁कोणतीही	-6849
▁नरेन्द्र	-6850
▁यहूदियों	-6851
▁पारस्परिक	-6852
▁मंत्र्यांनी	-6853
रह	-6854
▁48	-6855
डेकर	-6856
▁हाय	-6857
▁मासे	-6858
▁दिल्‍ली	-6859
▁याह्वेह	-6860
▁मार्गाने	-6861
▁प्रशिक्षित	-6862
रीच	-6863
पाशी	-6864
▁झाड	-6865
▁अपील	-6866
▁गावा	-6867
दराबाद	-6868
▁आनंदी	-6869
▁देवाण	-6870
▁संतोष	-6871
स्थापित	-6872
▁जगभरात	-6873
▁शरीरात	-6874
▁संवेदनशील	-6875
ण्य	-6876
▁मिश	-6877
▁शाप	-6878
▁बचाने	-6879
▁यूसुफ	-6880
▁रक्ता	-6881
▁करायची	-6882
▁समृद्धी	-6883
▁सरकारला	-6884
▁जिम्मेदार	-6885
▁तामिळनाडू	-6886
रेट	-6887
ल्फ	-6888
▁38	-6889
▁नज	-6890
चानक	-6891
▁मुळे	-6892
▁ठेवली	-6893
▁वाढेल	-6894
▁झालेला	-6895
▁रहेंगे	-6896
▁जनतेच्या	-6897
▁प्रोटोकॉल	-6898
▁त्याप्रमाणे	-6899
▁गेट	-6900
▁चयन	-6901
▁कठिन	-6902
नेशिया	-6903
▁अचानक	-6904
▁संशोधित	-6905
ँस	-6906
ंचन	-6907
ोन्	-6908
▁गंग	-6909
▁कनान	-6910
▁त्यो	-6911
णामुळे	-6912
▁तीसरे	-6913
▁प्राण्या	-6914
▁सुविधाएं	-6915
▁उत्पादकता	-6916
▁ह्यांच्या	-6917
▁इंस्टीट्यूट	-6918
ॉड	-6919
▁आकर	-6920
▁दळण	-6921
▁दैव	-6922
▁सीई	-6923
▁गोत्र	-6924
▁उपभोक्ता	-6925
▁परराष्ट्र	-6926
छा	-6927
पत	-6928
ोत	-6929
सीए	-6930
▁अमर	-6931
▁जेल	-6932
ांजली	-6933
▁ज्ये	-6934
▁पोषक	-6935
▁मोफत	-6936
लपमेंट	-6937
▁दिमाग	-6938
▁देवदूत	-6939
▁होण्याचा	-6940
वीस	-6941
▁जू	-6942
▁मीट	-6943
▁सवल	-6944
▁झालो	-6945
▁बालक	-6946
▁अनुमो	-6947
▁मागील	-6948
▁लाभदायक	-6949
▁एकात्मिक	-6950
ऊस	-6951
तू	-6952
उंट	-6953
▁th	-6954
भरणी	-6955
▁जाल	-6956
▁मिळतो	-6957
▁हजारो	-6958
▁नियामक	-6959
▁यात्री	-6960
▁ज्यामध्ये	-6961
▁पूर्वोत्तर	-6962
▁माझ्यासाठी	-6963
रोन	-6964
▁घन	-6965
▁आकड	-6966
▁लष्	-6967
▁वेश	-6968
▁पर्याय	-6969
▁रोमांच	-6970
▁प्रथाओं	-6971
▁त्यापैकी	-6972
▁पायाभरणी	-6973
ic	-6974
टों	-6975
शैली	-6976
ांकन	-6977
▁छूट	-6978
▁मुँ	-6979
▁इतनी	-6980
▁ईयोब	-6981
▁गरिब	-6982
▁मस्ति	-6983
▁मिनिट	-6984
▁आफ्रिक	-6985
▁अवलंबून	-6986
▁कंपन्या	-6987
el	-6988
ॅप	-6989
▁हरी	-6990
▁बजाय	-6991
▁भीती	-6992
▁कहानी	-6993
▁पहिली	-6994
▁देशाचा	-6995
▁सैनिकों	-6996
▁राज्यातील	-6997
▁प्रतिनिधिमंडल	-6998
IM	-6999
टेक	-7000
बोन	-7001
िमी	-7002
ऐवजी	-7003
▁थोड	-7004
▁सरल	-7005
योग्य	-7006
िलियन	-7007
▁कीमत	-7008
▁नौदल	-7009
▁ब्रह	-7010
▁भंडारण	-7011
▁विटामिन	-7012
▁दुर्घटना	-7013
▁प्रदर्शनी	-7014
▁सर्वसमावेशक	-7015
धना	-7016
▁अट	-7017
बिंब	-7018
▁आणा	-7019
▁मरीज	-7020
▁मेगा	-7021
▁वाढी	-7022
▁न्यून	-7023
▁उंचीवर	-7024
▁औपचारिक	-7025
▁त्योहार	-7026
▁द्यायला	-7027
द्दा	-7028
ृत्य	-7029
▁एला	-7030
▁जाय	-7031
▁रिट	-7032
▁हिम	-7033
बाहेर	-7034
▁पसंद	-7035
▁सफाई	-7036
▁गवाही	-7037
▁केलेला	-7038
मंत्रियों	-7039
हीन	-7040
▁उर	-7041
ातडी	-7042
▁दाँ	-7043
िकाओं	-7044
▁जाति	-7045
▁अड्डे	-7046
▁उपदेश	-7047
▁ज्येष्ठ	-7048
ोगु	-7049
ज्जी	-7050
वेशन	-7051
▁ओदि	-7052
▁गलत	-7053
▁दंड	-7054
▁गवर्	-7055
▁दोगु	-7056
क्ताओं	-7057
▁अभिने	-7058
▁अनुरूप	-7059
▁निकाला	-7060
▁परन्तु	-7061
▁लेवियों	-7062
मेल	-7063
प्रे	-7064
वाचा	-7065
▁भले	-7066
▁सुस	-7067
▁कप्त	-7068
▁खेळा	-7069
▁बेहद	-7070
▁निकाय	-7071
▁यहोशा	-7072
▁शासित	-7073
▁प्रचंड	-7074
▁निर्णया	-7075
▁रुपयांचे	-7076
कीया	-7077
▁2030	-7078
▁शाखा	-7079
▁हाउस	-7080
▁अफगान	-7081
▁जेटली	-7082
▁शर्मा	-7083
▁साबित	-7084
▁सुरुवा	-7085
▁विभागाने	-7086
▁प्रतिबिंब	-7087
▁बीमारियों	-7088
ईडी	-7089
▁गार	-7090
▁तशी	-7091
▁सब्	-7092
ोग्रा	-7093
▁आजही	-7094
▁पिला	-7095
▁सिखा	-7096
▁पावला	-7097
▁यातून	-7098
▁दिखाया	-7099
शास्त्रा	-7100
▁जलमार्ग	-7101
▁श्रद्धा	-7102
▁पारदर्शी	-7103
बली	-7104
धारा	-7105
▁बोस	-7106
▁इतका	-7107
▁नियु	-7108
माच्या	-7109
▁शिविर	-7110
▁राहतात	-7111
▁जावडेकर	-7112
▁बेटियों	-7113
▁वाणिज्यिक	-7114
▁एकल	-7115
▁कहो	-7116
▁टूट	-7117
▁वास	-7118
▁ऊंचा	-7119
▁आभासी	-7120
▁राहात	-7121
▁लावले	-7122
▁दिवसीय	-7123
▁आयोगाने	-7124
▁हैदराबाद	-7125
▁एजेंसियों	-7126
▁प्रतियोगिता	-7127
नन	-7128
्यूर	-7129
▁खाल	-7130
▁तौर	-7131
▁दरी	-7132
▁खुला	-7133
▁खोली	-7134
▁काढले	-7135
▁रिसर्च	-7136
▁स्क्री	-7137
▁प्रमाणे	-7138
▁सिंगापुर	-7139
▁जळ	-7140
▁१५	-7141
य्या	-7142
सरों	-7143
िकरण	-7144
▁Aay	-7145
▁तम्	-7146
▁आएंगे	-7147
▁फैसला	-7148
स्वतंत्र	-7149
▁जास्तीत	-7150
▁त्याबद्दल	-7151
चिक	-7152
्टर	-7153
▁पडला	-7154
▁पीछा	-7155
▁मुलगी	-7156
▁जाऊंगा	-7157
▁केंद्रे	-7158
▁विद्युत	-7159
जन्य	-7160
▁NITI	-7161
▁ताकद	-7162
▁नर्म	-7163
▁मशीन	-7164
▁सीबी	-7165
▁Aayog	-7166
▁जिसकी	-7167
▁मणिपुर	-7168
▁पहाड़ों	-7169
▁विशेषज्ञों	-7170
प्पट	-7171
लाची	-7172
▁अदा	-7173
▁गुड	-7174
▁ऐकून	-7175
▁लिंक	-7176
▁विकत	-7177
▁होटल	-7178
▁वतीने	-7179
▁अजूनही	-7180
▁टक्क्यां	-7181
▁दूरसंचार	-7182
▁सर्वांचे	-7183
जुट	-7184
ताब	-7185
ियस	-7186
▁थक	-7187
▁बोझ	-7188
त्त्व	-7189
▁जिंक	-7190
ेंव्हा	-7191
▁साक्ष	-7192
▁निर्भर	-7193
▁महाराज	-7194
▁मुलाला	-7195
▁सर्वजण	-7196
▁मूल्यों	-7197
▁वर्षांपूर्वी	-7198
दीप	-7199
भागा	-7200
▁130	-7201
▁तसा	-7202
▁पाए	-7203
▁हॉट	-7204
▁कराल	-7205
▁खनिज	-7206
▁खेती	-7207
▁सफेद	-7208
▁हक्क	-7209
▁नव्हती	-7210
▁मिट्टी	-7211
करणासाठी	-7212
पाई	-7213
▁थोड़	-7214
▁सुनो	-7215
▁स्टा	-7216
▁नियोजन	-7217
▁न्यायालय	-7218
ुप	-7219
द्रा	-7220
▁नील	-7221
दृष्ट	-7222
▁अफगा	-7223
▁असणार	-7224
▁कामों	-7225
▁निरोप	-7226
▁बढ़कर	-7227
▁सर्दी	-7228
▁तक्रारी	-7229
▁दर्शनीय	-7230
▁श्रेष्ठ	-7231
▁प्रशासकीय	-7232
कुल	-7233
दूक	-7234
पीपी	-7235
▁300	-7236
▁असावे	-7237
▁कृपया	-7238
▁अधिकाधिक	-7239
▁महिलांना	-7240
ॅम	-7241
तीन	-7242
लाग	-7243
लोड	-7244
ोदय	-7245
▁नॉ	-7246
▁फ़	-7247
▁वग	-7248
▁पर्	-7249
▁वैय	-7250
देशीर	-7251
ारावर	-7252
▁जाँच	-7253
▁मानस	-7254
▁वक्त	-7255
ेमध्ये	-7256
▁अग्नी	-7257
▁वृत्त	-7258
▁परियोजनाएं	-7259
▁पहिल्यांदा	-7260
याग	-7261
वाट	-7262
▁उग	-7263
▁कू	-7264
भवती	-7265
▁नां	-7266
▁एकजुट	-7267
▁मतदान	-7268
▁शेवटी	-7269
▁पुरानी	-7270
▁प्रोजे	-7271
▁संघटना	-7272
▁कार्मिक	-7273
▁परिश्रम	-7274
▁कुठल्याही	-7275
ार्क	-7276
▁कलम	-7277
▁पति	-7278
▁रेख	-7279
ार्थी	-7280
▁फोरम	-7281
▁अभिनव	-7282
▁भाग्य	-7283
▁वाटले	-7284
▁खाद्या	-7285
▁डब्ल्यू	-7286
▁विश्लेषण	-7287
.”	-7288
▁अक्	-7289
▁देर	-7290
▁रत्	-7291
ऱ्यात	-7292
▁अनुभ	-7293
▁कराने	-7294
▁डॉक्टरों	-7295
▁पुनरुच्चार	-7296
▁राज्यांमध्ये	-7297
ंटा	-7298
बाल	-7299
भाई	-7300
▁इक्	-7301
▁उलट	-7302
▁खबर	-7303
▁नोट	-7304
▁रान	-7305
▁हान	-7306
▁चिंत	-7307
▁लॉजि	-7308
पक्षीय	-7309
▁आधारे	-7310
▁जंगली	-7311
▁स्टॉक	-7312
▁सिंचाई	-7313
▁होण्या	-7314
▁अपवित्र	-7315
▁विभागाचे	-7316
▁अधिकाऱ्यांना	-7317
60	-7318
दीय	-7319
▁IC	-7320
ेतील	-7321
▁कृत	-7322
▁बेच	-7323
▁आपसी	-7324
▁उदयोग	-7325
▁दळणवळ	-7326
▁मानते	-7327
▁व्यक्तीला	-7328
▁प्रौद्योगिक	-7329
एमएस	-7330
▁कों	-7331
विरोध	-7332
▁यार्	-7333
▁बच्चा	-7334
▁दुप्पट	-7335
▁करतांना	-7336
▁घेतल्या	-7337
▁रुपयांप	-7338
▁करारामुळे	-7339
▁अभ्यासक्रम	-7340
▁सहकार्याने	-7341
रि	-7342
डीसी	-7343
▁उपज	-7344
▁कॉल	-7345
▁सरळ	-7346
▁इजरा	-7347
▁इटली	-7348
▁डोके	-7349
▁धरती	-7350
पुरवठा	-7351
▁उन्नत	-7352
▁राजदूत	-7353
▁निमित्त	-7354
▁ज्याच्या	-7355
▁८	-7356
▁चै	-7357
्यूब	-7358
▁बसून	-7359
▁साहस	-7360
▁स्ना	-7361
▁इब्रा	-7362
▁गार्ड	-7363
▁अधिकृत	-7364
▁क्रांति	-7365
▁कॉन्फरन्सिंग	-7366
▁सगळ	-7367
▁साव	-7368
▁इफ्फी	-7369
ईपर्यंत	-7370
▁नियमों	-7371
▁टर्मिनल	-7372
▁पश्चिमी	-7373
▁समावेशी	-7374
▁रेखांकित	-7375
▁लोकसंख्य	-7376
▁दृष्टीकोन	-7377
▁आधुनिकीकरण	-7378
मय	-7379
डीत	-7380
वधी	-7381
▁तिथ	-7382
▁पचास	-7383
▁आलेला	-7384
▁पहलों	-7385
▁हातात	-7386
वलेल्या	-7387
▁अद्यया	-7388
▁व्हायला	-7389
वह	-7390
▁:-	-7391
स्टि	-7392
▁कुणी	-7393
▁महामंड	-7394
▁राजस्व	-7395
▁लोकांमध्ये	-7396
▁रोजगाराच्या	-7397
▁अधिकाऱ्यांनी	-7398
75	-7399
▁शतक	-7400
ॉर्डन	-7401
▁दाखल	-7402
▁देकर	-7403
▁योगा	-7404
▁सर्वि	-7405
▁बहादुर	-7406
▁सन्दूक	-7407
▁गर्भवती	-7408
▁निरीक्षण	-7409
▁सिंगापूर	-7410
▁त्यामध्ये	-7411
▁प्रयोगशालाओं	-7412
▁49	-7413
वादन	-7414
्येक	-7415
▁चैन	-7416
▁वसा	-7417
ाराला	-7418
▁जाकर	-7419
▁नींद	-7420
▁स्ने	-7421
साच्या	-7422
▁पोलिस	-7423
▁दूसरों	-7424
▁न्यूनतम	-7425
▁ट्रिलियन	-7426
हद	-7427
▁नफ	-7428
▁सुल	-7429
▁हीच	-7430
भोवती	-7431
▁घडले	-7432
▁बंदी	-7433
▁राजन	-7434
▁शासक	-7435
▁अधिकतम	-7436
व्यतिरिक्त	-7437
FFI	-7438
लोक	-7439
▁इनो	-7440
्यांत	-7441
▁बिंद	-7442
▁लग्न	-7443
▁उड़ान	-7444
▁छुड़ा	-7445
▁शिल्प	-7446
▁ज्ञाना	-7447
▁नक्कीच	-7448
▁फ्रांस	-7449
▁इकाइयों	-7450
▁व्यासपी	-7451
▁वैयक्तिक	-7452
ष्ठा	-7453
ेतून	-7454
▁करण	-7455
निष्ठ	-7456
▁असणे	-7457
▁इतने	-7458
▁चलता	-7459
▁कठिना	-7460
▁कित्येक	-7461
▁माणसाने	-7462
▁संतुलित	-7463
ँची	-7464
णीव	-7465
▁मक	-7466
▁रड	-7467
▁अँड	-7468
▁टेक	-7469
▁मुँह	-7470
त्यक्ष	-7471
ांमधून	-7472
▁वाटतो	-7473
▁सीतार	-7474
▁कमतरता	-7475
▁प्यारे	-7476
▁बिजनेस	-7477
▁संपन्न	-7478
▁देवताओं	-7479
▁लोकांशी	-7480
▁इंडोनेशिया	-7481
!";	-7482
भरा	-7483
र्तन	-7484
ारीत	-7485
▁हून	-7486
▁राजे	-7487
दाताओं	-7488
▁फायदे	-7489
▁विनाश	-7490
▁अंदाजे	-7491
▁जर्मनी	-7492
▁यार्देन	-7493
▁मुख्यालय	-7494
▁महत्त्वाचे	-7495
चले	-7496
दाम	-7497
ूल्य	-7498
▁गिल	-7499
▁सक्ष	-7500
▁चिह्न	-7501
▁पुरात	-7502
▁पेयजल	-7503
▁महानि	-7504
▁जॉर्डन	-7505
▁अल्पसंख्य	-7506
▁शरण	-7507
▁शेष	-7508
गावॅट	-7509
▁आश्र	-7510
▁कदमों	-7511
▁कर्जा	-7512
▁काउंस	-7513
▁गिलाद	-7514
▁त्रिप	-7515
▁करणारी	-7516
▁संक्रमित	-7517
क्य	-7518
वीर	-7519
काने	-7520
बाजू	-7521
ल्लू	-7522
▁तात्	-7523
▁पोला	-7524
▁हरित	-7525
▁हार्दिक	-7526
स्ट्रक्चर	-7527
▁देशासाठी	-7528
▁संरक्षित	-7529
▁दिग्दर्शक	-7530
इज	-7531
धर	-7532
▁of	-7533
▁टि	-7534
▁फळे	-7535
काळात	-7536
भगिनी	-7537
▁अद्व	-7538
▁बायो	-7539
▁रंगा	-7540
ांतरित	-7541
▁अफगाण	-7542
▁ओळखले	-7543
▁बातमी	-7544
तांच्या	-7545
▁एनसीसी	-7546
▁रीतीने	-7547
▁सेवाएं	-7548
्यामध्ये	-7549
▁परिस्थित	-7550
▁टॉ	-7551
ळाची	-7552
▁घूम	-7553
▁चोट	-7554
▁नौद	-7555
▁मेज	-7556
▁लाए	-7557
वायरस	-7558
▁तथ्य	-7559
▁पूरक	-7560
▁ऑपरेशन	-7561
▁बिक्री	-7562
▁लोकांवर	-7563
▁सामायिक	-7564
▁साहित्य	-7565
▁तिरस्कार	-7566
▁मदतीसाठी	-7567
्रास्ट्रक्चर	-7568
▁पुढीलप्रमाणे	-7569
▁त्यांच्यासाठी	-7570
ंसे	-7571
▁वॉ	-7572
यत्त	-7573
विंद	-7574
▁पूछा	-7575
▁योहान	-7576
▁विशेषता	-7577
▁उद्योगों	-7578
▁प्रतिज्ञा	-7579
▁प्लास्टिक	-7580
▁निर्माताओं	-7581
▁विद्युतीकरण	-7582
कत	-7583
खार	-7584
वयास	-7585
▁चंद	-7586
▁परम	-7587
धारणा	-7588
मार्फत	-7589
▁नॅशनल	-7590
▁माहित	-7591
▁शास्त	-7592
▁कार्बन	-7593
▁उद्यमियों	-7594
▁इलेक्ट्रिक	-7595
CO	-7596
लिम	-7597
ोरा	-7598
▁हळ	-7599
▁जीभ	-7600
▁मद्	-7601
▁असला	-7602
▁एनसी	-7603
▁वैसे	-7604
▁होनी	-7605
हाच्या	-7606
▁वाढते	-7607
▁समापन	-7608
▁आंतरिक	-7609
▁देवदार	-7610
▁पूर्वे	-7611
▁सक्षमी	-7612
▁ह्याचे	-7613
▁दक्षिणे	-7614
▁संपत्ति	-7615
▁स्वायत्त	-7616
AI	-7617
इंड	-7618
बिल	-7619
▁उक	-7620
▁१२	-7621
लाचा	-7622
▁1.5	-7623
▁बसा	-7624
▁कच्छ	-7625
▁गहरी	-7626
▁सीईओ	-7627
ोग्राम	-7628
▁आत्ता	-7629
▁परिभाष	-7630
▁सीरिया	-7631
▁विश्राम	-7632
▁अनुसूचित	-7633
▁लक्ष्यों	-7634
▁लोकसंख्या	-7635
▁अप्रत्यक्ष	-7636
**	-7637
टीय	-7638
सनीय	-7639
▁400	-7640
न्दित	-7641
▁उंचा	-7642
▁चलते	-7643
▁मेला	-7644
आर्थिक	-7645
▁कवरेज	-7646
▁दशकों	-7647
▁देखता	-7648
▁साइबर	-7649
▁स्टेश	-7650
▁सरकारचा	-7651
बेन	-7652
▁अभया	-7653
▁चार्ज	-7654
▁मालिश	-7655
▁स्वर्ण	-7656
▁c	-7657
▁t	-7658
मंद	-7659
▁पल	-7660
राची	-7661
वतात	-7662
वाची	-7663
▁गाढ	-7664
▁टोक	-7665
▁कोठे	-7666
▁थोड़ा	-7667
दृष्ट्या	-7668
▁अभियाना	-7669
▁फ्रान्स	-7670
ैप	-7671
रेन	-7672
आईसी	-7673
▁असाल	-7674
▁ग्रीन	-7675
▁द्याय	-7676
▁नगरात	-7677
▁निभाई	-7678
▁अकादमी	-7679
▁इजरायल	-7680
▁देताना	-7681
▁मिळवून	-7682
▁व्हावा	-7683
▁2016-17	-7684
▁नमस्कार	-7685
▁त्यांच्याशी	-7686
लर	-7687
बीर	-7688
ष्‍	-7689
सभे	-7690
▁हॅ	-7691
टीने	-7692
शिता	-7693
▁इंत	-7694
▁टाळ	-7695
▁पाट	-7696
▁सुच	-7697
▁पुरी	-7698
▁धैर्य	-7699
▁जहाजों	-7700
▁संसदीय	-7701
ंतू	-7702
कुट	-7703
▁छू	-7704
▁१८	-7705
▁अडक	-7706
▁आरोप	-7707
▁हिज्	-7708
▁जीवंत	-7709
ांबद्दल	-7710
▁किंमती	-7711
▁मद्देन	-7712
▁लागतात	-7713
▁आनन्दित	-7714
MS	-7715
वते	-7716
ष्प	-7717
िस्ट	-7718
▁किश	-7719
▁यशा	-7720
▁मुस्	-7721
▁रागा	-7722
व्यापी	-7723
▁टेस्ट	-7724
▁संसदे	-7725
▁पहुंचा	-7726
▁सेक्टर	-7727
▁प्रसंगी	-7728
▁जीवनशैली	-7729
▁संस्थागत	-7730
▁स्थलांतर	-7731
विल	-7732
▁125	-7733
▁एअर	-7734
▁बाँ	-7735
▁खुली	-7736
▁धीरे	-7737
▁चिन्ह	-7738
▁छावणी	-7739
▁परकीय	-7740
▁अभिवादन	-7741
▁प्रारंभिक	-7742
सरी	-7743
ळाला	-7744
िप्त	-7745
▁रहो	-7746
▁ठेवू	-7747
▁पांढ	-7748
▁विवाद	-7749
▁लक्षणे	-7750
▁लोकार्	-7751
▁ट्रेनों	-7752
▁यिर्मया	-7753
▁अधिसूचना	-7754
▁मद्देनजर	-7755
▁युवकांना	-7756
ढ़ी	-7757
▁सॅ	-7758
वाहत	-7759
▁195	-7760
▁कंध	-7761
▁गाड	-7762
▁जाळ	-7763
▁झां	-7764
▁लिख	-7765
ोरेशन	-7766
▁दरात	-7767
▁परिक	-7768
▁आकडेव	-7769
▁कपड़ा	-7770
▁बऱ्या	-7771
▁स्थानक	-7772
▁चिह्नित	-7773
▁सुधारित	-7774
▁अधिसूचित	-7775
▁माणसांना	-7776
▁त्याशिवाय	-7777
▁प्रोजेक्ट	-7778
टीन	-7779
सिड	-7780
काची	-7781
ांती	-7782
▁पूल	-7783
▁ईस्ट	-7784
▁तिचे	-7785
▁तत्पर	-7786
▁राहिली	-7787
▁शिख	-7788
▁केलं	-7789
▁पळून	-7790
▁कक्षा	-7791
▁शिवाय	-7792
▁हत्या	-7793
▁प्रभार	-7794
▁विनियम	-7795
▁सीतारमण	-7796
▁अद्वितीय	-7797
▁असल्याची	-7798
▁रेल्वेने	-7799
▁स्टेशनों	-7800
▁नेतृत्वाखाली	-7801
▁क्षेत्रांमध्ये	-7802
ent	-7803
महा	-7804
ताला	-7805
▁अरे	-7806
तल्या	-7807
नातील	-7808
ीविका	-7809
▁आणून	-7810
▁मोआब	-7811
▁शहरे	-7812
प्रसंगी	-7813
▁अम्मोन	-7814
▁आरक्षण	-7815
▁रोकथाम	-7816
▁आजीविका	-7817
▁प्रक्षे	-7818
िमा	-7819
ूकी	-7820
द्दी	-7821
धारक	-7822
वाडा	-7823
▁and	-7824
▁एकच	-7825
▁पीठ	-7826
▁फूल	-7827
▁परवड	-7828
▁पेशी	-7829
▁प्रज	-7830
▁लगती	-7831
वाहाटी	-7832
▁दर्शा	-7833
▁साखळी	-7834
ांविषयी	-7835
▁फार्मा	-7836
▁यापैकी	-7837
▁सिक्किम	-7838
▁मर्यादित	-7839
दोष	-7840
लाल	-7841
प्ति	-7842
▁बहन	-7843
▁लखन	-7844
▁कचरा	-7845
▁जाया	-7846
▁तरतु	-7847
▁एमओयू	-7848
▁एलईडी	-7849
▁अग्रणी	-7850
▁दिलेले	-7851
▁विकलांग	-7852
▁दुरुस्ती	-7853
▁राज्यांच्या	-7854
▁प्रौद्योगिकियों	-7855
▁खड	-7856
स्सा	-7857
यांवर	-7858
ष्टिक	-7859
▁बसला	-7860
▁नेताजी	-7861
▁मानदंड	-7862
▁घेण्याची	-7863
il	-7864
डीआई	-7865
स्वा	-7866
▁वां	-7867
द्दाख	-7868
▁ग्रहण	-7869
▁मनाने	-7870
▁सुटका	-7871
▁वाढत्या	-7872
▁उपस्थिती	-7873
AN	-7874
re	-7875
▁कोप	-7876
▁टूर	-7877
विकास	-7878
▁अर्ध	-7879
▁पेत्र	-7880
▁म्हणत	-7881
▁स्पेश	-7882
▁दुष्टों	-7883
▁मस्तिष्क	-7884
▁आयोगाच्या	-7885
म्स	-7886
ोदर	-7887
▁कोड	-7888
▁पाई	-7889
▁मेट्रिक	-7890
▁स्वतःला	-7891
▁महत्वाकांक्षी	-7892
रीज	-7893
▁कफ	-7894
कृती	-7895
पूजन	-7896
▁चाँ	-7897
▁सुट	-7898
▁उतार	-7899
▁यूपी	-7900
▁वर्गा	-7901
▁आयुक्त	-7902
▁श्रीमंत	-7903
▁संयंत्र	-7904
▁विश्वासा	-7905
▁स्वीकृति	-7906
▁महिन्याच्या	-7907
▁सफर	-7908
दृश्य	-7909
▁अरुण	-7910
▁मुदत	-7911
सायनिक	-7912
▁ठेवणे	-7913
▁भाकरी	-7914
लयाच्या	-7915
▁राहावे	-7916
निर्मिती	-7917
▁पंजीकरण	-7918
▁याजकाने	-7919
▁आकडेवारी	-7920
15	-7921
मल	-7922
काय	-7923
फेड	-7924
▁आंक	-7925
▁मीच	-7926
▁वसू	-7927
▁तिचा	-7928
▁लाखो	-7929
▁जुड़ी	-7930
▁बनाते	-7931
▁लावून	-7932
▁संकटे	-7933
▁ज्याने	-7934
▁वाहनों	-7935
▁ह्याने	-7936
▁रचनात्मक	-7937
▁रुपयांचा	-7938
▁लोकार्पण	-7939
▁गृहमंत्री	-7940
▁महासंचालक	-7941
निर	-7942
▁लस	-7943
▁आदी	-7944
▁घोड़	-7945
▁बुरा	-7946
▁आँखें	-7947
▁उजाड़	-7948
▁नितीन	-7949
▁लागणार	-7950
▁त्यातील	-7951
▁खाद्यान्न	-7952
कभी	-7953
टेड	-7954
ट्र	-7955
▁डू	-7956
वश्यक	-7957
आधारित	-7958
▁मनाया	-7959
▁संघटन	-7960
▁सायबर	-7961
▁तरतुदी	-7962
▁तलवारी	-7963
▁मूलभूत	-7964
▁विरोधी	-7965
▁पत्थरों	-7966
▁आपल्याकडे	-7967
▁त्याच्याकडे	-7968
▁प्रक्रियाओं	-7969
गीय	-7970
तेत	-7971
▁कोच	-7972
▁खरा	-7973
▁ढंग	-7974
▁थंड	-7975
▁लची	-7976
लादेश	-7977
▁ज्यो	-7978
▁नोकर	-7979
▁दुकान	-7980
ांद्वारे	-7981
▁स्वरूपात	-7982
▁नियमशास्त्रा	-7983
▁यरुशलेममध्ये	-7984
तेवर	-7985
वर्ध	-7986
सिडी	-7987
▁PIB	-7988
▁पद्	-7989
▁रूस	-7990
ध्वनी	-7991
▁असेच	-7992
▁पीयू	-7993
▁बाहरी	-7994
ल्याबद्दल	-7995
▁किल्ल्या	-7996
▁परिपूर्ण	-7997
▁ह्यामुळे	-7998
▁स्वर्गदूत	-7999
▁अशाप्रकारे	-8000
ER	-8001
▁तृ	-8002
आयसी	-8003
काया	-8004
▁कोष	-8005
▁नबु	-8006
▁सिम	-8007
नीकरण	-8008
ल्यास	-8009
▁खाता	-8010
▁जैविक	-8011
▁एप्रैम	-8012
▁विषयों	-8013
▁ईशान्ये	-8014
▁यूरोपीय	-8015
▁गुवाहाटी	-8016
▁संध्याकाळी	-8017
▁पच	-8018
▁रम	-8019
आयआर	-8020
पेयी	-8021
▁कुळ	-8022
▁IFFI	-8023
▁मण्ड	-8024
▁सरोव	-8025
ितांना	-8026
▁तपशील	-8027
▁फैसले	-8028
▁प्रीति	-8029
▁आव्हाने	-8030
▁पुढच्या	-8031
▁अभयारण्य	-8032
▁रुग्णांची	-8033
▁कल्याणासाठी	-8034
10	-8035
ोह	-8036
एनजी	-8037
▁शाळ	-8038
मुवेल	-8039
शक्ति	-8040
▁नावे	-8041
▁सीमे	-8042
▁सुपर	-8043
▁अक्सर	-8044
▁पावसा	-8045
▁विधवा	-8046
▁गुन्हे	-8047
▁कार्यभार	-8048
▁म्हणाल्या	-8049
▁भारतामध्ये	-8050
▁मंत्रालयाचे	-8051
ha	-8052
घन	-8053
हेल	-8054
▁II	-8055
▁तोच	-8056
▁दोषी	-8057
▁समजा	-8058
▁हिता	-8059
▁पीयूष	-8060
▁डोंगरा	-8061
▁विक्रम	-8062
▁क्रांती	-8063
▁मनापासून	-8064
▁कर्मचाऱ्यां	-8065
▁कार्यान्वित	-8066
न्ट	-8067
संप	-8068
▁पाऊस	-8069
▁सूरज	-8070
▁अग्नि	-8071
▁एफ्रा	-8072
▁दुर्बल	-8073
▁दुसर्या	-8074
▁दोहराया	-8075
▁वंशातील	-8076
▁पारिस्थित	-8077
▁भारतासाठी	-8078
ीर	-8079
शीर	-8080
▁बॅ	-8081
एमटी	-8082
स्कर	-8083
▁अथक	-8084
▁ट्व	-8085
▁शाय	-8086
▁सेल	-8087
▁जाओगे	-8088
▁नाकार	-8089
▁बर्तन	-8090
▁लंबाई	-8091
▁तत्काल	-8092
▁देणारे	-8093
▁जानवरों	-8094
▁देशवासियों	-8095
कम	-8096
ळणी	-8097
वाया	-8098
▁मेल	-8099
भाविक	-8100
ांहून	-8101
▁मागा	-8102
▁याआधी	-8103
▁व्यभि	-8104
▁सपनों	-8105
▁रखेंगे	-8106
▁क्षेत्राच्या	-8107
ोथ	-8108
ंटन	-8109
न्ड	-8110
मेद	-8111
▁44	-8112
▁कस	-8113
र्दी	-8114
िकार	-8115
ूंनी	-8116
ूनों	-8117
▁अहि	-8118
▁फेस	-8119
▁शिर	-8120
▁कमीत	-8121
▁जोशी	-8122
▁नितिन	-8123
▁भावने	-8124
▁भूतान	-8125
▁शेतात	-8126
▁वेळेवर	-8127
▁निमंत्रण	-8128
▁ज्यांच्या	-8129
▁एकत्रितपणे	-8130
्रेस	-8131
▁अणु	-8132
ार्पण	-8133
▁किरा	-8134
▁मवाब	-8135
▁तम्बू	-8136
▁लिखित	-8137
▁शीघ्र	-8138
▁निवासी	-8139
▁स्मृति	-8140
▁खूबसूरत	-8141
▁पौष्टिक	-8142
▁विभागात	-8143
▁क्षमताओं	-8144
▁त्रिपुरा	-8145
▁पृष्ठभूमि	-8146
▁झाल्यामुळे	-8147
▁सफलतापूर्वक	-8148
▁एह	-8149
▁नान	-8150
▁फाइ	-8151
गोलिक	-8152
▁कांग	-8153
▁खतरा	-8154
▁परता	-8155
▁भयान	-8156
▁संगम	-8157
▁सगळी	-8158
▁सपना	-8159
ानियों	-8160
▁मोहीम	-8161
▁राहिल	-8162
ंदर्भात	-8163
▁कारखान	-8164
▁परिचित	-8165
▁दलाच्या	-8166
▁भौगोलिक	-8167
▁व्हिडीओ	-8168
▁टप्प्यात	-8169
▁रासायनिक	-8170
un	-8171
िलेटर	-8172
▁शंभर	-8173
ांसोबत	-8174
▁बारिश	-8175
▁भौतिक	-8176
▁राहतो	-8177
वण्याची	-8178
▁कप्तान	-8179
▁वर्गों	-8180
▁निसर्गा	-8181
▁वाजपेयी	-8182
▁जयंतीनिमित्त	-8183
गीर	-8184
▁चिर	-8185
▁गवाह	-8186
▁धारण	-8187
▁ब्या	-8188
▁शर्म	-8189
▁वर्धन	-8190
▁प्रयाग	-8191
▁मानकों	-8192
▁वार्ता	-8193
▁निकोबार	-8194
▁अद्ययावत	-8195
भौ	-8196
▁पळ	-8197
▁उल्	-8198
▁बोध	-8199
▁2013	-8200
▁आस्थ	-8201
▁चेता	-8202
▁लेता	-8203
▁शायद	-8204
▁सोपे	-8205
ांनाही	-8206
▁भूटान	-8207
▁युध्द	-8208
▁सॉफ्ट	-8209
▁कार्गो	-8210
▁शमुवेल	-8211
▁इंजीनियर	-8212
▁प्रतिदिन	-8213
▁प्रदेशों	-8214
▁प्रतिपादन	-8215
▁बाबासाहेब	-8216
▁प्रणालियों	-8217
स्फ	-8218
ोगा	-8219
▁कव	-8220
ूंना	-8221
▁the	-8222
▁कमा	-8223
▁खाऊ	-8224
▁चाय	-8225
ज्ज्ञ	-8226
▁मेले	-8227
▁कितना	-8228
▁जाणीव	-8229
▁नृत्य	-8230
▁बांधव	-8231
▁बोलतो	-8232
▁वसूली	-8233
▁लद्दाख	-8234
▁क्रमांक	-8235
▁प्रतीक्षा	-8236
AT	-8237
MR	-8238
us	-8239
▁W	-8240
पणी	-8241
मेक	-8242
▁कण	-8243
▁भो	-8244
▁आजू	-8245
▁जानी	-8246
▁मोटर	-8247
▁व्यय	-8248
▁शहाण	-8249
▁अगोदर	-8250
▁कॉरिड	-8251
▁भयानक	-8252
▁स्थाना	-8253
▁होमबलि	-8254
▁आदरांजली	-8255
▁स्वाक्षरी	-8256
▁सर्वांसाठी	-8257
www	-8258
ंटर	-8259
▁३०	-8260
धीरे	-8261
बाजी	-8262
िएशन	-8263
ियाल	-8264
▁घडा	-8265
▁परे	-8266
▁काया	-8267
▁घेतो	-8268
▁नौका	-8269
▁तरीका	-8270
▁ब्रह्म	-8271
▁स्थलों	-8272
▁पारदर्शिता	-8273
▁ऍ	-8274
ँगा	-8275
वनी	-8276
शोधन	-8277
▁कंट	-8278
▁गंध	-8279
▁लेह	-8280
▁संजय	-8281
▁सभाग	-8282
्रीकरण	-8283
▁कायदे	-8284
▁वेळेत	-8285
▁याकोबा	-8286
▁पाहायला	-8287
▁संकेतस्थ	-8288
▁निर्देशित	-8289
इत	-8290
▁दात	-8291
▁सवि	-8292
▁भस्म	-8293
▁हड्ड	-8294
▁रूग्ण	-8295
▁सोडले	-8296
▁थोड्या	-8297
▁व्यर्थ	-8298
▁बैंकिंग	-8299
▁मालवाहत	-8300
▁अल्पसंख्यक	-8301
16	-8302
सळ	-8303
चंद	-8304
▁अही	-8305
▁खाण	-8306
नेशनल	-8307
रीकरण	-8308
▁क्ला	-8309
▁अपडेट	-8310
▁कारवाई	-8311
▁पहलुओं	-8312
▁संतुलन	-8313
▁होमार्	-8314
▁लक्षणीय	-8315
▁श्रीनगर	-8316
▁सरकारची	-8317
▁अंग्रेजी	-8318
▁शिक्षकों	-8319
▁देशांमधील	-8320
▁राष्ट्रपतींनी	-8321
ईक	-8322
▁जॉ	-8323
ग्रा	-8324
्रीत	-8325
▁दखल	-8326
▁हरे	-8327
▁बनले	-8328
▁भक्त	-8329
▁वरील	-8330
▁अशक्त	-8331
▁आवेदन	-8332
▁केदार	-8333
▁देखना	-8334
▁पीड़ा	-8335
▁ब्याज	-8336
▁सद्भाव	-8337
्रोद्योग	-8338
▁पुनरुत्	-8339
▁महानिदेशक	-8340
▁महत्त्वाची	-8341
▁प्रकल्पांचे	-8342
▁कार्यक्रमाला	-8343
बध	-8344
जाग	-8345
ेंड	-8346
पानी	-8347
माचा	-8348
▁निभ	-8349
एमओयू	-8350
▁अखिल	-8351
▁अपार	-8352
▁ऑक्सी	-8353
▁किफाय	-8354
▁माहौल	-8355
▁निसर्ग	-8356
hi	-8357
ळक	-8358
ter	-8359
दाद	-8360
फोन	-8361
मों	-8362
लोन	-8363
▁फूड	-8364
▁बिम	-8365
▁सैल	-8366
▁सोह	-8367
ेसाठी	-8368
▁एसाव	-8369
▁घोडे	-8370
▁तंबू	-8371
▁आढळले	-8372
▁दस्ता	-8373
▁विषयी	-8374
▁पहुंचने	-8375
▁सांगितली	-8376
▁टेक्नोलॉजी	-8377
▁दिशानिर्देशों	-8378
ँसी	-8379
▁52	-8380
काशी	-8381
▁गीत	-8382
▁नबुख	-8383
▁निधि	-8384
▁बापू	-8385
▁दुग्ध	-8386
▁निष्क	-8387
▁निर्या	-8388
▁मिसळून	-8389
▁वनस्पती	-8390
▁स्कूलों	-8391
▁जनसंख्या	-8392
▁प्रयोगशाळ	-8393
▁स्वाभाविक	-8394
रान	-8395
लता	-8396
्राय	-8397
▁...	-8398
▁पढ़	-8399
▁राव	-8400
▁सजा	-8401
लीकरण	-8402
ऱ्याला	-8403
▁दिसते	-8404
▁एशियाई	-8405
▁दीनदया	-8406
▁प्रकोप	-8407
▁घ्यायला	-8408
▁योगदाना	-8409
▁पर्वतावर	-8410
▁रेल्वेच्या	-8411
न्त	-8412
मेड	-8413
▁53	-8414
र्जन	-8415
▁साज	-8416
▁तिची	-8417
▁थंडी	-8418
▁पापी	-8419
▁सवाल	-8420
▁अवकाश	-8421
▁सीखने	-8422
▁अनुवाद	-8423
▁बांधणी	-8424
▁समुदायों	-8425
▁बहुपक्षीय	-8426
▁उपराष्ट्रपतींनी	-8427
फान	-8428
चलित	-8429
▁शेख	-8430
▁सकल	-8431
वेदना	-8432
▁देगी	-8433
▁बनवि	-8434
▁बिया	-8435
▁मारे	-8436
▁वंशा	-8437
▁समिट	-8438
▁पूर्त	-8439
▁स्टेट	-8440
ापेक्षा	-8441
▁जीडीपी	-8442
▁पार्टी	-8443
▁विपरीत	-8444
▁अवस्थेत	-8445
▁कार्यशा	-8446
▁छत्तीसगढ़	-8447
ांध	-8448
ापू	-8449
ूलन	-8450
▁अनो	-8451
▁भरी	-8452
ब्रोन	-8453
▁छिपा	-8454
▁जिनकी	-8455
▁जीवनस	-8456
▁टप्पा	-8457
▁डोंगर	-8458
▁स्टील	-8459
▁मनोरंजन	-8460
▁संदेष्टा	-8461
▁आकांक्षाओं	-8462
▁अफगानिस्तान	-8463
▁प्रतिस्पर्धा	-8464
ing	-8465
एससी	-8466
कैया	-8467
्योन	-8468
▁पोच	-8469
▁हॉल	-8470
जुर्ग	-8471
▁अमृत	-8472
▁इस्प	-8473
▁नंबर	-8474
▁देखकर	-8475
▁इंतजार	-8476
▁डिग्री	-8477
▁रेडियो	-8478
▁पर्यटकांना	-8479
▁क्षेत्रासाठी	-8480
ैक	-8481
गिल	-8482
दास	-8483
ुअल	-8484
्ति	-8485
पक्ष	-8486
▁250	-8487
क्रमी	-8488
ोनिया	-8489
▁एनएच	-8490
▁बढ़े	-8491
▁साखर	-8492
▁घेतात	-8493
▁नौवहन	-8494
▁संकटा	-8495
▁हज़ार	-8496
▁दाहिने	-8497
▁समाचार	-8498
ेंटिलेटर	-8499
▁दस्तावे	-8500
▁सार्वभौ	-8501
▁तेलंगाना	-8502
▁प्रमाणपत्र	-8503
भीत	-8504
▁घास	-8505
▁शून	-8506
घेवाण	-8507
ड़ेकर	-8508
▁जाएं	-8509
▁पावर	-8510
▁वादा	-8511
▁सूचन	-8512
सरकारी	-8513
▁देखें	-8514
▁पापों	-8515
▁ब्लॉक	-8516
▁नदियों	-8517
▁जगाच्या	-8518
▁बुजुर्ग	-8519
▁वेंकैया	-8520
▁ईमानदारी	-8521
▁जावड़ेकर	-8522
▁पाण्याने	-8523
▁बोलतांना	-8524
▁तुमच्यावर	-8525
▁विश्वसनीय	-8526
▁अत्यावश्यक	-8527
▁गृहनिर्माण	-8528
ag	-8529
वाड	-8530
िणी	-8531
याची	-8532
▁रेट	-8533
▁सिन	-8534
▁बताते	-8535
▁आशियाई	-8536
▁क्रमां	-8537
▁राज्यां	-8538
क्षणासाठी	-8539
▁पदार्थों	-8540
▁अन्नधान्य	-8541
▁महाराष्ट्रा	-8542
▁[	-8543
चरण	-8544
सरा	-8545
त्रे	-8546
▁औसत	-8547
▁जमी	-8548
▁जॉन	-8549
▁नमन	-8550
▁भाज	-8551
▁अमीर	-8552
▁आकलन	-8553
▁उष्ण	-8554
▁वहीं	-8555
▁हाइड	-8556
▁बाधित	-8557
▁वीरता	-8558
▁खासदार	-8559
▁सुश्री	-8560
▁उत्कृष्टता	-8561
▁·	-8562
पीओ	-8563
संर	-8564
िमय	-8565
मोडी	-8566
सिटी	-8567
▁कब्	-8568
▁दाल	-8569
▁कंटे	-8570
▁दबाव	-8571
▁अंतर्	-8572
▁निश्च	-8573
▁पद्धत	-8574
▁बराबर	-8575
▁असणारे	-8576
▁इस्त्रा	-8577
▁तुमच्याकडे	-8578
▁अफगाणिस्तान	-8579
िण	-8580
,";	-8581
डाख	-8582
सिंह	-8583
िंगत	-8584
▁कोठ	-8585
▁ठहर	-8586
▁चालत	-8587
▁झाडे	-8588
▁शहीद	-8589
▁मालिक	-8590
▁वडिला	-8591
▁अपनाने	-8592
▁पुनर्व	-8593
▁बढ़ाकर	-8594
▁मण्डली	-8595
▁नीतियों	-8596
▁पराक्रमी	-8597
▁कार्यशाला	-8598
▁विद्यापीठा	-8599
णि	-8600
वो	-8601
▁%	-8602
धीन	-8603
्रल	-8604
▁बहि	-8605
▁उड्ड	-8606
▁धोखा	-8607
▁नर्स	-8608
▁यंदा	-8609
विमर्श	-8610
▁अंधार	-8611
▁दैनंद	-8612
▁भर्ती	-8613
▁विद्व	-8614
▁सच्चा	-8615
▁वृद्धिंगत	-8616
▁उद्योगांना	-8617
▁तुमच्यासाठी	-8618
▁वस्त्रोद्योग	-8619
ुआ	-8620
गिर	-8621
▁थर	-8622
▁आउट	-8623
▁शहद	-8624
▁जाळे	-8625
▁जीवा	-8626
▁मुश्	-8627
▁मेघा	-8628
▁खातों	-8629
▁बोलता	-8630
किय्याह	-8631
▁करायचा	-8632
ऱ्याच्या	-8633
▁सब्सिडी	-8634
▁सविस्तर	-8635
▁जाण्याची	-8636
han	-8637
लमो	-8638
ovid	-8639
▁रोश	-8640
▁खतरे	-8641
▁शिला	-8642
स्टिवल	-8643
▁चालीस	-8644
▁जायचे	-8645
▁थोड़ी	-8646
▁सुनने	-8647
▁हिंदु	-8648
▁दळणवळण	-8649
▁नबुखद्	-8650
▁व्यतिरिक्त	-8651
▁बनवण्यासाठी	-8652
-3	-8653
बों	-8654
सास	-8655
▁01	-8656
▁शूर	-8657
पट्टी	-8658
▁आधीच	-8659
▁काला	-8660
▁पटना	-8661
▁फेरी	-8662
स्वच्छ	-8663
▁भयभीत	-8664
▁शिमोन	-8665
▁तैयारी	-8666
▁ताब्यात	-8667
▁वेबसाइट	-8668
▁इब्राहीम	-8669
▁चिकित्सक	-8670
▁दूरध्वनी	-8671
▁सांगण्यात	-8672
▁प्लेटफॉर्म	-8673
वती	-8674
जातीय	-8675
▁नगरे	-8676
▁मछली	-8677
▁समझा	-8678
▁सोयी	-8679
▁ठेवतो	-8680
▁पोलाद	-8681
▁राहते	-8682
▁व्याज	-8683
▁होंगी	-8684
▁मिश्रण	-8685
▁विभागों	-8686
रम	-8687
डीए	-8688
तमंद	-8689
र्पण	-8690
▁शोम	-8691
क्षिक	-8692
▁अब्द	-8693
▁गावे	-8694
▁नानक	-8695
▁नेहर	-8696
▁विधि	-8697
▁जनावर	-8698
▁पंचायत	-8699
▁सक्रीय	-8700
▁राज्यसभा	-8701
▁उद्देश्यों	-8702
AY	-8703
तौर	-8704
ूएल	-8705
▁39	-8706
▁खर	-8707
ियार	-8708
ीकरण	-8709
▁इंज	-8710
▁चोर	-8711
▁हिल	-8712
पर्यत	-8713
पुरुष	-8714
ब्लिक	-8715
▁पापा	-8716
▁अकेले	-8717
▁आभारी	-8718
▁मालकी	-8719
▁रवाना	-8720
▁रोशनी	-8721
▁उड्डाण	-8722
▁बांधले	-8723
▁वर्ल्ड	-8724
ण्याबाबत	-8725
▁त्यानुसार	-8726
ऊदी	-8727
नॉल	-8728
बंद	-8729
शोन	-8730
ष्म	-8731
▁46	-8732
मिया	-8733
तांची	-8734
दारों	-8735
▁अनाज	-8736
▁जलाश	-8737
▁पाइप	-8738
▁भलाई	-8739
धिकारी	-8740
▁वर्णन	-8741
▁उड्डयन	-8742
▁बऱ्याच	-8743
▁सीमाओं	-8744
▁असाधारण	-8745
▁बाजारों	-8746
▁स्पर्धे	-8747
▁हेब्रोन	-8748
▁दहशतवादी	-8749
▁होण्याच्या	-8750
▁O	-8751
यरी	-8752
रखा	-8753
डिंग	-8754
▁ओला	-8755
▁वात	-8756
▁अलिक	-8757
▁एकही	-8758
▁ध्ये	-8759
▁उन्हा	-8760
▁कृष्ण	-8761
▁बोलणे	-8762
▁एकीकरण	-8763
▁अस्तित्	-8764
▁हल्ल्या	-8765
▁इस्राएला	-8766
▁उभारण्यात	-8767
▁बांगलादेश	-8768
▁कर्मचाऱ्यांना	-8769
ct	-8770
▁नय	-8771
▁196	-8772
▁जणू	-8773
▁स्‍	-8774
▁कमरे	-8775
▁चीज़	-8776
▁टिका	-8777
▁तोडगा	-8778
▁वाढली	-8779
▁शत्रु	-8780
्यानंतर	-8781
▁नर्मदा	-8782
▁स्वीडन	-8783
▁होणारा	-8784
▁दैनंदिन	-8785
▁फेस्टिवल	-8786
▁सल्लागार	-8787
▁प्रशासनिक	-8788
▁केल्यामुळे	-8789
▁वर्षांच्या	-8790
म्मद	-8791
्रेट	-8792
▁-20	-8793
▁www	-8794
▁घेर	-8795
▁विस	-8796
▁हाई	-8797
वतीने	-8798
स्करी	-8799
▁गंगे	-8800
▁निकष	-8801
▁सावध	-8802
▁सौंप	-8803
▁क्लिक	-8804
▁रहस्य	-8805
▁वाहून	-8806
▁समस्य	-8807
▁सिंचन	-8808
▁हितों	-8809
विज्ञान	-8810
▁गठबंधन	-8811
▁होणारे	-8812
▁तकनीकों	-8813
▁व्याख्या	-8814
▁विस्तारित	-8815
ro	-8816
दूस	-8817
▁अजन	-8818
▁धबध	-8819
▁पुत	-8820
▁2021	-8821
▁जुड़	-8822
▁काहीच	-8823
▁लढाईत	-8824
▁आयआयटी	-8825
▁आंबेडकर	-8826
▁एकमात्र	-8827
▁परिषदेला	-8828
95	-8829
▁95	-8830
▁हद	-8831
म्या	-8832
▁खतर	-8833
▁खोक	-8834
▁लाज	-8835
ंमुळे	-8836
ख्यात	-8837
▁मच्छ	-8838
▁महिने	-8839
▁अनुसरण	-8840
▁एफडीआई	-8841
▁प्रकरण	-8842
▁बँकिंग	-8843
▁संभावित	-8844
▁सर्वाना	-8845
▁दूरदर्शन	-8846
▁शेवटच्या	-8847
▁नियमशास्त्र	-8848
▁पंतप्रधानांना	-8849
पीए	-8850
▁56	-8851
▁इज	-8852
▁फो	-8853
स्को	-8854
▁घेव	-8855
▁ताल	-8856
ज्जित	-8857
▁कुंड	-8858
▁शिवा	-8859
▁सौदी	-8860
▁समझने	-8861
▁उजव्या	-8862
▁घटनाओं	-8863
▁चौथ्या	-8864
▁नवीनतम	-8865
▁नावाचा	-8866
▁रिटर्न	-8867
▁स्वस्त	-8868
▁रैंकिंग	-8869
▁उद्यानात	-8870
▁कोणालाही	-8871
▁महिलांच्या	-8872
▁वर्षांपासून	-8873
पिता	-8874
वणार	-8875
श्मा	-8876
स्या	-8877
▁नमक	-8878
पणाने	-8879
▁आपात	-8880
▁काली	-8881
▁मेळा	-8882
▁लेखा	-8883
दाच्या	-8884
▁तीसरा	-8885
▁मजदूर	-8886
वण्याचा	-8887
▁चट्टान	-8888
▁प्रतिकूल	-8889
▁प्रक्रिये	-8890
▁शहरांमध्ये	-8891
▁संस्थेच्या	-8892
▁नबुखद्नेस्सर	-8893
ंथी	-8894
ंदे	-8895
ड़ब	-8896
रेखा	-8897
▁चली	-8898
▁क्रॉ	-8899
▁चौथा	-8900
▁जाणे	-8901
▁यूनि	-8902
▁सुखद	-8903
▁सतर्क	-8904
▁तस्करी	-8905
▁मास्टर	-8906
▁मुद्दा	-8907
▁संस्थांना	-8908
▁सहकार्यासाठी	-8909
AS	-8910
ैकी	-8911
▁74	-8912
▁ठोक	-8913
▁पहन	-8914
▁असली	-8915
▁कळेल	-8916
▁ग्रंथ	-8917
▁नेहरू	-8918
▁पन्ना	-8919
विरोधात	-8920
▁गाँवों	-8921
▁जनजातीय	-8922
▁देशातून	-8923
▁विषयावर	-8924
▁शिष्यों	-8925
▁तुझ्यावर	-8926
▁भविष्यद्व	-8927
▁स्पर्धात्मक	-8928
थर	-8929
कोष	-8930
▁इश	-8931
▁तह	-8932
एफसी	-8933
रेगा	-8934
▁आधे	-8935
▁एके	-8936
लंबित	-8937
▁चावल	-8938
▁सब्ज	-8939
ंत्रिक	-8940
▁आजारी	-8941
▁मॉडेल	-8942
▁अनुप्र	-8943
▁इस्पात	-8944
▁गणमान्य	-8945
▁विकासाचे	-8946
▁मुलांच्या	-8947
▁महाविद्यालय	-8948
ंपा	-8949
ेंग	-8950
ेंत	-8951
▁झर	-8952
लाला	-8953
▁कना	-8954
▁गोर	-8955
▁दुप	-8956
क्रमण	-8957
संस्थ	-8958
▁Shri	-8959
▁पोखर	-8960
▁मुड़	-8961
सुध्दा	-8962
▁जानकर	-8963
▁यापुढे	-8964
▁वसलेले	-8965
▁मुश्किल	-8966
▁पारिस्थितिकी	-8967
ीम	-8968
जीर	-8969
िवृ	-8970
▁43	-8971
▁91	-8972
िकेट	-8973
▁जगत	-8974
▁पंड	-8975
▁भास	-8976
▁अतीत	-8977
▁थोडा	-8978
▁उल्लं	-8979
▁खऱ्या	-8980
▁पिछली	-8981
▁पुण्य	-8982
ांनुसार	-8983
▁दुर्गम	-8984
▁लेनदेन	-8985
▁इनोवेशन	-8986
▁खात्यात	-8987
▁व्याप्ती	-8988
▁प्रक्षेपण	-8989
▁उपलब्धियों	-8990
▁संस्थांच्या	-8991
▁निर्मितीसाठी	-8992
गढ	-8993
200	-8994
बरी	-8995
ापक	-8996
हिता	-8997
▁घुट	-8998
▁सिक	-8999
▁तप्त	-9000
▁दावत	-9001
▁बचने	-9002
▁हैंड	-9003
▁इंग्र	-9004
▁बताता	-9005
▁छोड़कर	-9006
▁पाठलाग	-9007
▁भाषाओं	-9008
▁एफ्राईम	-9009
▁घडामोडी	-9010
▁दुष्टता	-9011
▁यहूदाचा	-9012
▁जरूरतमंद	-9013
▁निष्कर्ष	-9014
▁प्रतिनिधि	-9015
रन	-9016
पुत	-9017
बाई	-9018
लेल	-9019
क्कर	-9020
▁कले	-9021
▁छवि	-9022
▁माप	-9023
▁लगी	-9024
ंत्रा	-9025
दूसरे	-9026
▁काठी	-9027
▁कोणा	-9028
▁रिया	-9029
▁लडाख	-9030
▁वैभव	-9031
▁सकाळ	-9032
▁सब्त	-9033
▁खेलों	-9034
▁जवळचे	-9035
▁महसूल	-9036
▁वाजता	-9037
▁उपचारा	-9038
▁स्वराज	-9039
▁परिसरात	-9040
▁सिय्योन	-9041
▁उज्ज्वला	-9042
▁शरीराच्या	-9043
▁किनार्यावर	-9044
२०	-9045
▁72	-9046
ैतिक	-9047
▁आळा	-9048
▁गों	-9049
▁वेद	-9050
तोपरी	-9051
मार्क	-9052
▁टिकट	-9053
▁शलमो	-9054
जागृती	-9055
▁निधना	-9056
▁हिंदू	-9057
▁कारगिल	-9058
▁खोट्या	-9059
▁मलेशिया	-9060
▁सुंदरता	-9061
▁मालमत्ता	-9062
▁पहाड़ियों	-9063
▁नाविन्यपूर्ण	-9064
▁जबर	-9065
▁दीड	-9066
समवेत	-9067
ियांना	-9068
▁मतदार	-9069
▁विजेत	-9070
▁विद्र	-9071
▁एजेंसी	-9072
▁शेजारी	-9073
▁सेनाओं	-9074
▁गेलेल्या	-9075
▁यिर्मयाह	-9076
▁एकमेकांना	-9077
▁गुंतवणूकदार	-9078
▁विश्वविद्यालयों	-9079
भु	-9080
▁p	-9081
▁टॅ	-9082
गांठ	-9083
ठ्या	-9084
बर्ग	-9085
▁गढ़	-9086
▁दफन	-9087
▁बोट	-9088
▁भरे	-9089
▁लोह	-9090
क्षेत	-9091
▁गाडी	-9092
▁बहाल	-9093
पालिका	-9094
▁ड्राइ	-9095
▁पार्ट	-9096
▁द्यावा	-9097
▁कानूनों	-9098
▁साथीच्या	-9099
▁डेवलपमेंट	-9100
80	-9101
NS	-9102
इंट	-9103
तला	-9104
सीआर	-9105
▁किंग	-9106
▁टिप्	-9107
▁दस्त	-9108
▁अभ्या	-9109
▁उचलली	-9110
▁लचीला	-9111
▁मधल्या	-9112
▁काउंसिल	-9113
▁इंटरनेशनल	-9114
▁धर्मेंद्र	-9115
▁व्यवस्थित	-9116
▁कंपन्यांना	-9117
14	-9118
टिल	-9119
लेय	-9120
ासह	-9121
्रम	-9122
▁in	-9123
एमसी	-9124
▁मजा	-9125
▁माफ	-9126
▁वैध	-9127
▁शौच	-9128
ांतील	-9129
▁चोरी	-9130
▁दावा	-9131
रित्या	-9132
▁घेणार	-9133
▁भूकंप	-9134
▁सिविल	-9135
▁असंख्य	-9136
▁विभाजित	-9137
▁उद्यमिता	-9138
▁डोंगरावर	-9139
▁बाबेलच्या	-9140
▁प्रत्यक्षात	-9141
▁शेतकऱ्यांचे	-9142
70	-9143
दाय	-9144
▁धोक	-9145
▁बेत	-9146
▁काळी	-9147
▁पढ़ा	-9148
▁रानी	-9149
पासूनच	-9150
वानिवृ	-9151
▁अपमान	-9152
▁कामात	-9153
▁घराने	-9154
▁पुष्प	-9155
▁बालों	-9156
▁शमूएल	-9157
▁समजले	-9158
▁सव्वा	-9159
▁वर्षगांठ	-9160
iv	-9161
ant	-9162
फाट	-9163
▁ग्ल	-9164
▁चेक	-9165
▁फिन	-9166
▁फोड	-9167
▁आणीन	-9168
▁आफ्र	-9169
▁असावा	-9170
▁निहित	-9171
▁युरोप	-9172
▁स्टाफ	-9173
▁अहवाला	-9174
▁मिळतात	-9175
▁इंडियास	-9176
▁निर्दोष	-9177
▁भारतीया	-9178
▁समितीने	-9179
▁अनुमानित	-9180
▁प्रसारित	-9181
▁स्पर्धेत	-9182
िफ	-9183
साई	-9184
ोंग	-9185
▁85	-9186
गरों	-9187
▁अनू	-9188
▁कही	-9189
▁गईं	-9190
वारों	-9191
पदार्थ	-9192
▁टैक्स	-9193
▁डेयरी	-9194
▁सुप्र	-9195
▁पार्सल	-9196
▁वाढवणे	-9197
▁स्वयंपा	-9198
▁होण्यास	-9199
▁जनजागृती	-9200
▁संध्याकाळ	-9201
▁मंत्रालयों	-9202
▁रुग्णालयात	-9203
▁प्रत्येकाला	-9204
▁स्थानांतरित	-9205
▁सर्वोत्कृष्ट	-9206
CI	-9207
▁झो	-9208
आयआय	-9209
बीटी	-9210
▁उमेद	-9211
▁कारी	-9212
▁पापे	-9213
म्रपान	-9214
▁चरणों	-9215
भागियों	-9216
▁भेदभाव	-9217
▁मरीजों	-9218
▁मिळतील	-9219
▁याजकों	-9220
▁वाहिली	-9221
▁अमेरिकन	-9222
▁द्वितीय	-9223
▁वस्त्रे	-9224
▁जगभरातील	-9225
▁यहूदातील	-9226
▁नकारात्मक	-9227
▁राज्यांनी	-9228
▁प्रतिभागियों	-9229
▁महत्त्वाच्या	-9230
चय	-9231
फो	-9232
ठों	-9233
लिटी	-9234
▁फेक	-9235
▁समू	-9236
▁रिश्	-9237
▁क्षति	-9238
▁जितना	-9239
▁बोलने	-9240
▁शब्बा	-9241
▁ट्रम्प	-9242
▁पंजीकृत	-9243
▁राहण्यासाठी	-9244
24	-9245
um	-9246
पल	-9247
हट	-9248
शंक	-9249
ुरु	-9250
०००	-9251
करुन	-9252
बांध	-9253
लेगा	-9254
▁चूक	-9255
जेदार	-9256
▁2000	-9257
▁झाडा	-9258
▁फेंक	-9259
▁सुखी	-9260
▁अलगाव	-9261
▁एखादी	-9262
▁ओदिशा	-9263
▁गर्मी	-9264
▁देवदू	-9265
▁10,000	-9266
▁प्रबंध	-9267
▁मानवीय	-9268
▁योसेफा	-9269
▁स्पेशल	-9270
▁होणारी	-9271
▁मार्केट	-9272
ण्यापूर्वी	-9273
▁सशक्तिकरण	-9274
▁कार्यक्षमता	-9275
▁नागरिकांच्या	-9276
ँग	-9277
चला	-9278
▁ओढ	-9279
फार्	-9280
▁600	-9281
▁Pra	-9282
▁भटक	-9283
▁रखे	-9284
पुत्र	-9285
▁अदाल	-9286
▁रमेश	-9287
▁लिंग	-9288
▁सिंध	-9289
▁नियमन	-9290
▁शून्य	-9291
▁घ्यावा	-9292
▁नमूनों	-9293
▁समारंभा	-9294
▁परिवर्तित	-9295
▁दीर्घकालिक	-9296
रीस	-9297
्मी	-9298
आईआर	-9299
दाचा	-9300
यरोग	-9301
ळाचा	-9302
श्री	-9303
▁नबी	-9304
नाथान	-9305
▁लघवी	-9306
▁वेशी	-9307
▁अलीशा	-9308
▁ईपीएफ	-9309
▁विवेक	-9310
वण्याचे	-9311
▁घ्यावी	-9312
▁दाखवले	-9313
▁दर्शाता	-9314
▁देण्यास	-9315
▁दीर्घकालीन	-9316
▁पुनरुत्थान	-9317
▁श्रद्धांजली	-9318
IR	-9319
▁नद	-9320
▁गाद	-9321
▁ऊँची	-9322
▁साठा	-9323
▁खाण्या	-9324
▁बिस्तर	-9325
▁यंत्रणे	-9326
▁सुविधाजनक	-9327
-15	-9328
रोग	-9329
ळीस	-9330
▁64	-9331
वितो	-9332
ायचे	-9333
▁लाई	-9334
स्टिट	-9335
्यूरो	-9336
▁";";	-9337
▁कबूल	-9338
▁दासी	-9339
▁बीएस	-9340
▁बोलू	-9341
▁संधि	-9342
ख्याने	-9343
ासत्ता	-9344
▁संभाल	-9345
धिकारिक	-9346
▁ज्याचा	-9347
▁सशक्ती	-9348
▁म्हणालो	-9349
▁अब्राहाम	-9350
▁बांधण्यात	-9351
▁स्क्रीनिंग	-9352
▁वर्षांमध्ये	-9353
ुड	-9354
▁हब	-9355
▁गंत	-9356
▁मूत	-9357
▁यौन	-9358
▁इकाई	-9359
▁चालक	-9360
▁कन्या	-9361
▁नैतिक	-9362
▁द्यावी	-9363
▁पुत्रा	-9364
▁आयोगाचे	-9365
▁उज्ज्वल	-9366
▁उपलब्धि	-9367
▁पोखरियाल	-9368
▁वर्षांचा	-9369
▁विधानसभा	-9370
▁मुद्यांवर	-9371
▁रस्त्यावर	-9372
▁सर्वतोपरी	-9373
▁इंजीनियरिंग	-9374
▁काढण्यासाठी	-9375
▁परिस्थितियों	-9376
HA	-9377
जक	-9378
रोह	-9379
वेट	-9380
शासन	-9381
▁आइए	-9382
▁खडक	-9383
▁गले	-9384
▁फोट	-9385
▁सऊदी	-9386
▁फसलों	-9387
▁बढ़ता	-9388
▁शतकात	-9389
▁स्थूल	-9390
▁प्रांत	-9391
▁संशोधक	-9392
▁वर्षांत	-9393
▁विकासात	-9394
▁समारंभात	-9395
▁कार्यक्रमाचे	-9396
मोथ	-9397
ोकस	-9398
▁ऋष	-9399
ोषित	-9400
▁आणली	-9401
▁दूता	-9402
▁ट्रैक	-9403
▁ठरणार	-9404
▁ठरवले	-9405
▁तातडी	-9406
▁पुकार	-9407
▁संतों	-9408
▁संप्र	-9409
नामध्ये	-9410
▁दिलेली	-9411
▁निवेदन	-9412
करणाच्या	-9413
▁बैठकीला	-9414
▁गोष्टींचा	-9415
▁आत्तापर्यंत	-9416
जै	-9417
णित	-9418
▁पन	-9419
्रीट	-9420
▁जवा	-9421
▁तूच	-9422
▁मोर	-9423
▁खाया	-9424
▁तिरु	-9425
▁त्रि	-9426
तेमुळे	-9427
▁अनुया	-9428
▁इंद्र	-9429
▁जमीनी	-9430
▁टाकून	-9431
▁परंतू	-9432
▁शिमला	-9433
ेंतर्गत	-9434
▁कानूनी	-9435
▁दाखवून	-9436
▁नारायण	-9437
▁सॉफ्टवे	-9438
▁बन्यामीन	-9439
▁विकासशील	-9440
▁प्रजासत्ता	-9441
▁भविष्यातील	-9442
▁पाहण्यासाठी	-9443
PS	-9444
ir	-9445
पाट	-9446
,500	-9447
क्टे	-9448
जियम	-9449
धारी	-9450
स्टा	-9451
▁मणि	-9452
▁हेल	-9453
ग्राम	-9454
▁मद्य	-9455
कल्पिक	-9456
▁शालेय	-9457
▁स्वाद	-9458
▁विरोधात	-9459
▁आधिकारिक	-9460
▁महाविद्या	-9461
▁संग्रहालया	-9462
कन	-9463
ुलर	-9464
▁गटा	-9465
▁दां	-9466
▁धरण	-9467
▁धूल	-9468
चंद्र	-9469
▁पडेल	-9470
▁मृदा	-9471
संदर्भ	-9472
▁नेत्र	-9473
▁प्रजन	-9474
▁शिलान	-9475
▁स्वरु	-9476
▁विश्वा	-9477
▁अनुग्रह	-9478
▁केल्यास	-9479
▁विकासाची	-9480
▁वैकल्पिक	-9481
▁समाजाच्या	-9482
कटी	-9483
मेशन	-9484
▁इजा	-9485
▁दीं	-9486
▁हां	-9487
▁2025	-9488
▁डीआर	-9489
▁दिसू	-9490
▁नकार	-9491
▁पडली	-9492
▁गर्दी	-9493
▁बाह्य	-9494
ारासाठी	-9495
▁युगांडा	-9496
▁अधिकारों	-9497
▁उत्सर्जन	-9498
▁केल्याचे	-9499
▁प्रगतीचा	-9500
▁विलगीकरण	-9501
▁महामारीच्या	-9502
▁राष्ट्रांना	-9503
35	-9504
PE	-9505
ीण	-9506
धरी	-9507
बेल	-9508
ेंद	-9509
▁67	-9510
▁छत	-9511
वाले	-9512
विता	-9513
▁दीप	-9514
▁पशू	-9515
▁भीम	-9516
▁वाघ	-9517
▁हाइ	-9518
▁अभाव	-9519
▁सूजन	-9520
ळीच्या	-9521
▁अतिथि	-9522
▁कच्चे	-9523
▁पुजार	-9524
▁केन्द्र	-9525
▁पहुँचने	-9526
▁केंद्रात	-9527
▁मिसरच्या	-9528
▁श्रीलंके	-9529
▁समाजातील	-9530
▁महोत्सवात	-9531
▁राष्ट्रांच्या	-9532
ev	-9533
-16	-9534
सीओ	-9535
▁47	-9536
मंडळ	-9537
▁खुल	-9538
▁ट्वी	-9539
वरच्या	-9540
▁आलेली	-9541
▁कामना	-9542
▁ग्रिड	-9543
▁अपशिष्ट	-9544
▁मध्यस्थ	-9545
▁लोकांनो	-9546
▁नावाच्या	-9547
▁यांच्यासह	-9548
▁तंबा	-9549
▁राणी	-9550
▁राधा	-9551
▁करतोस	-9552
▁गहराई	-9553
▁घेवून	-9554
▁मल्टी	-9555
▁म्हणू	-9556
▁बांधली	-9557
ळ्याच्या	-9558
▁शेतकऱ्यांच्या	-9559
बरा	-9560
▁कौश	-9561
▁रहि	-9562
ाराचे	-9563
▁लाइफ	-9564
▁ग्राह	-9565
▁सियोन	-9566
▁स्तरा	-9567
▁नागपुर	-9568
▁निघाला	-9569
▁वेश्या	-9570
तांत्रिक	-9571
▁असल्याचा	-9572
▁कॉर्पोरेशन	-9573
▁सर्वसामान्य	-9574
▁सहकार्याबाबत	-9575
हाज	-9576
ोनी	-9577
▁51	-9578
▁58	-9579
▁फॅ	-9580
ंधरा	-9581
च्ची	-9582
मुखी	-9583
▁लेप	-9584
▁वीस	-9585
दानिक	-9586
▁ड्रग	-9587
▁परिणा	-9588
▁बनारस	-9589
▁बलवान	-9590
▁हंगाम	-9591
▁पाहिली	-9592
▁आल्याचे	-9593
▁मंदिरों	-9594
▁स्वप्ने	-9595
▁पाण्याच्या	-9596
▁प्रयत्नांना	-9597
अन	-9598
मू	-9599
नाक	-9600
साइ	-9601
▁अच	-9602
▁(20	-9603
▁अशाच	-9604
▁कोने	-9605
▁शाही	-9606
▁गिदोन	-9607
▁चक्री	-9608
णाऱ्यां	-9609
ोग्राफी	-9610
▁कृत्ये	-9611
▁पेमेंट	-9612
▁मिद्या	-9613
▁लैंगिक	-9614
▁ईमानदार	-9615
▁नव्याने	-9616
▁फिल्म्स	-9617
▁मर्यादा	-9618
▁हस्तांतरित	-9619
et	-9620
नेर	-9621
▁69	-9622
▁क्	-9623
मधले	-9624
▁अरा	-9625
▁असर	-9626
▁ताण	-9627
राबाम	-9628
▁पालक	-9629
▁भ्रम	-9630
▁उत्ते	-9631
▁गतीने	-9632
▁राजीव	-9633
▁कहेंगे	-9634
▁घ्यावे	-9635
▁पुराना	-9636
▁बांधून	-9637
▁बाधाओं	-9638
▁विक्रे	-9639
▁शिवाजी	-9640
▁देशांचे	-9641
▁पशुपालन	-9642
▁मेजबानी	-9643
▁धूम्रपान	-9644
▁होण्याचे	-9645
▁यरुशलेमला	-9646
▁शिलान्यास	-9647
▁शांतिपूर्ण	-9648
धों	-9649
ेटर	-9650
्वल	-9651
▁मस	-9652
ध्दी	-9653
बिंद	-9654
▁चहा	-9655
▁जरा	-9656
▁सदन	-9657
च्‍या	-9658
रूद्ध	-9659
▁किना	-9660
▁दानी	-9661
▁लाइव	-9662
▁पाठबळ	-9663
▁मुकुट	-9664
▁असायला	-9665
▁निवडले	-9666
▁यूरिया	-9667
▁सरासरी	-9668
▁सुरवात	-9669
▁आज्ञाओं	-9670
▁जोडलेले	-9671
▁याबद्दल	-9672
▁सलाहकार	-9673
▁प्रकारचा	-9674
▁प्रस्तुति	-9675
▁शास्त्रज्ञ	-9676
डम	-9677
यम	-9678
शः	-9679
”,	-9680
▁+	-9681
लील	-9682
ायझ	-9683
ंवार	-9684
वणूक	-9685
▁देय	-9686
▁दोप	-9687
ाराचा	-9688
▁अराम	-9689
▁गांव	-9690
▁शाळा	-9691
▁सिद्	-9692
▁जायला	-9693
▁मागास	-9694
▁विश्र	-9695
▁श्वसन	-9696
▁हातून	-9697
▁वेगवान	-9698
▁डोंगराळ	-9699
▁ब्रिटिश	-9700
▁हिरव्या	-9701
▁कार्यकाल	-9702
▁पेशेवरों	-9703
▁मोठ्याने	-9704
▁पुजारियों	-9705
▁प्रधानमंत्रियों	-9706
ट्	-9707
▁&	-9708
ग्न	-9709
यची	-9710
वने	-9711
▁197	-9712
▁उठे	-9713
▁चळव	-9714
▁बेस	-9715
ation	-9716
▁कीटा	-9717
▁दोघे	-9718
▁शिंग	-9719
▁आवंटन	-9720
▁गारंटी	-9721
▁ग्रस्त	-9722
▁मुखर्जी	-9723
▁आठवड्यात	-9724
▁मध्यप्रदेश	-9725
ंजा	-9726
▁अॅ	-9727
▁फट	-9728
माचे	-9729
▁ऑक्	-9730
▁नोड	-9731
▁बाप	-9732
▁रिम	-9733
▁एकदम	-9734
▁क्रू	-9735
▁पद्म	-9736
▁विदा	-9737
▁अड्डा	-9738
▁कुष्ठ	-9739
▁प्रार	-9740
▁भक्कम	-9741
▁जुड़ाव	-9742
▁पन्नास	-9743
▁मेघालय	-9744
▁यराबाम	-9745
▁येणारे	-9746
▁काहीतरी	-9747
▁चेतावनी	-9748
▁नैदानिक	-9749
▁सहाय्यक	-9750
▁अत्याचार	-9751
▁गतिशीलता	-9752
▁झाल्याने	-9753
▁निर्देशक	-9754
▁राज्याच्या	-9755
▁अंमलबजावणीसाठी	-9756
नार	-9757
िटर	-9758
▁आश	-9759
्यूल	-9760
▁***	-9761
मियों	-9762
▁पदवी	-9763
▁पैरा	-9764
▁भाकर	-9765
क्षांत	-9766
▁रांची	-9767
▁अंधेरे	-9768
▁महानगर	-9769
▁शोमरोन	-9770
▁कदाचित्	-9771
▁चाहूंगा	-9772
▁दर्शवली	-9773
▁पंचायती	-9774
▁विदेशों	-9775
▁ऊंचाइयों	-9776
▁नसलेल्या	-9777
▁प्रायश्चित	-9778
सच	-9779
▁b	-9780
▁w	-9781
गडा	-9782
ष्णु	-9783
▁2.5	-9784
▁ऑफ़	-9785
▁दीव	-9786
▁शीत	-9787
त्याच	-9788
दर्शी	-9789
▁तटीय	-9790
▁नयेत	-9791
▁बढ़ी	-9792
▁बैठे	-9793
▁गोल्ड	-9794
▁घ्याय	-9795
▁तीसरी	-9796
▁पाहतो	-9797
▁प्रसू	-9798
▁मिलते	-9799
▁शिष्ट	-9800
वणाऱ्या	-9801
▁दुर्लभ	-9802
मुख्याने	-9803
▁आधीच्या	-9804
▁ऑक्सीजन	-9805
▁जीवनमान	-9806
▁योनाथान	-9807
▁चक्रीवाद	-9808
▁राष्ट्रे	-9809
▁वर्षासाठी	-9810
▁कुटुंबांना	-9811
▁त्यांच्याकडे	-9812
▁मंत्रिमंडलीय	-9813
▁अर्थव्यवस्थेला	-9814
11	-9815
lt	-9816
षे	-9817
▁m	-9818
णात	-9819
मेन	-9820
ोधक	-9821
▁370	-9822
▁खनन	-9823
▁पवन	-9824
▁सदा	-9825
लीकडे	-9826
स्कृत	-9827
▁कहाँ	-9828
▁बराम	-9829
▁ग्रुप	-9830
▁बहुते	-9831
▁गंतव्य	-9832
▁सामोरे	-9833
▁उल्लंघन	-9834
▁मेगावॅट	-9835
▁संवेदना	-9836
▁छत्तीसगड	-9837
▁दिवसातून	-9838
▁दीक्षांत	-9839
▁परिदृश्य	-9840
▁भविष्यवाणी	-9841
▁व्यक्तींना	-9842
▁यांच्यातल्या	-9843
ंडन	-9844
ईसी	-9845
सैन	-9846
ावर	-9847
िन्	-9848
▁झे	-9849
प्ले	-9850
मेरे	-9851
▁ऑटो	-9852
▁पीड	-9853
▁सूज	-9854
▁उदार	-9855
▁योगी	-9856
▁विधी	-9857
▁तेथेच	-9858
▁ब्रॉड	-9859
▁लाभों	-9860
▁संपदा	-9861
▁हत्ती	-9862
▁स्मृती	-9863
▁मुस्लिम	-9864
▁वारंवार	-9865
▁बँकेच्या	-9866
▁संदेष्टे	-9867
▁सादरीकरण	-9868
▁कार्यकर्ताओं	-9869
▁प्रामुख्याने	-9870
▁त्याच्याबरोबर	-9871
22	-9872
RI	-9873
ab	-9874
गृ	-9875
हल	-9876
▁नऊ	-9877
ंपार	-9878
दातर	-9879
ान्त	-9880
्रीम	-9881
▁बाण	-9882
▁कब्र	-9883
कुमारी	-9884
▁पंडित	-9885
▁गोव्या	-9886
▁अपराधों	-9887
▁पक्षियों	-9888
▁अनुप्रयोग	-9889
PM	-9890
’,	-9891
▁Y	-9892
वील	-9893
▁63	-9894
साचा	-9895
▁गुर	-9896
▁सीट	-9897
▁ऊंचे	-9898
▁मधून	-9899
▁संगर	-9900
▁हवेत	-9901
ंकय्या	-9902
▁कारकि	-9903
▁चाँदी	-9904
काश्मीर	-9905
▁तज्ज्ञ	-9906
▁सभ्यता	-9907
▁आधारावर	-9908
▁उद्यमों	-9909
▁दर्जेदार	-9910
▁विद्यालय	-9911
▁शलमोनाने	-9912
▁गुंतवणूकी	-9913
▁यरुशलेमच्या	-9914
ज़ा	-9915
जान	-9916
टीत	-9917
साम	-9918
▁अत	-9919
▁लॅ	-9920
▁वल	-9921
एसएस	-9922
णाली	-9923
दुर्	-9924
र्वी	-9925
लक्ष	-9926
▁कमर	-9927
▁ठंड	-9928
▁पडू	-9929
्राला	-9930
▁कन्व	-9931
▁तर्क	-9932
▁पाता	-9933
▁बचाओ	-9934
▁हिला	-9935
बिलिटी	-9936
▁कनानी	-9937
▁करदात	-9938
▁करुणा	-9939
▁चूर्ण	-9940
▁तासात	-9941
▁बुखार	-9942
▁भूमिक	-9943
▁कंटेनर	-9944
▁संवादा	-9945
▁आजूबाजू	-9946
▁पूर्तता	-9947
▁योजनेची	-9948
▁शत्रुओं	-9949
▁छायाचित्र	-9950
▁प्रस्थापित	-9951
▁सर्वांच्या	-9952
▁हिजकिय्याह	-9953
वडा	-9954
▁हस	-9955
निटी	-9956
▁120	-9957
▁उन्	-9958
ध्याय	-9959
▁फोकस	-9960
▁फ्रे	-9961
▁शकले	-9962
साव्या	-9963
▁दोपहर	-9964
▁निराश	-9965
▁योवाश	-9966
▁हवेली	-9967
▁आदरणीय	-9968
▁लाऊंगा	-9969
▁जबाबदार	-9970
▁नामांकन	-9971
▁संभाव्य	-9972
▁पारदर्शकता	-9973
▁सुधारण्यासाठी	-9974
ँक	-9975
टून	-9976
▁ढग	-9977
क्को	-9978
्रोन	-9979
▁फां	-9980
▁लुट	-9981
▁वेध	-9982
कृष्ण	-9983
ग्रहण	-9984
तातील	-9985
ब्बास	-9986
▁आरटी	-9987
▁कहां	-9988
▁बाबत	-9989
▁हेरो	-9990
▁उपभोग	-9991
▁डूइंग	-9992
▁बेथेल	-9993
▁कारणों	-9994
▁नागपूर	-9995
▁ब्रिटन	-9996
▁समाजात	-9997
▁अनिश्चित	-9998
▁वाळवंटात	-9999
▁रुग्णांना	-10000
यचा	-10001
लाप	-10002
हिर	-10003
▁थोर	-10004
▁धात	-10005
▁पान	-10006
▁वसु	-10007
ाराची	-10008
▁आगमन	-10009
▁उन्म	-10010
▁चरबी	-10011
▁तुरु	-10012
▁बनला	-10013
▁लेखी	-10014
▁केलेस	-10015
▁वेगळा	-10016
ंत्रिकी	-10017
▁लवकरात	-10018
▁संगरोध	-10019
▁कराराचा	-10020
▁बुद्धिम	-10021
▁सिलेंडर	-10022
▁योजनेंतर्गत	-10023
जली	-10024
▁अक	-10025
▁मठ	-10026
ल्लभ	-10027
स्थळ	-10028
्हें	-10029
▁खते	-10030
▁सोम	-10031
▁इंधन	-10032
▁चुने	-10033
▁डाळी	-10034
▁नागा	-10035
▁मन्द	-10036
▁मापद	-10037
▁लगते	-10038
क्टेयर	-10039
▁किताब	-10040
▁सर्वच	-10041
▁हेल्प	-10042
▁ठरविले	-10043
▁दोगुना	-10044
▁पेड़ों	-10045
▁सदियों	-10046
▁प्रत्या	-10047
▁बाजारात	-10048
▁मीट्रिक	-10049
▁मोहम्मद	-10050
▁संतुष्ट	-10051
▁ज्यावेळी	-10052
▁समुद्रात	-10053
▁ज्याप्रमाणे	-10054
▁प्रस्तावाला	-10055
▁वाढविण्यासाठी	-10056
मोन	-10057
▁57	-10058
▁उम	-10059
▁रज	-10060
डीएस	-10061
▁नवन	-10062
▁बेन	-10063
▁सोय	-10064
▁कमान	-10065
▁मौका	-10066
▁रेखा	-10067
श्वस्त	-10068
▁आवाजा	-10069
▁गर्दन	-10070
▁गेहूं	-10071
▁मुद्द	-10072
▁ज्योति	-10073
▁ठेवावे	-10074
▁कायाकल्प	-10075
▁केंद्रीत	-10076
▁परमेश्वरासमोर	-10077
RD	-10078
गि	-10079
त्स	-10080
▁54	-10081
▁२५	-10082
पद्ध	-10083
रखाव	-10084
स्पद	-10085
▁कडे	-10086
▁लूट	-10087
द्वीप	-10088
वृत्त	-10089
व्यों	-10090
▁औषधा	-10091
▁कलाम	-10092
▁पीतल	-10093
▁मवेश	-10094
▁मोहन	-10095
▁शिल्	-10096
▁ह्यां	-10097
ांप्रमाणे	-10098
▁केल्यावर	-10099
▁ज्यादातर	-10100
▁परिभाषित	-10101
▁सरकारकडून	-10102
चु	-10103
पॅ	-10104
फि	-10105
बॉ	-10106
ैट	-10107
▁59	-10108
▁ऑल	-10109
▁शर	-10110
जमान	-10111
▁रखो	-10112
च्छेद	-10113
▁दौरे	-10114
ण्याला	-10115
▁तुकडे	-10116
▁तोंडा	-10117
▁ध्येय	-10118
▁लाएगा	-10119
▁संकलन	-10120
▁पेट्रो	-10121
▁यानंतर	-10122
▁विनिमय	-10123
▁परिणामों	-10124
▁हेक्टेयर	-10125
▁आमच्यासाठी	-10126
▁सिद्धांतों	-10127
▁त्यांच्याबरोबर	-10128
आया	-10129
चेल	-10130
▁उपन	-10131
▁कोक	-10132
▁तिल	-10133
▁२००	-10134
वडिला	-10135
▁कहने	-10136
▁द्वे	-10137
▁पेशा	-10138
कडच्या	-10139
नामुळे	-10140
▁उद्भव	-10141
प्रणाली	-10142
▁अब्बास	-10143
▁इथेनॉल	-10144
▁चौड़ाई	-10145
▁सुशासन	-10146
▁यूनिवर्	-10147
▁संसर्गा	-10148
▁असणार्या	-10149
▁तुझ्याकडे	-10150
▁व्यापारिक	-10151
▁व्यापारियों	-10152
26	-10153
किट	-10154
गंज	-10155
पुरम	-10156
माची	-10157
िज्म	-10158
▁गहन	-10159
▁जतन	-10160
जमेंट	-10161
ोवताल	-10162
▁अशोक	-10163
▁डीडी	-10164
▁पदों	-10165
▁पध्द	-10166
▁लेगा	-10167
▁असावी	-10168
▁उच्चा	-10169
▁एवढेच	-10170
▁प्रजनन	-10171
▁लागतील	-10172
पेक्षाही	-10173
▁आश्वस्त	-10174
▁सांगतात	-10175
▁करण्याला	-10176
▁इस्राएलचे	-10177
▁गावांमध्ये	-10178
▁स्थलांतरित	-10179
▁रुपयांपर्यंत	-10180
AL	-10181
em	-10182
om	-10183
कॉम	-10184
क्ल	-10185
तिहा	-10186
नशील	-10187
्विक	-10188
▁घोड	-10189
▁डॉक	-10190
▁तभी	-10191
▁घेईल	-10192
▁लगाए	-10193
▁लाता	-10194
▁वरून	-10195
▁सुगम	-10196
▁इशारा	-10197
▁घेतील	-10198
▁निवडक	-10199
▁मन्दिर	-10200
▁शब्बाथ	-10201
▁सचिवों	-10202
▁साहाय्य	-10203
▁विद्यमान	-10204
▁प्रयागराज	-10205
▁माणसाच्या	-10206
▁जिल्ह्यांमध्ये	-10207
gt	-10208
गाई	-10209
गोर	-10210
टाइ	-10211
र्डर	-10212
वर्त	-10213
ूहळू	-10214
▁काठ	-10215
▁खाई	-10216
▁मोट	-10217
▁खींच	-10218
▁जबरद	-10219
▁डाउन	-10220
पुत्रा	-10221
ांवरील	-10222
▁इश्मा	-10223
▁चौधरी	-10224
▁बळकटी	-10225
▁शेकेल	-10226
▁अफ्रीकी	-10227
▁महिलाएं	-10228
▁पृथ्वीवरील	-10229
▁राष्ट्राला	-10230
▁संघटनेच्या	-10231
ंसक	-10232
पुट	-10233
रिस	-10234
वीय	-10235
▁अठ	-10236
▁उघ	-10237
▁तणा	-10238
▁बिछ	-10239
▁भूख	-10240
▁लाओ	-10241
च्छिक	-10242
▁गहरे	-10243
▁जुने	-10244
▁ठरले	-10245
▁भागि	-10246
▁मंडप	-10247
▁रूसी	-10248
▁आंखों	-10249
▁कनाडा	-10250
▁अग्रिम	-10251
▁दाखवला	-10252
▁प्रथमच	-10253
▁सच्चाई	-10254
▁हळूहळू	-10255
▁इक्विटी	-10256
▁गतिविधि	-10257
▁निकायों	-10258
▁उपाध्यक्ष	-10259
▁सुरुवातीला	-10260
▁प्रत्येकाने	-10261
:-	-10262
PC	-10263
ताई	-10264
माम	-10265
राण	-10266
सीना	-10267
▁पिय	-10268
वायचे	-10269
▁नकवी	-10270
▁यवाब	-10271
▁याकडे	-10272
▁लाकडा	-10273
▁गिर्या	-10274
▁मिळावे	-10275
▁योद्धा	-10276
▁वर्षभर	-10277
▁वृत्ती	-10278
▁करोड़ों	-10279
▁घेण्यास	-10280
▁माहितीपट	-10281
▁संस्थापक	-10282
▁उत्पादनात	-10283
▁दृष्टिकोन	-10284
▁सशक्तीकरण	-10285
21	-10286
AM	-10287
ol	-10288
ईआर	-10289
कर्त	-10290
जिकल	-10291
सवें	-10292
▁खंभ	-10293
▁हर्	-10294
▁कागद	-10295
▁नीला	-10296
▁भरून	-10297
मंत्रा	-10298
संरचना	-10299
▁आमतौर	-10300
▁जमाती	-10301
▁जानने	-10302
▁ट्रेड	-10303
▁बचाया	-10304
▁शोधून	-10305
▁मापदंड	-10306
▁लढ्यात	-10307
▁माझ्याशी	-10308
▁मिळालेल्या	-10309
▁लोकतांत्रिक	-10310
23	-10311
३०	-10312
जीत	-10313
टाई	-10314
्टा	-10315
▁41	-10316
ंदगी	-10317
स्पे	-10318
▁इंच	-10319
कड़ों	-10320
▁जीने	-10321
▁टिकाऊ	-10322
▁लोखंड	-10323
▁व्हाल	-10324
स्टिक्स	-10325
▁किल्ला	-10326
▁नीतिगत	-10327
▁अरेबिया	-10328
▁निराकरण	-10329
▁कारकिर्दी	-10330
.05	-10331
खीम	-10332
जना	-10333
रीश	-10334
ळले	-10335
बाला	-10336
संगत	-10337
्लेश	-10338
▁पिढ	-10339
▁बिख	-10340
स्टेट	-10341
▁येहू	-10342
▁रुचि	-10343
इंडिया	-10344
माध्यम	-10345
ऱ्यावर	-10346
▁उजागर	-10347
▁किशोर	-10348
▁दयालु	-10349
▁धक्का	-10350
▁शौर्य	-10351
▁साक्षर	-10352
▁डीआरडीओ	-10353
▁संस्थेने	-10354
▁वर्षीच्या	-10355
▁साक्षीदार	-10356
रज	-10357
नाल	-10358
बेट	-10359
ेंब	-10360
▁५०	-10361
क्के	-10362
चेरी	-10363
▁इम्	-10364
▁उदर	-10365
▁टोळ	-10366
▁सिख	-10367
क्सीन	-10368
▁चौथे	-10369
▁दिशे	-10370
▁पाळा	-10371
▁फलों	-10372
▁शिशू	-10373
▁सोना	-10374
▁ग्रॅम	-10375
▁जवाहर	-10376
▁पूछता	-10377
▁पोटात	-10378
▁यजमान	-10379
▁वेगळी	-10380
साठीच्या	-10381
▁क्रिकेट	-10382
▁क्लस्टर	-10383
▁लोकसभेत	-10384
▁क्रमवारी	-10385
▁पाण्याचा	-10386
▁मूर्तियों	-10387
▁द्राक्षारस	-10388
▁प्रतिबंधित	-10389
▁राखण्यासाठी	-10390
ES	-10391
समु	-10392
▁नु	-10393
शिंग	-10394
हनीय	-10395
▁अंद	-10396
▁झुक	-10397
▁रोप	-10398
▁लहर	-10399
▁लेट	-10400
▁सतह	-10401
शिक्ष	-10402
▁अपरा	-10403
▁बैठा	-10404
▁भरुन	-10405
▁शर्त	-10406
▁सवलत	-10407
▁उपवास	-10408
▁उर्जे	-10409
▁खोल्या	-10410
▁तटबंदी	-10411
▁देणारी	-10412
▁भूमीवर	-10413
▁राजकोष	-10414
▁सर्विस	-10415
▁सहयोगी	-10416
▁अनुमोदन	-10417
▁जलाशयों	-10418
▁वन्यजीव	-10419
▁विधियों	-10420
▁डोक्यावर	-10421
▁व्यभिचार	-10422
▁व्यासपीठ	-10423
▁शिकायतों	-10424
▁निधनाबद्दल	-10425
कधी	-10426
पेट	-10427
सेफ	-10428
▁११	-10429
चकित	-10430
ट्टा	-10431
▁फेर	-10432
णियों	-10433
प्रथम	-10434
सरकार	-10435
ित्रा	-10436
्रामक	-10437
▁अदोम	-10438
▁जलसा	-10439
▁नफरत	-10440
▁यासह	-10441
▁लगने	-10442
▁MSMEs	-10443
▁द्वेष	-10444
▁वल्लभ	-10445
▁साधने	-10446
▁असूनही	-10447
▁क्रमशः	-10448
▁दिलासा	-10449
▁निघाले	-10450
▁ब्यूरो	-10451
▁मिश्रा	-10452
▁उर्वरित	-10453
▁बहुतांश	-10454
▁नियुक्ती	-10455
▁पाण्याचे	-10456
▁प्रमाणित	-10457
45	-10458
ुश	-10459
ूष	-10460
▁f	-10461
जील	-10462
झील	-10463
▁2.	-10464
▁66	-10465
▁ऑप	-10466
ठिका	-10467
सबका	-10468
िसिन	-10469
▁खिड	-10470
▁जखम	-10471
▁बोर	-10472
ंपैकी	-10473
वर्तन	-10474
▁आहेच	-10475
▁बाला	-10476
▁आश्रम	-10477
▁बिंदु	-10478
▁सत्तर	-10479
▁सौंदर	-10480
नावश्यक	-10481
▁निकलने	-10482
▁रखरखाव	-10483
▁विनम्र	-10484
▁आधारभूत	-10485
▁आल्यावर	-10486
▁तेव्हाच	-10487
▁सर्वांग	-10488
▁सामरिया	-10489
▁विषयांवर	-10490
▁महत्त्वाचा	-10491
▁कॉन्फ्रेंसिंग	-10492
EA	-10493
रात	-10494
ळवळ	-10495
ोना	-10496
▁वक	-10497
पश्च	-10498
र्ति	-10499
विदा	-10500
शियन	-10501
स्तक	-10502
ॉर्ट	-10503
▁सोर	-10504
बोर्ड	-10505
ल्कुल	-10506
▁खड़ी	-10507
▁देरी	-10508
▁बल्ब	-10509
▁भावन	-10510
▁लिये	-10511
▁सींग	-10512
विल्या	-10513
▁नियमा	-10514
▁प्रात	-10515
▁बनाकर	-10516
▁रखेगा	-10517
▁जाणारे	-10518
▁बहुतेक	-10519
▁मणिपूर	-10520
▁विचारा	-10521
▁हेक्टर	-10522
ेप्रमाणे	-10523
▁नियमांचे	-10524
▁निवेशकों	-10525
▁पडलेल्या	-10526
▁अस्तित्वात	-10527
ana	-10528
थिल	-10529
श्त	-10530
▁डु	-10531
▁दम	-10532
▁१४	-10533
चाही	-10534
शिल्प	-10535
▁कॉमन	-10536
▁घाला	-10537
▁माने	-10538
▁सीआर	-10539
ामध्ये	-10540
▁झांकी	-10541
▁दरबार	-10542
▁नवोन्	-10543
▁लावला	-10544
▁दिवसां	-10545
▁पाहिला	-10546
▁ट्रेनें	-10547
▁बिल्कुल	-10548
▁अस्तित्व	-10549
▁तोपर्यंत	-10550
▁येशूच्या	-10551
▁मालवाहतूक	-10552
▁ईशान्येकडील	-10553
▁परमेश्वराकडून	-10554
नं	-10555
▁99	-10556
ंगात	-10557
वेतन	-10558
▁कॅन	-10559
▁चतु	-10560
▁बाघ	-10561
▁लोट	-10562
क्टिव	-10563
स्तेर	-10564
▁अकाल	-10565
▁कॉफी	-10566
▁यकृत	-10567
▁संकु	-10568
▁सोचा	-10569
ंपारिक	-10570
▁वडीला	-10571
▁विहार	-10572
▁शुध्द	-10573
▁एस्तेर	-10574
▁ट्विटर	-10575
▁मंत्रि	-10576
▁रिकवरी	-10577
▁सिन्हा	-10578
▁इत्यादि	-10579
▁शिफारशी	-10580
▁आतंकवादी	-10581
▁प्रक्रियेत	-10582
▁राजकुमारों	-10583
▁प्रकल्पांचा	-10584
अब	-10585
खाप	-10586
म्ह	-10587
विणे	-10588
▁चिं	-10589
▁पडत	-10590
द्यपि	-10591
▁2011	-10592
▁घडून	-10593
▁नोडल	-10594
▁पीटर	-10595
गाच्या	-10596
▁डालते	-10597
▁दिव्य	-10598
▁भाषणात	-10599
्यापासून	-10600
▁परिकल्प	-10601
▁मेंढपाळ	-10602
▁सातव्या	-10603
▁सर्वांचा	-10604
▁हड्डियों	-10605
▁वेंटिलेटर	-10606
;&	-10607
ीत	-10608
▁१६	-10609
देवी	-10610
स्ति	-10611
ेंसी	-10612
▁आधा	-10613
▁चैं	-10614
▁पैन	-10615
▁मैल	-10616
▁हाड	-10617
आयामी	-10618
चालित	-10619
▁आएगी	-10620
▁उपरो	-10621
▁पाहु	-10622
▁राखी	-10623
▁विना	-10624
संशोधन	-10625
▁अडथळे	-10626
▁आक्रो	-10627
▁राहणे	-10628
▁सांभा	-10629
▁स्ट्र	-10630
▁प्लांट	-10631
▁यूनानी	-10632
▁व्यस्त	-10633
▁कॉलेजों	-10634
▁प्रयत्नशील	-10635
नॉ	-10636
चाप	-10637
मास	-10638
हेम	-10639
वतील	-10640
शंकर	-10641
▁घाव	-10642
▁छोर	-10643
▁देण	-10644
▁लंग	-10645
▁वाड	-10646
▁हरि	-10647
▁१००	-10648
ऊर्जा	-10649
▁डरते	-10650
▁याता	-10651
▁सुदृ	-10652
▁हिवा	-10653
बाच्या	-10654
ांसमोर	-10655
▁उपनगर	-10656
▁गलिया	-10657
▁पेशाब	-10658
▁मारुन	-10659
▁अब्राम	-10660
▁चांगुल	-10661
▁उपरोक्त	-10662
▁काळातील	-10663
▁प्रचलित	-10664
▁रोमांचक	-10665
▁विशेषकर	-10666
▁सेवानिवृ	-10667
▁रुग्णालये	-10668
▁व्यंकय्या	-10669
▁त्याच्याशी	-10670
▁अर्थसंकल्पात	-10671
सेज	-10672
पैथी	-10673
रीया	-10674
हेरी	-10675
ेंडा	-10676
▁छाप	-10677
▁ठाक	-10678
मुंबई	-10679
▁अश्व	-10680
▁इसील	-10681
▁घमंड	-10682
▁मजुर	-10683
कृत्ये	-10684
▁खोलने	-10685
▁दुश्म	-10686
▁स्नेह	-10687
▁जनतेचे	-10688
▁मृतकों	-10689
▁सातवें	-10690
▁विशाखाप	-10691
▁शरीराला	-10692
▁स्वच्छा	-10693
ण्यासारखे	-10694
▁अवसंरचना	-10695
▁शहराच्या	-10696
▁सीएसआयआर	-10697
▁प्रजासत्ताक	-10698
Mo	-10699
le	-10700
गती	-10701
बले	-10702
सुर	-10703
आईबी	-10704
पुरा	-10705
▁रुक	-10706
▁कैदी	-10707
▁क्लब	-10708
▁योशी	-10709
ार्‍या	-10710
▁अल्सर	-10711
▁कितनी	-10712
▁भाषेत	-10713
▁सारखे	-10714
▁दिनांक	-10715
▁यद्यपि	-10716
▁सुरळीत	-10717
▁परेशानी	-10718
▁यातायात	-10719
▁घेण्याचा	-10720
▁दौऱ्यावर	-10721
▁प्रादुर्	-10722
▁दिल्लीतील	-10723
▁राजमार्गों	-10724
▁रुग्णांच्या	-10725
ंगल	-10726
वटी	-10727
जनों	-10728
ब्बी	-10729
वारा	-10730
सीएस	-10731
ैसूर	-10732
▁ताज	-10733
▁वाइ	-10734
▁वेल	-10735
इसेंस	-10736
▁टीबी	-10737
▁पडून	-10738
▁फिक्	-10739
▁ओलांड	-10740
▁कानों	-10741
▁घातला	-10742
▁पित्त	-10743
▁भंडार	-10744
▁मौल्य	-10745
▁शैतान	-10746
▁महामंडळ	-10747
▁विकसनशील	-10748
▁जीवनसत्त्व	-10749
ईएम	-10750
एआर	-10751
फ्र	-10752
ान्	-10753
पाणी	-10754
श्मन	-10755
▁गाज	-10756
▁घुस	-10757
▁रवी	-10758
▁रोल	-10759
▁लॉक	-10760
▁अनुप	-10761
▁गड़ब	-10762
▁घातक	-10763
▁चंडी	-10764
▁सूचक	-10765
▁आराखड	-10766
▁इंटेल	-10767
▁दुश्मन	-10768
▁नबियों	-10769
▁बैठकों	-10770
▁लष्करी	-10771
▁योजनाएं	-10772
▁निवडणुकी	-10773
▁प्रलंबित	-10774
▁सर्वप्रथम	-10775
▁आव्हानांचा	-10776
▁झाल्याबद्दल	-10777
qu	-10778
इक	-10779
रस	-10780
नास	-10781
▁आशे	-10782
▁कहे	-10783
▁चलन	-10784
▁ठरा	-10785
▁ढाल	-10786
▁पश्	-10787
▁वाय	-10788
▁सूट	-10789
▁आचरण	-10790
▁डिवी	-10791
▁ताला	-10792
▁स्की	-10793
▁हानी	-10794
ऱ्याने	-10795
▁आवडते	-10796
▁चारही	-10797
▁भुवने	-10798
▁ह्याच	-10799
ड़कियों	-10800
▁अवार्ड	-10801
▁इसीलिए	-10802
▁दरवाजा	-10803
▁शिल्लक	-10804
▁संकटात	-10805
▁ह्याची	-10806
▁आनंदाने	-10807
▁इन्स्टिट	-10808
▁उपाध्याय	-10809
▁मानदंडों	-10810
▁पारंपारिक	-10811
▁कुटुंबातील	-10812
▁प्रावधानों	-10813
वडी	-10814
िरे	-10815
इट्स	-10816
देखो	-10817
पीआर	-10818
सचिव	-10819
▁आसन	-10820
▁जां	-10821
▁बीत	-10822
▁मुर	-10823
▁रसद	-10824
सोबतच	-10825
ोलिया	-10826
▁भावी	-10827
▁योआब	-10828
▁लोहे	-10829
▁सूरत	-10830
▁तत्वा	-10831
▁लेफ्ट	-10832
▁आक्रोश	-10833
▁देणारा	-10834
▁रामनाथ	-10835
▁विभाजन	-10836
▁क्षयरोग	-10837
▁गर्भाशय	-10838
▁समुदाया	-10839
▁संपर्कात	-10840
▁प्रत्येकी	-10841
▁प्रतिस्पर्धी	-10842
▁अर्थव्यवस्थाओं	-10843
▁कार्यक्रमाच्या	-10844
MT	-10845
ya	-10846
ढाई	-10847
साड	-10848
ज्जा	-10849
णायक	-10850
▁जड़	-10851
नियों	-10852
▁आरंभ	-10853
▁कॉरप	-10854
▁खोला	-10855
▁देखे	-10856
▁बिगर	-10857
▁लखनऊ	-10858
▁हमले	-10859
▁अद्या	-10860
▁घातले	-10861
▁पशुधन	-10862
▁वाढले	-10863
▁स्तूप	-10864
▁अलिकडे	-10865
▁जाएंगी	-10866
▁दानीएल	-10867
▁बाप्ति	-10868
▁भांडवल	-10869
▁संसदेत	-10870
▁सहजपणे	-10871
▁पोहोचली	-10872
▁मेगावाट	-10873
▁लाइसेंस	-10874
▁शहरातील	-10875
▁घेण्याचे	-10876
▁मौल्यवान	-10877
▁सेवेसाठी	-10878
▁बिन्यामीन	-10879
▁अभियांत्रिकी	-10880
▁प्रदेशातल्या	-10881
▁पदा	-10882
▁हाट	-10883
▁उतना	-10884
▁उधार	-10885
▁जटिल	-10886
▁ठहरा	-10887
▁दारा	-10888
▁नसून	-10889
▁पांड	-10890
▁अजनबी	-10891
▁निर्ज	-10892
▁साहेब	-10893
▁उपाहार	-10894
▁कृतज्ञ	-10895
▁गार्डन	-10896
▁पहुंचे	-10897
▁पुरेसे	-10898
विलेल्या	-10899
▁अनुपालन	-10900
▁अब्राहम	-10901
▁अवधारणा	-10902
▁शिक्षित	-10903
▁सेंट्रल	-10904
▁स्वीकृत	-10905
▁प्रांतात	-10906
▁विकासाचा	-10907
बद	-10908
.00	-10909
ौती	-10910
▁जौ	-10911
तारा	-10912
नेही	-10913
म्बे	-10914
म्मत	-10915
वाडी	-10916
▁800	-10917
▁खपत	-10918
▁टोल	-10919
▁डिप	-10920
▁5000	-10921
▁इसरो	-10922
▁चाला	-10923
▁पडता	-10924
▁लगाई	-10925
स्वामी	-10926
▁कैडेट	-10927
▁नवजात	-10928
▁बांबू	-10929
▁वेदीवर	-10930
▁स्तरों	-10931
▁दीवारों	-10932
▁बौद्धिक	-10933
▁सव्वाशे	-10934
▁स्थापने	-10935
▁उच्चस्तरीय	-10936
▁कामगारांना	-10937
▁माझ्याबरोबर	-10938
ॅन	-10939
नेल	-10940
▁77	-10941
जाति	-10942
न्सी	-10943
पीटी	-10944
विया	-10945
▁मेह	-10946
▁हनु	-10947
▁एकड़	-10948
▁जादू	-10949
▁नम्र	-10950
▁रुंद	-10951
▁लिखे	-10952
▁अदालत	-10953
▁करशील	-10954
▁पड़ने	-10955
▁यातील	-10956
▁स्पेस	-10957
▁योजनेत	-10958
▁संख्येत	-10959
▁कामासाठी	-10960
▁निर्णायक	-10961
▁उद्दिष्टे	-10962
▁निर्देशांक	-10963
-6	-10964
NC	-10965
बुल	-10966
शाह	-10967
ूती	-10968
▁73	-10969
▁पश	-10970
नाशक	-10971
र्या	-10972
विंग	-10973
सर्व	-10974
ातला	-10975
ातले	-10976
िबात	-10977
▁इथं	-10978
▁घाय	-10979
▁दाब	-10980
वणारे	-10981
िकारक	-10982
ोरिया	-10983
▁पोटा	-10984
▁बद्ध	-10985
▁ब्ले	-10986
▁मालक	-10987
▁वाटप	-10988
▁सद्य	-10989
▁सीधा	-10990
बाबतीत	-10991
▁इतिहा	-10992
▁बरामद	-10993
▁बेंगल	-10994
▁माउंट	-10995
▁लावली	-10996
▁वस्ती	-10997
▁हामान	-10998
णामध्ये	-10999
▁आढळतात	-11000
▁उत्पन्	-11001
▁निपटान	-11002
▁बिहारी	-11003
▁सुध्दा	-11004
▁गणतंत्र	-11005
▁वैक्सीन	-11006
▁जगातल्या	-11007
▁देवाणघेवाण	-11008
▁सार्वभौमिक	-11009
यो	-11010
कोळ	-11011
बॉल	-11012
▁जड	-11013
नाया	-11014
वावी	-11015
▁गहू	-11016
▁जसा	-11017
▁ठळक	-11018
▁तिन	-11019
नादेश	-11020
▁उकसा	-11021
▁गुला	-11022
▁चैनल	-11023
▁रिका	-11024
▁रैंक	-11025
▁सेतु	-11026
▁हाथी	-11027
ंपासून	-11028
सीएमआर	-11029
▁अडथळा	-11030
▁क्रॉस	-11031
▁शिथिल	-11032
▁समजेल	-11033
▁अखंडता	-11034
▁मरम्मत	-11035
▁माताओं	-11036
▁टीकाकरण	-11037
▁देशवासी	-11038
▁रक्तदाब	-11039
▁वेगळ्या	-11040
▁शैक्षिक	-11041
▁संस्कार	-11042
▁सुधारणे	-11043
▁नुकत्याच	-11044
▁विजेताओं	-11045
▁श्रेणियों	-11046
▁संस्थांनी	-11047
▁भारतातल्या	-11048
▁वैशिष्ट्ये	-11049
▁देशभरातल्या	-11050
▁प्रकल्पाच्या	-11051
ईस	-11052
जीब	-11053
तोस	-11054
ैया	-11055
▁एथ	-11056
ंहून	-11057
▁अवै	-11058
▁जरु	-11059
▁यरी	-11060
धानिक	-11061
▁अंगा	-11062
▁गुरू	-11063
▁ग्रे	-11064
▁टाटा	-11065
▁भेजे	-11066
▁म्यू	-11067
दृष्टी	-11068
नेस्को	-11069
प्रकाश	-11070
▁चालले	-11071
▁डिजिट	-11072
▁तिकिट	-11073
▁भ्रमण	-11074
▁साढ़े	-11075
▁स्टेड	-11076
▁दुर्गा	-11077
▁फैलाने	-11078
▁भ्रष्ट	-11079
▁यहोशवा	-11080
▁सर्जरी	-11081
▁दुश्मनों	-11082
▁राजकोषीय	-11083
▁कठिनाइयों	-11084
▁दर्जाच्या	-11085
▁न्यायालया	-11086
▁व्यवसायों	-11087
▁होईपर्यंत	-11088
दक	-11089
वं	-11090
पंच	-11091
संघ	-11092
तीवर	-11093
दक्ष	-11094
रीशस	-11095
▁अंश	-11096
▁ऑयल	-11097
मच्या	-11098
▁आवंट	-11099
▁कळले	-11100
▁मोड़	-11101
▁वकील	-11102
▁स्पी	-11103
ापूर्वी	-11104
▁कामाला	-11105
▁रिश्ते	-11106
▁उमेदवार	-11107
▁टेलीफोन	-11108
▁दर्शकों	-11109
▁रुपांतर	-11110
▁हाइड्रो	-11111
▁ह्यांना	-11112
▁आमच्याकडे	-11113
▁काळापासून	-11114
▁प्रतिबंधात्मक	-11115
िंट	-11116
▁जप	-11117
▁रऊ	-11118
म्बर	-11119
▁175	-11120
▁आंग	-11121
▁कंब	-11122
▁गमा	-11123
▁1500	-11124
▁इंजे	-11125
▁इकडे	-11126
▁गुर्	-11127
▁टीवी	-11128
▁डाऊन	-11129
▁जीतने	-11130
▁बकाया	-11131
▁रूपात	-11132
▁जाताना	-11133
▁राजकार	-11134
▁स्वभाव	-11135
▁अस्वस्थ	-11136
▁तेंव्हा	-11137
▁देखेंगे	-11138
▁संकल्पने	-11139
▁भुवनेश्वर	-11140
▁जिल्ह्यातील	-11141
29	-11142
...	-11143
म्य	-11144
लीत	-11145
▁अ‍	-11146
▁रव	-11147
वावा	-11148
हाचे	-11149
▁अवय	-11150
▁कडक	-11151
▁गड्	-11152
▁फेड	-11153
▁बेर	-11154
कोविड	-11155
नियां	-11156
ल्‍या	-11157
ित्ती	-11158
▁Prad	-11159
▁चलना	-11160
▁तिथि	-11161
▁नग्न	-11162
▁पैदल	-11163
▁उपस्थ	-11164
▁काटेक	-11165
▁फ्रेम	-11166
▁मंडली	-11167
▁यूरोप	-11168
रामध्ये	-11169
▁डाव्या	-11170
▁संबद्ध	-11171
▁चिंताओं	-11172
▁नियोजित	-11173
▁फिल्में	-11174
▁म्हणतील	-11175
▁योजनेचे	-11176
▁मेलेल्या	-11177
▁तैयारियों	-11178
▁मिसरमध्ये	-11179
.03	-11180
ईएस	-11181
तोल	-11182
वेन	-11183
ेंच	-11184
▁68	-11185
वर्ग	-11186
सीआई	-11187
▁उठो	-11188
▁बगी	-11189
▁वाव	-11190
▁1.25	-11191
▁अवैध	-11192
▁पॉलि	-11193
▁ट्वीट	-11194
▁नद्या	-11195
▁पेरिस	-11196
ंपेक्षा	-11197
▁अद्याप	-11198
▁इच्छुक	-11199
▁घनिष्ठ	-11200
▁सहभागा	-11201
्यांपैकी	-11202
▁अनुभवों	-11203
▁बोलावले	-11204
▁सैकड़ों	-11205
▁दावीदाला	-11206
▁कराराच्या	-11207
▁नियमितपणे	-11208
▁बंदरगाहों	-11209
▁सक्षमीकरण	-11210
▁दिवसांच्या	-11211
दह	-11212
बिर	-11213
ंकडे	-11214
डीबी	-11215
▁एकर	-11216
▁सेन	-11217
ईलैंड	-11218
▁किला	-11219
▁तारण	-11220
▁बुरी	-11221
▁रॉयल	-11222
▁विफल	-11223
▁सीजन	-11224
डीआरएफ	-11225
▁तीनों	-11226
▁भिन्न	-11227
▁श्रेय	-11228
▁करेंगी	-11229
▁परंपरे	-11230
▁युरिया	-11231
▁सांत्व	-11232
▁महिलाएँ	-11233
▁योजनेला	-11234
▁सावधानी	-11235
▁कायदेशीर	-11236
▁नवाचारों	-11237
▁परंपराओं	-11238
▁पाण्याची	-11239
▁लाखांहून	-11240
▁प्रोग्राम	-11241
▁वातावरणात	-11242
▁सुविधांचा	-11243
▁त्यांच्यात	-11244
▁संयुक्तपणे	-11245
▁प्रयत्नांची	-11246
▁मैत्रीपूर्ण	-11247
एआई	-11248
बाग	-11249
र्र	-11250
▁सज	-11251
▁मते	-11252
▁मैन	-11253
ानाचा	-11254
▁एवढी	-11255
▁जनगण	-11256
▁फेसब	-11257
▁महाल	-11258
करणाचे	-11259
▁आश्रय	-11260
▁एकमेव	-11261
▁डिस्ट	-11262
▁निकले	-11263
▁बारीक	-11264
▁बाशान	-11265
▁रहेगी	-11266
▁लष्कर	-11267
▁साजरी	-11268
▁50,000	-11269
▁दाँतों	-11270
▁शिपिंग	-11271
▁हाताने	-11272
▁सरकारें	-11273
▁यहोशाफाट	-11274
▁इंडस्ट्री	-11275
▁सिफारिशों	-11276
▁स्तरावरील	-11277
▁उद्यमशीलता	-11278
▁बाप्तिस्मा	-11279
▁अन्यजातियों	-11280
▁n	-11281
उत्	-11282
एमए	-11283
दून	-11284
मिर	-11285
▁नवर	-11286
▁फरक	-11287
▁शोर	-11288
▁फारच	-11289
▁बपति	-11290
▁नक्वी	-11291
▁बढ़ना	-11292
▁वाढला	-11293
▁अर्पणे	-11294
▁निश्चय	-11295
▁उन्मूलन	-11296
▁तिथल्या	-11297
▁वास्तुक	-11298
▁दर्शनमंड	-11299
▁मनुष्याला	-11300
नम	-11301
ड़न	-11302
डीन	-11303
▁मळ	-11304
▁यर	-11305
ग्या	-11306
व्यव	-11307
▁सुष	-11308
कार्य	-11309
बत्ती	-11310
▁आयटी	-11311
▁इराण	-11312
▁ऊपरी	-11313
▁गणेश	-11314
▁पडतो	-11315
▁फाटक	-11316
▁फ्री	-11317
▁बुरे	-11318
▁वीणा	-11319
▁सांड	-11320
ल्डिंग	-11321
▁पड़ोस	-11322
▁बोललो	-11323
▁महोदय	-11324
▁सॅनिट	-11325
त्कालीन	-11326
▁अजिबात	-11327
▁जणांना	-11328
▁नाहीतर	-11329
▁येण्या	-11330
▁सुलभता	-11331
▁दक्षिणी	-11332
▁मेंढ्या	-11333
▁मंदिराचे	-11334
▁योजनेमुळे	-11335
▁त्यापेक्षा	-11336
▁योजनांच्या	-11337
▁प्रकल्पांच्या	-11338
47	-11339
आणि	-11340
हेज	-11341
ताने	-11342
▁कवच	-11343
▁छीन	-11344
▁थां	-11345
▁मीठ	-11346
ेंट्स	-11347
▁कुशी	-11348
▁तिमा	-11349
▁धनुष	-11350
▁ब्रे	-11351
▁शंकर	-11352
▁शेयर	-11353
▁संयम	-11354
▁साँस	-11355
▁स्वे	-11356
▁हेतू	-11357
▁होवो	-11358
▁ऑक्सि	-11359
▁खाँसी	-11360
▁पाहात	-11361
व्यवस्थ	-11362
▁आवंटित	-11363
▁उत्तरी	-11364
▁एमएसपी	-11365
▁राजाचा	-11366
▁स्थितीत	-11367
▁कारीगरों	-11368
▁गरीबांना	-11369
▁लॉजिस्टिक	-11370
▁कल्याणकारी	-11371
▁कार्यकर्ता	-11372
▁घराण्यातील	-11373
▁संस्थात्मक	-11374
▁महाराष्ट्रात	-11375
्प	-11376
नाय	-11377
मेट	-11378
षधी	-11379
सिस	-11380
▁अंज	-11381
▁धाड	-11382
▁फीट	-11383
▁बिग	-11384
▁सत्	-11385
वलेले	-11386
▁कॉम्	-11387
▁खांब	-11388
▁घडेल	-11389
▁तुकड	-11390
▁थायल	-11391
▁चाळीस	-11392
▁जयपुर	-11393
▁गिरावट	-11394
▁घरातील	-11395
▁स्वरुप	-11396
▁इंटेलिज	-11397
▁निकालने	-11398
▁प्रोटीन	-11399
▁संदेशात	-11400
▁स्थानावर	-11401
▁होणार्या	-11402
▁आपातकालीन	-11403
▁संभावनाओं	-11404
▁समितीच्या	-11405
▁आश्चर्यचकित	-11406
▁उत्तरप्रदेश	-11407
कं	-11408
जळ	-11409
तिन	-11410
▁रक	-11411
कर्म	-11412
ताची	-11413
▁अतः	-11414
▁घटन	-11415
▁शिज	-11416
▁हाक	-11417
▁हेर	-11418
्यवधी	-11419
▁एसटी	-11420
▁कर्ण	-11421
▁चिड़	-11422
▁जरिए	-11423
▁पायी	-11424
▁फैले	-11425
▁वल्ह	-11426
▁समजू	-11427
ंबद्दल	-11428
कश्मीर	-11429
▁डॉक्ट	-11430
▁मेंदू	-11431
▁म्हणे	-11432
▁साहसी	-11433
▁अभिव्य	-11434
▁उच्चतम	-11435
▁खुल्या	-11436
▁बढ़ाना	-11437
▁यहुवेह	-11438
▁इस्रायल	-11439
▁जेंव्हा	-11440
▁असामान्य	-11441
▁कोट्यवधी	-11442
▁दिनाच्या	-11443
▁यहोयाकीम	-11444
▁वाढवण्यात	-11445
▁टक्क्यांपर्यंत	-11446
झी	-11447
कीत	-11448
क्‍	-11449
बेर	-11450
लीक	-11451
▁He	-11452
आयएस	-11453
लीला	-11454
▁कटी	-11455
▁रेश	-11456
▁शंक	-11457
तांचा	-11458
रोबाम	-11459
▁अगली	-11460
▁आराध	-11461
▁मीखा	-11462
▁सदोम	-11463
र्निंग	-11464
▁कापणी	-11465
▁कोर्स	-11466
▁खेतों	-11467
▁मिजोर	-11468
▁लाबान	-11469
▁वाढून	-11470
▁सुंता	-11471
▁सुचार	-11472
▁अपनाया	-11473
▁मिळावा	-11474
▁सभागृह	-11475
▁अन्नधान	-11476
▁वक्तव्य	-11477
▁निर्णयों	-11478
▁इस्राएलला	-11479
▁कार्यवाही	-11480
▁मंदिरातील	-11481
31	-11482
छो	-11483
ॉय	-11484
नाथन	-11485
नेंस	-11486
रेपी	-11487
ित्य	-11488
▁आका	-11489
▁बोग	-11490
▁भोज	-11491
ॉप्टर	-11492
▁ईर्ष	-11493
▁काढा	-11494
▁टाइम	-11495
▁रसाय	-11496
▁शादी	-11497
व्व्या	-11498
▁नॉर्थ	-11499
▁विलाप	-11500
▁मूत्रा	-11501
▁मॉरीशस	-11502
▁व्यापा	-11503
▁उत्तरात	-11504
▁पर्यायी	-11505
▁स्वर्गा	-11506
ण्यापासून	-11507
▁वित्तपोषण	-11508
85	-11509
EC	-11510
ak	-11511
टू	-11512
कल्	-11513
▁सल	-11514
नामी	-11515
शियम	-11516
▁कात	-11517
▁झलक	-11518
▁बुक	-11519
▁मुळ	-11520
क्यों	-11521
टानगर	-11522
शुल्क	-11523
्वारे	-11524
▁एनटी	-11525
▁कडून	-11526
▁खाणे	-11527
▁जखमी	-11528
▁थेंब	-11529
▁पायल	-11530
▁माते	-11531
▁यकीन	-11532
▁यावी	-11533
▁शेजा	-11534
▁एलीया	-11535
▁ढाँचे	-11536
▁दायरे	-11537
▁पडतात	-11538
▁अंदमान	-11539
▁जागृती	-11540
▁डिवीजन	-11541
▁डोळ्या	-11542
▁फेसबुक	-11543
▁आदमियों	-11544
▁गर्भनिर	-11545
▁फायद्या	-11546
▁संग्राम	-11547
▁सुक्ष्म	-11548
वण्याच्या	-11549
▁निष्पक्ष	-11550
▁बहुआयामी	-11551
▁चांगुलपणा	-11552
▁याप्रसंगी	-11553
▁अर्थमंत्री	-11554
▁गेल्यावर्षी	-11555
▁खालीलप्रमाणे	-11556
PF	-11557
ळत	-11558
साचे	-11559
सावा	-11560
▁उभी	-11561
▁कीम	-11562
▁निग	-11563
▁फुल	-11564
▁बला	-11565
▁लेब	-11566
▁दिनी	-11567
ूंच्या	-11568
▁टीमों	-11569
▁तितके	-11570
▁पाहणी	-11571
▁फॉर्म	-11572
▁मारली	-11573
▁स्राव	-11574
▁उन्नयन	-11575
▁दृढ़ता	-11576
▁मजबूती	-11577
▁मिजोरम	-11578
▁रेड्डी	-11579
▁कंट्रोल	-11580
▁द्यायचे	-11581
▁सराहनीय	-11582
▁सत्याग्रह	-11583
▁सहकार्याला	-11584
▁लोकांपर्यंत	-11585
▁महाविद्यालया	-11586
अम	-11587
पेश	-11588
▁3.	-11589
▁ईज	-11590
Indi	-11591
क्टी	-11592
जोशी	-11593
▁गोड	-11594
▁नीट	-11595
चाताप	-11596
▁ईरान	-11597
▁जैसल	-11598
▁दाँत	-11599
▁होवू	-11600
्वेस्ट	-11601
▁चलाने	-11602
▁जोखीम	-11603
▁दिसले	-11604
▁बर्फा	-11605
▁लवचिक	-11606
▁अध्याय	-11607
▁आयएनएस	-11608
▁कीमतों	-11609
▁म्हणता	-11610
▁शासकीय	-11611
कांपासून	-11612
▁प्रेषित	-11613
▁रक्तदान	-11614
▁अनुमोदित	-11615
▁बपतिस्मा	-11616
▁स्वरुपात	-11617
▁प्रतिष्ठा	-11618
▁सर्वांगीण	-11619
▁दावीदाच्या	-11620
▁पर्यावरणीय	-11621
▁यांसारख्या	-11622
▁विशेषज्ञता	-11623
▁असल्याबद्दल	-11624
▁प्रयत्नांमुळे	-11625
▁प्रशिक्षणार्थी	-11626
▁पंतप्रधानांकडून	-11627
ॅक	-11628
बाह	-11629
वाढ	-11630
▁गज	-11631
▁नल	-11632
जीवन	-11633
ुक्त	-11634
▁छिप	-11635
▁विण	-11636
▁सेक	-11637
यांची	-11638
विध्य	-11639
िक्षा	-11640
▁आतील	-11641
▁इंडि	-11642
▁कब्ज	-11643
▁क्रा	-11644
▁खतना	-11645
▁जुना	-11646
▁पाते	-11647
▁बिगा	-11648
जीएसटी	-11649
▁इनकार	-11650
▁खेळाड	-11651
▁चार्ट	-11652
▁जागरु	-11653
▁जितके	-11654
▁तिसरा	-11655
▁रेडिओ	-11656
▁आराधना	-11657
▁पासवान	-11658
▁पुरेसा	-11659
▁महावीर	-11660
▁राजाची	-11661
▁वातावर	-11662
▁शिफारस	-11663
▁कार्यात	-11664
▁लाभकारी	-11665
▁वल्हांड	-11666
▁गर्मजोशी	-11667
▁सीएसआईआर	-11668
▁प्लेटफार्	-11669
▁प्रकल्पाचे	-11670
▁खाद्यपदार्थ	-11671
▁पहिल्यांदाच	-11672
▁राज्यातल्या	-11673
वाज	-11674
गंगा	-11675
लेशन	-11676
▁गधे	-11677
▁फर्	-11678
▁बटा	-11679
▁मसु	-11680
▁ऐकली	-11681
▁ग्या	-11682
▁जिवे	-11683
▁द्वि	-11684
▁रोया	-11685
केंद्र	-11686
▁2016,	-11687
▁उज्जी	-11688
▁चक्कर	-11689
▁नौकरी	-11690
▁बायका	-11691
▁वधस्त	-11692
▁वाटून	-11693
▁सुरंग	-11694
नेजमेंट	-11695
▁एजेंडा	-11696
▁किरकोळ	-11697
▁कीटाणु	-11698
▁चढ़ाया	-11699
▁निकासी	-11700
▁पाएंगे	-11701
▁साम्रा	-11702
▁सूर्या	-11703
▁दिवसांत	-11704
▁राजनीति	-11705
▁स्थैर्य	-11706
▁भागिदारी	-11707
▁सैन्याने	-11708
▁स्टेडियम	-11709
▁स्वतःच्या	-11710
▁स्वयंसेवक	-11711
▁पूर्वजांना	-11712
▁लोकांबरोबर	-11713
▁त्याच्यासाठी	-11714
▁संस्थांमध्ये	-11715
he	-11716
म्भ	-11717
श्न	-11718
वरही	-11719
शाचा	-11720
सीएफ	-11721
▁700	-11722
▁आणू	-11723
▁आति	-11724
▁ओरड	-11725
▁चेत	-11726
▁पिघ	-11727
निटाइ	-11728
▁अल्ट	-11729
▁एड्स	-11730
▁थर्म	-11731
▁पाडा	-11732
▁बनते	-11733
▁बिला	-11734
▁आच्छा	-11735
▁आठवणी	-11736
▁साइंस	-11737
▁सेवेत	-11738
▁इन्हें	-11739
▁बोलतात	-11740
▁महासंघ	-11741
▁सीतारा	-11742
▁अंबेडकर	-11743
▁आवाजाही	-11744
▁इश्माएल	-11745
▁काटेकोर	-11746
▁जवळच्या	-11747
▁बाजूंनी	-11748
▁निश्चितच	-11749
▁संस्थेचे	-11750
▁इस्त्राएल	-11751
▁उद्योजकांना	-11752
▁मिळवण्यासाठी	-11753
खू	-11754
संध	-11755
सुख	-11756
▁तथ	-11757
▁झेप	-11758
▁डाग	-11759
▁लेक	-11760
India	-11761
भागीय	-11762
▁अर्क	-11763
▁ऊँचे	-11764
▁गुहे	-11765
▁जवळच	-11766
▁पणजी	-11767
▁बांस	-11768
▁युनि	-11769
▁वाटे	-11770
▁शिका	-11771
▁आनन्द	-11772
▁तरलता	-11773
▁दिलों	-11774
▁निकला	-11775
▁परिचय	-11776
▁प्रीम	-11777
▁बनवून	-11778
▁भरपाई	-11779
▁स्वर्	-11780
▁हॉटेल	-11781
प्राप्त	-11782
▁पूछताछ	-11783
▁प्रिंट	-11784
▁हिज्की	-11785
▁2015-16	-11786
▁चक्रवात	-11787
▁चुनावों	-11788
▁टिप्पणी	-11789
▁बहुतायत	-11790
▁समावेशन	-11791
▁दीर्घकाळ	-11792
▁आपत्कालीन	-11793
▁खिलाड़ियों	-11794
▁भविष्यासाठी	-11795
▁देशांदरम्यान	-11796
AC	-11797
मला	-11798
ेकर	-11799
फेसर	-11800
▁तसं	-11801
▁दमन	-11802
▁पहच	-11803
▁पैग	-11804
▁बंड	-11805
▁यमु	-11806
▁अभिय	-11807
▁ग्वा	-11808
▁विनो	-11809
▁चळवळी	-11810
▁विवाह	-11811
स्ट्रॉल	-11812
▁अंधकार	-11813
▁अमूल्य	-11814
▁निराशा	-11815
▁स्टैंड	-11816
▁सुझावों	-11817
▁स्पोर्ट	-11818
▁कांग्रेस	-11819
▁पश्चाताप	-11820
▁देशामध्ये	-11821
▁टक्क्यांनी	-11822
▁विश्वासघात	-11823
▁व्यक्तीच्या	-11824
▁शस्त्रक्रिय	-11825
27	-11826
st	-11827
▁ॲ	-11828
iii	-11829
एचए	-11830
निस	-11831
मोल	-11832
सां	-11833
होन	-11834
▁76	-11835
▁मश	-11836
अपने	-11837
निमा	-11838
ियोप	-11839
▁खेड	-11840
▁छान	-11841
▁नकद	-11842
harat	-11843
ूर्ती	-11844
▁खाती	-11845
▁जगन्	-11846
▁जेएन	-11847
▁नमुन	-11848
▁बदले	-11849
▁बनता	-11850
कासाठी	-11851
▁तेवढे	-11852
▁धोरणे	-11853
▁बैठका	-11854
▁ईपीएफओ	-11855
▁प्रशंस	-11856
▁बर्बाद	-11857
▁महादेव	-11858
▁येताना	-11859
▁ईर्ष्या	-11860
▁तातडीने	-11861
▁पुनर्जी	-11862
▁वैविध्य	-11863
▁विश्रांती	-11864
▁वैशिष्ट्य	-11865
ंकष	-11866
लंड	-11867
दूरी	-11868
वकों	-11869
ष्‍ट	-11870
स्थल	-11871
▁काँ	-11872
▁छुट	-11873
▁ठरत	-11874
▁दमा	-11875
▁रसो	-11876
ंकडून	-11877
▁अपघा	-11878
▁कोटा	-11879
▁क्रे	-11880
▁गणना	-11881
▁फिलि	-11882
▁जागृत	-11883
त्तियों	-11884
▁पॉलिसी	-11885
▁मार्शल	-11886
▁वाढवून	-11887
▁अभिनेता	-11888
▁रक्तचाप	-11889
▁संभालने	-11890
▁आमच्यावर	-11891
▁केदारनाथ	-11892
▁तरुणांना	-11893
▁दुसरीकडे	-11894
▁कर्तव्यों	-11895
▁संकटाच्या	-11896
▁समुद्रकिन	-11897
▁पुरस्कारों	-11898
▁लॉकडाऊनच्या	-11899
▁संवेदनशीलता	-11900
IP	-11901
कूड	-11902
ब्स	-11903
▁हन	-11904
▁४०	-11905
न्क्	-11906
मिशन	-11907
सीआय	-11908
▁कैल	-11909
▁ज़े	-11910
▁झाक	-11911
▁टाइ	-11912
▁फेफ	-11913
▁2012	-11914
▁ICMR	-11915
▁एसोस	-11916
▁ओसाड	-11917
▁खेलो	-11918
▁चौथी	-11919
▁छत्र	-11920
▁थोडी	-11921
▁दीपक	-11922
▁पहलू	-11923
▁मजूर	-11924
▁यशया	-11925
▁रत्न	-11926
▁वॉटर	-11927
▁शेकड	-11928
▁स्टे	-11929
मासाठी	-11930
▁गिबोन	-11931
▁घूमने	-11932
▁जाहिर	-11933
▁जिनका	-11934
▁मजबूर	-11935
▁माइया	-11936
▁सूत्र	-11937
▁कमांडर	-11938
▁निवारक	-11939
▁पंक्ति	-11940
▁संहिता	-11941
▁टुकड़ों	-11942
▁विक्रमी	-11943
▁गौरवशाली	-11944
▁तुम्हांस	-11945
▁प्रमुखों	-11946
▁बेंगलुरु	-11947
▁याद्वारे	-11948
▁चित्रपटात	-11949
▁आरोग्यसेवा	-11950
▁कार्यालयों	-11951
▁भारतीयांना	-11952
▁यूनिवर्सिटी	-11953
▁निवृत्तीवेतन	-11954
▁प्राथमिकताओं	-11955
▁अध्यक्षतेखालील	-11956
90	-11957
eM	-11958
उप	-11959
▁ऑड	-11960
एफएफ	-11961
्तार	-11962
▁रिझ	-11963
▁शके	-11964
▁हरा	-11965
केमिक	-11966
मुळेच	-11967
▁देशी	-11968
▁दौड़	-11969
▁नगरा	-11970
▁लिला	-11971
▁सुल्	-11972
▁ठहरने	-11973
▁तिकडे	-11974
▁तृतीय	-11975
▁धारणा	-11976
▁पक्षा	-11977
▁विस्म	-11978
ौपचारिक	-11979
▁अमृतसर	-11980
▁जोरदार	-11981
▁डीएसटी	-11982
▁वितरीत	-11983
▁अर्थाने	-11984
▁उपनगरों	-11985
▁पराक्रम	-11986
▁भेटायला	-11987
▁विद्रोह	-11988
▁विद्वान	-11989
▁सर्वंकष	-11990
▁सूचकांक	-11991
▁पुस्तकात	-11992
▁प्रोफेसर	-11993
▁स्वीकारला	-11994
फळ	-11995
ंकी	-11996
षेध	-11997
सरण	-11998
▁96	-11999
गेशन	-12000
चेही	-12001
▁आवृ	-12002
▁कॉम	-12003
▁चंप	-12004
▁जलन	-12005
▁भजन	-12006
ंद्रह	-12007
विद्य	-12008
▁अनुष	-12009
▁गिबा	-12010
▁बलाम	-12011
▁वेळो	-12012
▁सुकर	-12013
▁सोडा	-12014
▁काढला	-12015
▁तत्वे	-12016
▁तस्वी	-12017
▁पड़ती	-12018
▁फास्ट	-12019
▁लाकूड	-12020
▁सामील	-12021
▁हड्डी	-12022
▁अनुबंध	-12023
▁एनर्जी	-12024
▁टुकड़े	-12025
▁फिक्की	-12026
▁मिळावी	-12027
▁दीनदयाल	-12028
▁महाराजा	-12029
▁अधिग्रहण	-12030
▁करदाताओं	-12031
▁क्षेत्रे	-12032
▁पाइपलाइन	-12033
▁स्वर्गीय	-12034
▁शास्त्रीय	-12035
ठन	-12036
टोक	-12037
निय	-12038
लाइ	-12039
लाह	-12040
श्क	-12041
समय	-12042
सलत	-12043
्‍ह	-12044
▁CB	-12045
▁‘‘	-12046
इयाँ	-12047
डीजी	-12048
ार्द	-12049
▁इंध	-12050
▁शकू	-12051
▁आणला	-12052
▁गुदा	-12053
▁तारा	-12054
▁पडते	-12055
▁फोटो	-12056
▁यूके	-12057
▁लोका	-12058
▁सूखे	-12059
रुपयोग	-12060
▁क्रूर	-12061
▁खोजने	-12062
▁पंधरा	-12063
▁मागित	-12064
▁आईआईटी	-12065
▁कपड़ों	-12066
▁खाल्ले	-12067
▁पुनर्र	-12068
▁विमानन	-12069
▁कारागिर	-12070
▁जैसलमेर	-12071
▁शुरुआती	-12072
▁कन्वेंशन	-12073
▁पहुँचाया	-12074
▁योजनांचा	-12075
▁राजनैतिक	-12076
▁विषाणूचा	-12077
▁नेण्यासाठी	-12078
▁मुख्यमंत्र	-12079
ँव	-12080
ईपी	-12081
फेल	-12082
साल	-12083
ताचे	-12084
लमेल	-12085
िद्र	-12086
▁ढेर	-12087
▁तटर	-12088
▁बुल	-12089
▁वगळ	-12090
ंगाने	-12091
▁असुर	-12092
▁आगरा	-12093
▁एदोम	-12094
▁ऑप्ट	-12095
▁कपूर	-12096
▁खाणी	-12097
▁गव्ह	-12098
▁डिजी	-12099
▁लाना	-12100
▁इंजिन	-12101
▁खायला	-12102
▁बद्दल	-12103
▁विलंब	-12104
स्तियों	-12105
▁कुपोषण	-12106
▁तालमेल	-12107
▁रिजर्व	-12108
▁सिखाया	-12109
▁सुचारू	-12110
▁आफ्रिका	-12111
▁तटरक्षक	-12112
▁निर्मात	-12113
▁ब्राजील	-12114
▁वयाच्या	-12115
▁सदस्यता	-12116
▁सब्जियों	-12117
ण्याबरोबरच	-12118
▁अनौपचारिक	-12119
▁आपल्यासाठी	-12120
▁मानवपुत्रा	-12121
‍य	-12122
ईने	-12123
▁दै	-12124
क्की	-12125
नाशी	-12126
वस्त	-12127
हानी	-12128
▁बनू	-12129
▁रिफ	-12130
तर्फे	-12131
प्लिक	-12132
िकल्स	-12133
▁एकमत	-12134
▁करों	-12135
▁घटने	-12136
▁डिली	-12137
▁नायक	-12138
▁बरीच	-12139
▁बोतल	-12140
▁भरने	-12141
▁शिमी	-12142
▁सेतू	-12143
कार्बन	-12144
▁ड्रोन	-12145
▁नेमले	-12146
▁मेमोर	-12147
▁सार्क	-12148
▁सोसाय	-12149
▁आधारीत	-12150
▁काळ्या	-12151
▁जवानों	-12152
▁पंद्रह	-12153
▁मुक्ती	-12154
▁वास्तु	-12155
▁खांद्या	-12156
▁जगन्नाथ	-12157
्यांपासून	-12158
▁चुकीच्या	-12159
▁दुर्लक्ष	-12160
▁येण्याची	-12161
▁शास्त्री	-12162
▁सर्वांची	-12163
▁भागातल्या	-12164
▁राज्यसभेत	-12165
▁क्षेत्राचा	-12166
▁पुनर्जीवित	-12167
▁सर्वसाधारण	-12168
▁उम्मीदवारों	-12169
▁प्रयोगशालाएँ	-12170
▁गुणवत्तापूर्ण	-12171
12	-12172
oj	-12173
महल	-12174
िको	-12175
केयर	-12176
बीसी	-12177
▁आदत	-12178
▁पंप	-12179
▁मनी	-12180
कोष्ठ	-12181
वाहित	-12182
हाबाद	-12183
िलिंग	-12184
▁गुरे	-12185
▁नबूक	-12186
▁हायड	-12187
▁देहरा	-12188
▁दिखाने	-12189
▁दिलेला	-12190
▁मंचावर	-12191
▁मजदूरी	-12192
▁आघाडीवर	-12193
▁परिणामी	-12194
▁मजदूरों	-12195
▁मुख्तार	-12196
▁तालाबंदी	-12197
▁नियुक्ति	-12198
▁पुरातत्व	-12199
▁प्राप्ती	-12200
▁ख्रिस्ताच्या	-12201
▁सहकार्याच्या	-12202
46	-12203
SC	-12204
थो	-12205
esh	-12206
आयु	-12207
▁In	-12208
▁to	-12209
ंतून	-12210
गाचे	-12211
तीचे	-12212
ऱ्हा	-12213
वावर	-12214
▁उखा	-12215
▁खाट	-12216
▁भां	-12217
▁मेम	-12218
▁सील	-12219
पालिक	-12220
▁आयरन	-12221
▁एनएफ	-12222
▁एवढा	-12223
▁तशीच	-12224
▁दरों	-12225
▁दुखी	-12226
▁परेड	-12227
▁बोले	-12228
▁मंगल	-12229
▁लाइट	-12230
▁लेखक	-12231
▁Covid	-12232
▁इस्रो	-12233
▁गोल्फ	-12234
▁तुरही	-12235
▁पीडित	-12236
▁मोकळे	-12237
▁हाताळ	-12238
▁ह्यात	-12239
पणाच्या	-12240
▁आचार्य	-12241
▁शहाणपण	-12242
▁अलिकडेच	-12243
▁निर्बंध	-12244
▁मंडळाने	-12245
▁संरक्षक	-12246
▁सर्वत्र	-12247
▁पुनर्वास	-12248
▁मिसरमधून	-12249
▁संस्थाओं	-12250
▁आत्म्याने	-12251
▁खर्चाच्या	-12252
▁त्यामुळेच	-12253
▁राहण्याची	-12254
▁हिंदुस्तान	-12255
▁मनुष्याच्या	-12256
▁सुविधांच्या	-12257
▁लाभार्थ्यांना	-12258
37	-12259
88	-12260
’’	-12261
.25	-12262
बेद	-12263
ूला	-12264
▁थड	-12265
ंशिक	-12266
रीने	-12267
▁ठरू	-12268
▁पाण	-12269
्यूटर	-12270
▁ठरला	-12271
▁तोळे	-12272
▁नीले	-12273
▁आशंका	-12274
▁उचलून	-12275
▁केलीस	-12276
▁कोच्च	-12277
▁गुलाब	-12278
▁जैतून	-12279
▁दूषित	-12280
▁प्रसव	-12281
▁युनिट	-12282
▁आत्मान	-12283
▁गोविंद	-12284
▁परिधान	-12285
▁बढ़ाता	-12286
▁ब्रांड	-12287
▁स्टोरे	-12288
▁रूपरेखा	-12289
▁हानिकारक	-12290
▁दृष्टान्त	-12291
▁रुग्णाच्या	-12292
▁सोन्याच्या	-12293
▁यरुशलेममधील	-12294
▁सामर्थ्यवान	-12295
▁i	-12296
िपल	-12297
▁ग्	-12298
▁नह	-12299
आईएस	-12300
टाने	-12301
म्मा	-12302
शांत	-12303
▁एनी	-12304
▁कळप	-12305
▁खिल	-12306
▁चुप	-12307
▁अतुल	-12308
▁गिरी	-12309
▁चळवळ	-12310
▁नियो	-12311
▁बेहत	-12312
▁ब्लू	-12313
▁मर्द	-12314
▁मोटा	-12315
▁लाखा	-12316
▁श्या	-12317
प्रमाण	-12318
▁टेकडी	-12319
▁तारखे	-12320
▁नमुने	-12321
▁निषेध	-12322
▁पडतील	-12323
▁मुद्र	-12324
▁रक्षक	-12325
▁सम्रा	-12326
▁सिंधु	-12327
▁स्नात	-12328
▁दिसतात	-12329
▁परतावा	-12330
्यांकडून	-12331
▁असतानाच	-12332
▁कानाकोप	-12333
▁महामहीम	-12334
▁यारोबाम	-12335
▁पहुंचाने	-12336
▁पुरस्कृत	-12337
▁प्रश्नों	-12338
▁प्रत्येकजण	-12339
▁भागांमध्ये	-12340
उल	-12341
.04	-12342
गमन	-12343
ूनी	-12344
▁डब	-12345
▁रौ	-12346
गुरु	-12347
ट्टर	-12348
सावे	-12349
▁घने	-12350
▁नोए	-12351
▁सैर	-12352
निवेश	-12353
सैनिक	-12354
▁2024	-12355
▁इनाम	-12356
▁गोरख	-12357
▁चकित	-12358
▁जेके	-12359
▁नंदा	-12360
▁फंसे	-12361
▁भिंत	-12362
▁वैसा	-12363
▁एक्सच	-12364
▁गिरने	-12365
▁गुन्ह	-12366
▁नगरों	-12367
▁योद्ध	-12368
▁लिहून	-12369
▁वैष्ण	-12370
▁सार्थ	-12371
▁सुरवा	-12372
मध्येही	-12373
▁अंडमान	-12374
▁खर्चात	-12375
▁गवर्नर	-12376
▁दिवाळख	-12377
▁निविदा	-12378
▁2014-15	-12379
▁कौशल्या	-12380
▁गावातील	-12381
▁पोहोचले	-12382
▁रामेश्व	-12383
▁विनियमन	-12384
▁सगळीकडे	-12385
▁स्टोरेज	-12386
▁द्राक्षम	-12387
▁सीतारामन	-12388
▁अनुषंगाने	-12389
▁तुमच्याशी	-12390
ऊक	-12391
खूप	-12392
डीच	-12393
देह	-12394
बोट	-12395
यरल	-12396
तीची	-12397
धनुष	-12398
निधी	-12399
शाची	-12400
स्पा	-12401
्युर	-12402
▁टेल	-12403
▁धीर	-12404
▁भंग	-12405
▁शमा	-12406
कारों	-12407
क्ष्य	-12408
खेरीज	-12409
ित्या	-12410
▁अचूक	-12411
▁खंभे	-12412
▁रकमे	-12413
▁रोने	-12414
▁सवयी	-12415
▁स्तो	-12416
▁स्पा	-12417
▁अमिता	-12418
▁उभरती	-12419
▁खुजली	-12420
▁प्लेग	-12421
▁बड़ों	-12422
▁भक्ति	-12423
▁भागों	-12424
▁शेकडो	-12425
▁सांसद	-12426
▁जुड़ने	-12427
▁प्रायः	-12428
▁बांधका	-12429
▁सामरिक	-12430
▁अनंतकाळ	-12431
▁चंडीगढ़	-12432
▁परदेशात	-12433
▁प्रशांत	-12434
▁मुलांनी	-12435
▁सुल्तान	-12436
पंतप्रधान	-12437
▁कंपनियां	-12438
▁गांधीनगर	-12439
▁ग्राहकों	-12440
▁वस्तूंचा	-12441
▁वेळोवेळी	-12442
▁सुवार्ता	-12443
▁उपस्थितीत	-12444
▁गोष्टींची	-12445
▁त्याविषयी	-12446
▁समुदायाला	-12447
▁निमित्ताने	-12448
▁व्यक्तित्व	-12449
▁केंद्राच्या	-12450
▁लॉजिस्टिक्स	-12451
▁सांगितलेल्या	-12452
▁प्रकल्पांसाठी	-12453
▁विद्यार्थ्यांनी	-12454
33	-12455
ED	-12456
षी	-12457
घाट	-12458
फिर	-12459
ोजा	-12460
▁62	-12461
एनएल	-12462
करणा	-12463
्याथ	-12464
▁ऋतु	-12465
▁दुध	-12466
▁वया	-12467
पणाचा	-12468
मित्व	-12469
▁अवयव	-12470
▁गिना	-12471
▁रसोई	-12472
▁अर्धा	-12473
▁घोड़े	-12474
▁पदभार	-12475
▁फाइबर	-12476
▁रूबेन	-12477
तेनुसार	-12478
निर्देश	-12479
ष्टीकरण	-12480
▁अन्याय	-12481
▁चिल्ला	-12482
▁मुक्ति	-12483
▁वापरले	-12484
▁आमंत्रण	-12485
▁खालच्या	-12486
▁पर्वतीय	-12487
▁प्राधिकर	-12488
▁लोकांकडे	-12489
▁पूर्वेकडील	-12490
▁प्रवाशांना	-12491
▁विकासात्मक	-12492
▁शिष्यवृत्ती	-12493
▁सर्वेक्षणात	-12494
चून	-12495
प्स	-12496
यूर	-12497
▁इम	-12498
मिरल	-12499
▁रूम	-12500
▁लैब	-12501
▁सवय	-12502
▁साई	-12503
वैद्य	-12504
▁घायल	-12505
▁ज्वर	-12506
▁टेबल	-12507
▁ठरते	-12508
▁दिवे	-12509
▁पीएस	-12510
▁यहीं	-12511
▁संगण	-12512
ठिकाणी	-12513
▁अंजीर	-12514
▁कितने	-12515
▁कोर्ट	-12516
▁ज्ञात	-12517
▁पियुष	-12518
▁फूलों	-12519
▁बोलले	-12520
▁भरभरा	-12521
▁मानता	-12522
▁सरपंच	-12523
▁आतिथ्य	-12524
▁ठेवतात	-12525
▁दुपारी	-12526
▁देशाने	-12527
प्लिकेशन	-12528
▁आत्माओं	-12529
▁गड़बड़ी	-12530
▁डिलीवरी	-12531
▁नवोन्मे	-12532
▁निर्धार	-12533
▁पसरलेले	-12534
▁मलेरिया	-12535
▁माणसाचे	-12536
▁लक्ष्मी	-12537
▁जल्दबाजी	-12538
▁प्रस्थान	-12539
▁यहोशवाने	-12540
▁तुझ्याबरोबर	-12541
▁स्टार्टअप्स	-12542
▁इन्स्टिट्यूट	-12543
-4	-12544
BI	-12545
NA	-12546
एचओ	-12547
पाठ	-12548
मेज	-12549
ऱ्ह	-12550
▁ढल	-12551
ड्डा	-12552
नातन	-12553
विधा	-12554
▁गरु	-12555
▁जशी	-12556
▁बकर	-12557
▁मेश	-12558
ापत्र	-12559
▁2010	-12560
▁उठून	-12561
▁दोहन	-12562
▁बँका	-12563
▁रिंग	-12564
▁अवलोक	-12565
▁कापून	-12566
▁राहेल	-12567
▁सुनते	-12568
▁सुषमा	-12569
▁अपराधी	-12570
▁कुठेही	-12571
▁कोच्चि	-12572
▁जंगलों	-12573
▁न्यायिक	-12574
▁रूपांतर	-12575
प्रक्रिया	-12576
▁मानसिकता	-12577
▁विज्ञाना	-12578
▁हिज्कीया	-12579
▁आव्हानांना	-12580
▁गर्भावस्था	-12581
▁प्रभावीपणे	-12582
▁विरुद्धच्या	-12583
▁किलोमीटरच्या	-12584
MC	-12585
णम	-12586
टीओ	-12587
बिन	-12588
▁गळ	-12589
एसएम	-12590
ताली	-12591
रेटर	-12592
व्यय	-12593
्डों	-12594
▁आरो	-12595
▁पतर	-12596
▁मेघ	-12597
▁ह्र	-12598
डच्या	-12599
मुख्य	-12600
▁खाटा	-12601
▁टाळे	-12602
▁रोडम	-12603
▁लायक	-12604
▁लेती	-12605
▁शर्क	-12606
▁सख्त	-12607
▁हेही	-12608
▁पौधों	-12609
▁प्याय	-12610
▁वाहिन	-12611
▁घोड़ों	-12612
▁जनतेने	-12613
▁परवाना	-12614
▁राहिलो	-12615
▁विष्णु	-12616
▁समारोप	-12617
▁हनुमान	-12618
▁मांसपेश	-12619
▁सगळ्यात	-12620
बेकिस्तान	-12621
▁इंजेक्शन	-12622
▁तत्कालीन	-12623
▁सर्दियों	-12624
▁पुनरुज्जी	-12625
▁सुरक्षितता	-12626
▁शस्त्रक्रिया	-12627
57	-12628
66	-12629
GA	-12630
एई	-12631
ठ्	-12632
तले	-12633
लिन	-12634
वां	-12635
हिक	-12636
डीएफ	-12637
ताचा	-12638
▁चिप	-12639
▁दुब	-12640
▁शनि	-12641
.2019	-12642
्यूटी	-12643
▁2008	-12644
▁3000	-12645
▁आयाम	-12646
▁ठेवत	-12647
▁माली	-12648
▁रोते	-12649
घाच्या	-12650
शबोर्ड	-12651
▁आंखें	-12652
▁एखादे	-12653
▁ठरतील	-12654
▁दिसेल	-12655
▁ध्वनि	-12656
▁पुरवठ	-12657
▁ब्रिज	-12658
▁महिना	-12659
▁शमशोन	-12660
▁श्वेत	-12661
▁पाठवून	-12662
▁भीतीने	-12663
▁मूल्ये	-12664
▁वरच्या	-12665
▁कारखाने	-12666
▁तीव्रता	-12667
▁सुरूवात	-12668
▁नौदलाच्या	-12669
▁प्रसन्नता	-12670
▁स्त्रियां	-12671
▁टक्क्यांवर	-12672
▁नागरिकांचे	-12673
▁काळजीपूर्वक	-12674
▁प्रतिबिंबित	-12675
▁प्रयत्नांचे	-12676
▁प्रसारमाध्यम	-12677
आल	-12678
▁v	-12679
SIR	-12680
णूक	-12681
दाह	-12682
पित	-12683
▁-2	-12684
▁बछ	-12685
एनआर	-12686
तशीर	-12687
भूषण	-12688
▁एरो	-12689
▁कुं	-12690
▁तीच	-12691
▁फीस	-12692
▁बहस	-12693
▁भोग	-12694
देशीय	-12695
स्टेक	-12696
▁कंधे	-12697
▁धरून	-12698
▁पुनः	-12699
▁रियल	-12700
▁उद्दी	-12701
▁एहसास	-12702
▁तुकडी	-12703
▁येथेच	-12704
▁समक्ष	-12705
▁हिरवा	-12706
दारांना	-12707
ानाच्या	-12708
▁इलाकों	-12709
▁जापानी	-12710
▁पद्धति	-12711
▁थाईलैंड	-12712
▁देवाकडे	-12713
▁राहणारे	-12714
▁उत्पत्ति	-12715
▁उर्वरकों	-12716
▁कामाच्या	-12717
▁टाळेबंदी	-12718
▁सूचीबद्ध	-12719
▁उपभोक्ताओं	-12720
▁लढण्यासाठी	-12721
▁परिस्थितीचा	-12722
74	-12723
थिक	-12724
मुद	-12725
लीम	-12726
▁ईद	-12727
दिया	-12728
रेशन	-12729
ारों	-12730
▁ज्व	-12731
▁पाद	-12732
खालील	-12733
▁अयोध	-12734
▁इथून	-12735
▁कपात	-12736
▁तलाव	-12737
▁धरुन	-12738
▁नसतो	-12739
▁स्वै	-12740
▁हमला	-12741
कॉमर्स	-12742
▁खासकर	-12743
▁गरिमा	-12744
▁चलाया	-12745
▁जयपूर	-12746
▁टाकली	-12747
▁पंचाय	-12748
▁मामला	-12749
▁लंबित	-12750
▁वापसी	-12751
▁अंतराल	-12752
▁एलाजार	-12753
▁तिन्ही	-12754
▁धोरणात	-12755
▁येणारा	-12756
▁वाहिनी	-12757
▁साहसिक	-12758
▁अर्ध्या	-12759
▁इतरांना	-12760
▁कारोबार	-12761
▁जबरदस्त	-12762
▁दायित्व	-12763
▁दावीदला	-12764
▁मिलेंगे	-12765
▁मुलांचे	-12766
▁जेणेकरुन	-12767
▁तलवारीने	-12768
▁देहरादून	-12769
▁निर्धारण	-12770
▁दिवसाच्या	-12771
▁दिवाळखोरी	-12772
▁कंपन्यांनी	-12773
▁दुष्कृत्ये	-12774
▁परिणामकारक	-12775
▁बुद्धिमत्ता	-12776
▁पर्यटकांसाठी	-12777
aj	-12778
ho	-12779
-14	-12780
रिश	-12781
लेव	-12782
हूर	-12783
िरण	-12784
▁चॅ	-12785
▁धम	-12786
▁१३	-12787
ब्बे	-12788
मानी	-12789
िंटल	-12790
▁किल	-12791
▁डिफ	-12792
▁नाल	-12793
▁वाई	-12794
▁अहरो	-12795
▁आणणे	-12796
▁ताबा	-12797
▁दांत	-12798
▁नज़र	-12799
▁वर्च	-12800
▁वाचव	-12801
▁वाटर	-12802
▁वितर	-12803
▁आम्हा	-12804
▁इरादा	-12805
▁दार्ज	-12806
▁पोषित	-12807
▁फटकार	-12808
▁समतोल	-12809
▁Bharat	-12810
▁खतरनाक	-12811
▁चर्चास	-12812
▁दुहेरी	-12813
▁नारंगी	-12814
▁पुनर्ग	-12815
▁पुरेशी	-12816
▁फलदायी	-12817
▁बुकिंग	-12818
▁मेजबान	-12819
▁लज्जित	-12820
▁अम्मोनी	-12821
▁अर्थात्	-12822
▁लक्षणों	-12823
▁अनुच्छेद	-12824
▁कायद्यात	-12825
▁लड़कियों	-12826
संदर्भातील	-12827
▁एकमेकांशी	-12828
▁इंटेलिजेंस	-12829
▁संरचनात्मक	-12830
▁ह्यांमध्ये	-12831
▁प्रकल्पांची	-12832
▁प्लेटफार्मों	-12833
DC	-12834
कॉ	-12835
एगी	-12836
सेन	-12837
▁कथ	-12838
▁बक	-12839
▁लू	-12840
गुती	-12841
णुका	-12842
प्रद	-12843
भूति	-12844
▁ओवर	-12845
▁गये	-12846
▁धाम	-12847
▁नमा	-12848
▁बनो	-12849
▁मेर	-12850
▁सौह	-12851
ग्रही	-12852
सिफिक	-12853
▁एसिड	-12854
▁तसाच	-12855
▁पैलू	-12856
▁यावा	-12857
▁स्क्	-12858
▁हाडे	-12859
▁होतं	-12860
▁कटौती	-12861
▁किस्म	-12862
▁ग्लेश	-12863
▁नोएडा	-12864
▁परमेश	-12865
▁पुतिन	-12866
▁बेकार	-12867
▁वाढतो	-12868
▁विधेय	-12869
कापासून	-12870
▁अमिताभ	-12871
▁अवलोकन	-12872
▁थायलंड	-12873
▁नावाची	-12874
▁बाजूने	-12875
▁भाज्या	-12876
▁लेबनान	-12877
▁शासकों	-12878
▁उत्साही	-12879
▁घराच्या	-12880
▁बढ़ाएगा	-12881
▁शतकातील	-12882
▁इतिहासात	-12883
▁गेल्यावर	-12884
▁भूमिपूजन	-12885
▁वल्लभभाई	-12886
▁बुजुर्गों	-12887
▁यिर्मयाला	-12888
▁स्वयंसेवी	-12889
▁स्वामित्व	-12890
▁कोरोनावायरस	-12891
38	-12892
हाट	-12893
▁03	-12894
नाती	-12895
मत्व	-12896
▁गवत	-12897
▁गिन	-12898
▁दंत	-12899
▁बघा	-12900
▁वाक	-12901
▁सभे	-12902
▁सिग	-12903
▁सेब	-12904
कीकरण	-12905
मेलेक	-12906
हेरील	-12907
▁गोंध	-12908
▁नियत	-12909
▁रखती	-12910
▁वर्ध	-12911
ऱ्याचे	-12912
▁अस्वी	-12913
▁कर्नल	-12914
▁कीमती	-12915
▁नित्य	-12916
▁प्लान	-12917
▁बजावत	-12918
▁सालों	-12919
दनेस्सर	-12920
▁आउटरीच	-12921
▁कुंभमे	-12922
▁युद्धा	-12923
▁जीवनाचा	-12924
▁झाल्यास	-12925
▁ब्राझील	-12926
▁भांडवली	-12927
▁राजनयिक	-12928
▁राहायला	-12929
▁सेनापती	-12930
▁पूर्वेला	-12931
▁भूमीपूजन	-12932
▁मवेशियों	-12933
▁यहोशापात	-12934
▁किफायतशीर	-12935
▁किनारपट्टी	-12936
▁निवडलेल्या	-12937
▁यांच्यामध्ये	-12938
थल	-12939
▁l	-12940
ity	-12941
कोश	-12942
चिन	-12943
छता	-12944
जाम	-12945
बिट	-12946
ूना	-12947
▁78	-12948
▁फौ	-12949
साला	-12950
▁कळत	-12951
▁गाई	-12952
▁ठाम	-12953
▁सता	-12954
टल्या	-12955
विष्ठ	-12956
स्मिक	-12957
▁कापड	-12958
▁खाऊन	-12959
▁देशभ	-12960
राइटिस	-12961
▁अध्यय	-12962
▁इनपुट	-12963
▁डेव्ह	-12964
▁तालाब	-12965
▁पुरूष	-12966
▁भेजने	-12967
▁मर्दख	-12968
▁मार्क	-12969
▁साजरे	-12970
▁अनुपात	-12971
▁जिल्हे	-12972
▁जोड़ों	-12973
▁निर्वा	-12974
▁पाठवला	-12975
▁पैगंबर	-12976
▁रवांडा	-12977
▁रोडमैप	-12978
▁अस्थायी	-12979
▁कराराची	-12980
▁कारखाना	-12981
▁देशातले	-12982
▁मूर्खता	-12983
▁लचीलापन	-12984
▁विचारात	-12985
▁स्वर्गात	-12986
▁संभावनाएं	-12987
▁सीमावर्ती	-12988
▁स्थितियों	-12989
▁हस्तशिल्प	-12990
▁क्षेत्राशी	-12991
▁करण्यासाठीच्या	-12992
-5	-12993
ma	-12994
pp	-12995
आज	-12996
तक	-12997
ंबी	-12998
रेस	-12999
ौली	-13000
माना	-13001
ोरमा	-13002
▁आंत	-13003
▁आइस	-13004
▁आपस	-13005
▁तळा	-13006
▁थीम	-13007
▁दाग	-13008
▁लम्	-13009
बुद्ध	-13010
▁तेही	-13011
▁नंगे	-13012
▁पौधे	-13013
▁बराच	-13014
▁सखोल	-13015
ंगाबाद	-13016
ळ्याचे	-13017
वासाठी	-13018
▁अशक्य	-13019
▁खजाने	-13020
▁भवनात	-13021
▁मराठी	-13022
▁मसाले	-13023
▁मैसूर	-13024
प्लेक्स	-13025
वासियों	-13026
▁अब्दुल	-13027
▁एलएमटी	-13028
▁करूँगा	-13029
▁गुप्ता	-13030
▁घरगुती	-13031
▁निकटतम	-13032
▁मानसून	-13033
▁ऑक्सिजन	-13034
▁कटीबद्ध	-13035
▁छुटकारा	-13036
▁दारिद्र	-13037
▁मार्गों	-13038
▁मेजवानी	-13039
▁कृतज्ञता	-13040
▁दस्तावेज	-13041
▁प्रतिकार	-13042
▁समितियों	-13043
▁करणाऱ्यां	-13044
▁मुलांसाठी	-13045
▁समारंभाला	-13046
▁प्रकल्पांना	-13047
▁परमेश्वरासाठी	-13048
.30	-13049
तेच	-13050
वलं	-13051
ानं	-13052
्यौ	-13053
मुझे	-13054
सीजी	-13055
हाची	-13056
़ाइन	-13057
▁अदो	-13058
▁ऐकत	-13059
▁मका	-13060
▁अनिल	-13061
▁उग्र	-13062
▁खोले	-13063
▁चोटी	-13064
▁झुका	-13065
▁तसंच	-13066
▁फुफ्	-13067
▁ब्लॉ	-13068
▁साहि	-13069
▁स्वय	-13070
रोजगार	-13071
▁अतिथी	-13072
▁इकोनॉ	-13073
▁उखाड़	-13074
▁एलिया	-13075
▁कम्यु	-13076
▁खाड़ी	-13077
▁पायलट	-13078
▁रहबाम	-13079
▁लौटने	-13080
▁शहाणा	-13081
▁स्वार	-13082
▁कठिनाई	-13083
▁चंपारण	-13084
▁प्रचुर	-13085
▁बैठकें	-13086
▁सांगता	-13087
▁अयोध्या	-13088
▁बोलावून	-13089
▁एयरपोर्ट	-13090
▁कंप्यूटर	-13091
▁निर्जंतु	-13092
▁मंदिराची	-13093
▁होमार्पण	-13094
▁पर्वतारोह	-13095
▁स्पष्टीकरण	-13096
▁कन्याकुमारी	-13097
▁इस्राएलाच्या	-13098
▁महाराष्ट्रातील	-13099
▁मुख्यमंत्रियों	-13100
BT	-13101
PI	-13102
नॅ	-13103
ैग	-13104
-30	-13105
ंसह	-13106
ड्स	-13107
ळावे	-13108
ार्स	-13109
▁अवर	-13110
▁गरो	-13111
▁शार	-13112
▁सूख	-13113
▁हजर	-13114
तियां	-13115
वाड़ा	-13116
िशियल	-13117
▁अडीच	-13118
▁तेरह	-13119
▁बयान	-13120
▁रांग	-13121
▁सवार	-13122
▁सेने	-13123
,&#39;	-13124
मध्येच	-13125
▁खोकला	-13126
▁ट्राइ	-13127
▁डायरे	-13128
▁पार्व	-13129
▁पॅरिस	-13130
▁प्रोड	-13131
▁बदलून	-13132
▁राहता	-13133
▁अड्डों	-13134
▁अधिवेश	-13135
▁जनजाति	-13136
▁दोगुनी	-13137
▁दोस्ती	-13138
▁निष्ठा	-13139
▁पड़ेगा	-13140
▁पलीकडे	-13141
▁पोलियो	-13142
▁प्रिंस	-13143
▁आत्मसात	-13144
▁किफायती	-13145
▁नातेवाई	-13146
▁पुण्यति	-13147
▁सैनिटाइ	-13148
▁सोसायटी	-13149
▁कोशिकाओं	-13150
▁ग्लेशियर	-13151
▁डोकेदुखी	-13152
▁सांगितलं	-13153
▁सामुग्री	-13154
▁त्याचवेळी	-13155
▁बाजारपेठे	-13156
▁मंडळाच्या	-13157
▁सदस्यांनी	-13158
▁सहकार्याची	-13159
▁आरोग्यासाठी	-13160
▁दिवसांपूर्वी	-13161
▁परमेश्वराकडे	-13162
ut	-13163
एएस	-13164
ड़स	-13165
दाट	-13166
ल्म	-13167
▁गै	-13168
एँगे	-13169
टर्स	-13170
मंडल	-13171
मलेख	-13172
ांचल	-13173
▁अजय	-13174
▁एलि	-13175
▁बघत	-13176
▁विख	-13177
तांचे	-13178
▁खरीफ	-13179
▁गंगो	-13180
▁जताई	-13181
▁दलित	-13182
▁पाचन	-13183
▁भाडे	-13184
▁मंडा	-13185
▁साइट	-13186
▁सीएम	-13187
▁हॅके	-13188
आपल्या	-13189
ूपासून	-13190
▁अंगों	-13191
▁किराए	-13192
▁जंगला	-13193
▁ट्राय	-13194
▁बाटली	-13195
▁मनसुख	-13196
क्योंकि	-13197
▁आजारात	-13198
▁एवढ्या	-13199
▁केन्या	-13200
▁जनादेश	-13201
▁प्रतिर	-13202
▁सरकारे	-13203
▁सीपीएस	-13204
्यांमधील	-13205
▁कॉरिडॉर	-13206
▁क्विंटल	-13207
▁प्रशस्त	-13208
▁प्रसूती	-13209
▁भावनाओं	-13210
▁निर्माते	-13211
▁भारताकडे	-13212
▁स्थापत्य	-13213
▁दुर्भाग्य	-13214
▁परीक्षणों	-13215
▁वास्तुकला	-13216
▁आयुर्वेदिक	-13217
▁शोधकर्ताओं	-13218
▁देशवासियांना	-13219
▁राष्ट्रपतींच्या	-13220
AF	-13221
घो	-13222
डतो	-13223
वेद	-13224
शोथ	-13225
्मण	-13226
साची	-13227
ूंकि	-13228
▁2.0	-13229
▁भरत	-13230
▁मिर	-13231
▁राठ	-13232
प्रेर	-13233
सार्ह	-13234
▁अवधी	-13235
▁आर्थ	-13236
▁आवरण	-13237
▁चेहर	-13238
▁जुनी	-13239
▁यहुद	-13240
▁यूएस	-13241
▁हेतु	-13242
पद्धती	-13243
्याकडे	-13244
▁अंगूर	-13245
▁उत्पी	-13246
▁ऊंचाई	-13247
▁कारणे	-13248
▁कालेब	-13249
▁केलास	-13250
▁गरोदर	-13251
▁घनदाट	-13252
▁घातली	-13253
▁निशंक	-13254
▁भोजना	-13255
▁यूनिट	-13256
▁असणारी	-13257
▁आर्टिफ	-13258
▁ज्याची	-13259
▁तैनाती	-13260
▁कच्च्या	-13261
▁ठेवायला	-13262
▁नागरिका	-13263
▁विलक्षण	-13264
▁समाजाला	-13265
▁ह्यांचे	-13266
▁जवाहरलाल	-13267
▁पत्नियों	-13268
▁परिषदेची	-13269
▁उद्योजकता	-13270
▁भावनात्मक	-13271
▁सद्यस्थिती	-13272
▁कार्यालयाचे	-13273
▁घालण्यासाठी	-13274
▁विश्वासार्ह	-13275
टि	-13276
pur	-13277
नाई	-13278
हाई	-13279
िज़	-13280
▁86	-13281
▁वो	-13282
▁१७	-13283
क्रा	-13284
याजक	-13285
योजन	-13286
रहित	-13287
हिमा	-13288
▁एआई	-13289
▁डोर	-13290
▁रिब	-13291
कर्ते	-13292
जामिन	-13293
यांनी	-13294
हारिक	-13295
▁तांब	-13296
▁दादा	-13297
▁भवित	-13298
▁सोलर	-13299
ळ्याला	-13300
▁कहावत	-13301
▁कृत्य	-13302
▁चूंकि	-13303
▁जलसाठ	-13304
▁दादरा	-13305
▁पहाटे	-13306
▁पोहों	-13307
▁भक्ता	-13308
▁यायला	-13309
▁स्किल	-13310
▁हल्के	-13311
▁अरविंद	-13312
▁एकीकडे	-13313
▁खरीदने	-13314
▁छुट्टी	-13315
▁प्राची	-13316
▁फ्रेंच	-13317
▁भोवताल	-13318
▁मदतीची	-13319
▁सल्लाम	-13320
▁असल्यास	-13321
▁आकस्मिक	-13322
▁दुष्काळ	-13323
▁निपटारा	-13324
▁हृदयविक	-13325
▁औरंगाबाद	-13326
▁करणार्या	-13327
▁जोपर्यंत	-13328
▁मूल्यवान	-13329
▁यात्रेकर	-13330
▁शरीरातील	-13331
▁गिर्यारोह	-13332
▁परिकल्पना	-13333
▁पर्यटनाला	-13334
▁सहाय्याने	-13335
▁उपचारासाठी	-13336
▁गुजरातच्या	-13337
▁चुनौतीपूर्ण	-13338
▁तुमच्याबरोबर	-13339
▁उत्पादनांच्या	-13340
आम	-13341
२२	-13342
▁u	-13343
ंथन	-13344
बीन	-13345
▁आं	-13346
▁२४	-13347
अमेर	-13348
काही	-13349
गारी	-13350
पिंड	-13351
ब्री	-13352
शाने	-13353
स्फी	-13354
▁कड़	-13355
▁दृश	-13356
▁नूत	-13357
▁मेद	-13358
क्षणा	-13359
पोस्ट	-13360
भावना	-13361
वणारा	-13362
वर्धक	-13363
ृष्टी	-13364
▁आरबी	-13365
▁कतार	-13366
▁बिता	-13367
▁माला	-13368
▁वीजा	-13369
▁इतकेच	-13370
▁बदलते	-13371
▁स्कीम	-13372
ेंद्रिय	-13373
▁जमिनीत	-13374
▁नवनवीन	-13375
▁पब्लिक	-13376
▁प्रेमी	-13377
▁आकांक्ष	-13378
▁कॉरिडोर	-13379
▁गुजराती	-13380
▁गोव्यात	-13381
▁विभागीय	-13382
▁संसाधने	-13383
▁दिग्दर्श	-13384
▁प्रवासात	-13385
▁उपाहारगृह	-13386
▁कुटुंबाला	-13387
▁विशेषताएं	-13388
▁सदस्यांना	-13389
▁साधारणपणे	-13390
▁हिस्सेदारी	-13391
▁गुजरातमध्ये	-13392
NR	-13393
ंफ	-13394
प्य	-13395
बूत	-13396
लीज	-13397
पुरी	-13398
▁कूळ	-13399
▁चीफ	-13400
▁मने	-13401
▁मर्	-13402
▁वक्	-13403
-2020	-13404
ojana	-13405
ल्यात	-13406
िंग्स	-13407
ोडिया	-13408
ोरेंस	-13409
▁आरडी	-13410
▁कांप	-13411
▁फुले	-13412
▁रहित	-13413
▁लावा	-13414
▁वंदन	-13415
▁वार्	-13416
▁समजत	-13417
यासाठी	-13418
▁अटलजी	-13419
▁खातिर	-13420
▁टाकला	-13421
▁निचले	-13422
▁फेकून	-13423
▁बर्फ़	-13424
▁मनोहर	-13425
▁समझते	-13426
यांसाठी	-13427
▁उद्यमी	-13428
▁ग्रामो	-13429
▁ग्वाही	-13430
▁निकलता	-13431
▁पकड़ने	-13432
▁वाचवले	-13433
▁सम्राट	-13434
▁सर्किट	-13435
▁ह्यांचा	-13436
्यापर्यंत	-13437
▁गरिबांना	-13438
▁गर्विष्ठ	-13439
▁प्रतिरोध	-13440
▁समाधानों	-13441
▁केंद्राचे	-13442
▁बद्धकोष्ठ	-13443
▁महामारीचा	-13444
▁पूर्वजांनी	-13445
▁आर्टिफिशियल	-13446
▁तुमच्यापैकी	-13447
▁पेट्रोकेमिक	-13448
▁राष्ट्राच्या	-13449
▁पंतप्रधानांची	-13450
िकर	-13451
ुशी	-13452
▁कड	-13453
▁क़	-13454
कडेच	-13455
ेंटी	-13456
▁डैन	-13457
▁दमण	-13458
▁नीम	-13459
▁बिर	-13460
▁मुह	-13461
ियमित	-13462
ेमुळे	-13463
▁अपरि	-13464
▁कचरे	-13465
▁चौबी	-13466
▁डिझा	-13467
▁दलों	-13468
▁मोती	-13469
ण्याने	-13470
ोन्मुख	-13471
▁औषधीय	-13472
▁कॅनडा	-13473
▁छलांग	-13474
▁जाळून	-13475
▁दाखिल	-13476
▁पाडले	-13477
▁लगाते	-13478
▁लगाना	-13479
्यावरील	-13480
▁गतिशील	-13481
▁ज्ञानी	-13482
▁पुरावा	-13483
▁प्याला	-13484
▁स्कूली	-13485
▁ठेवल्या	-13486
▁डिज़ाइन	-13487
▁मुलांची	-13488
▁विरूद्ध	-13489
▁गंगोत्री	-13490
▁अडकलेल्या	-13491
▁आजाराच्या	-13492
▁फ्रेमवर्क	-13493
▁व्यासपीठा	-13494
▁समस्यांवर	-13495
▁पुरवण्यासाठी	-13496
,20	-13497
न्ध	-13498
ांट	-13499
▁02	-13500
दिवस	-13501
बीएम	-13502
मनगर	-13503
मापन	-13504
हाला	-13505
ापुर	-13506
▁आपो	-13507
▁उला	-13508
▁कोय	-13509
▁धरा	-13510
▁पचम	-13511
▁मिझ	-13512
▁वेढ	-13513
स्तंभ	-13514
स्राव	-13515
ासोबत	-13516
्याशी	-13517
▁2005	-13518
▁अंगण	-13519
▁आर्म	-13520
▁ऐवजी	-13521
▁क्यू	-13522
▁टॉवर	-13523
▁ताजा	-13524
▁नेतन	-13525
▁बनेल	-13526
▁विहि	-13527
▁आस्था	-13528
▁इलाके	-13529
▁गड्ढे	-13530
▁झेंडा	-13531
▁प्रकर	-13532
▁मारने	-13533
▁रुपात	-13534
▁शापित	-13535
▁संताप	-13536
णापासून	-13537
▁कराधान	-13538
▁नारियल	-13539
▁नावाचे	-13540
▁प्रतीत	-13541
▁महानता	-13542
▁राजाचे	-13543
▁रिझर्व	-13544
▁अनुक्रम	-13545
▁ट्रान्स	-13546
▁सबलीकरण	-13547
णाऱ्यांना	-13548
विषयीच्या	-13549
्यांबद्दल	-13550
▁एसोसिएशन	-13551
▁ट्रैकिंग	-13552
▁स्वचालित	-13553
्यांपर्यंत	-13554
▁कार्यशाळा	-13555
▁निष्क्रिय	-13556
▁वृत्तचित्र	-13557
▁एक्सप्रेसवे	-13558
▁तंत्रज्ञानाची	-13559
32	-13560
55	-13561
67	-13562
लॉ	-13563
तीस	-13564
बाय	-13565
▁अद	-13566
मणूक	-13567
स्से	-13568
▁चेन	-13569
▁मरे	-13570
▁मास	-13571
▁रेग	-13572
▁हळू	-13573
्यूशन	-13574
▁उठकर	-13575
▁गाथा	-13576
▁दिलच	-13577
▁पाईप	-13578
▁पातळ	-13579
▁बसले	-13580
▁बाँध	-13581
▁मुगल	-13582
▁मोटे	-13583
▁लपून	-13584
▁सीढ़	-13585
चिकित्	-13586
▁इंदौर	-13587
▁प्रगत	-13588
▁फ्रंट	-13589
▁बहिणी	-13590
▁संचयी	-13591
▁सहानु	-13592
▁साहिब	-13593
▁स्पेन	-13594
ंपर्यंत	-13595
्राच्या	-13596
▁आपदाओं	-13597
▁ग्यारह	-13598
▁जनगणना	-13599
▁जागेवर	-13600
▁ज्याचे	-13601
▁नौकरों	-13602
▁पीसीआर	-13603
▁फुटबॉल	-13604
▁मनरेगा	-13605
▁सेवाएँ	-13606
▁अनुशासन	-13607
▁महायाजक	-13608
▁स्तोत्र	-13609
▁स्रोतों	-13610
▁हॅकेथॉन	-13611
▁उद्दीष्ट	-13612
▁नेतन्याह	-13613
▁राज्यांत	-13614
▁साक्षरता	-13615
▁हिताच्या	-13616
▁शिष्टमंडळ	-13617
▁वास्तविकता	-13618
ac	-13619
ुम	-13620
आरओ	-13621
न्‍	-13622
बाज	-13623
मयी	-13624
टाइम	-13625
शाचे	-13626
ोग्य	-13627
▁IIT	-13628
▁ईएस	-13629
▁कोन	-13630
▁खार	-13631
▁पथक	-13632
▁सज्	-13633
▁सुक	-13634
यांचा	-13635
ामुळे	-13636
▁कमाल	-13637
▁नारी	-13638
▁बागे	-13639
▁रिफा	-13640
▁संशय	-13641
▁जोड़े	-13642
▁पाडाव	-13643
प्रशांत	-13644
्यांकडे	-13645
▁कुल्लू	-13646
▁मालवाह	-13647
▁लक्षित	-13648
▁लसीकरण	-13649
▁विजेता	-13650
▁अपडेट्स	-13651
▁आंकड़ों	-13652
▁तीर्थया	-13653
▁पलिष्टी	-13654
▁पश्चिमे	-13655
▁आकाशवाणी	-13656
▁फायदेमंद	-13657
▁मेमोरियल	-13658
▁आघाडीच्या	-13659
▁संसदेच्या	-13660
34	-13661
ंडे	-13662
एसी	-13663
ज़न	-13664
डले	-13665
नाइ	-13666
फिस	-13667
राक	-13668
लीफ	-13669
▁पठ	-13670
▁फड	-13671
डतोब	-13672
स्तव	-13673
▁PRA	-13674
▁बूँ	-13675
रूध्द	-13676
वाड़ी	-13677
वितात	-13678
स्पॉट	-13679
▁2009	-13680
▁अवघड	-13681
▁केयर	-13682
▁चढाई	-13683
▁ठोकर	-13684
00,000	-13685
डीच्या	-13686
ासारखा	-13687
▁आढळून	-13688
▁आपोआप	-13689
▁उपकार	-13690
▁कट्टर	-13691
▁किमती	-13692
▁कुठली	-13693
▁खिडकी	-13694
▁जगहों	-13695
▁नमूना	-13696
▁पेरणी	-13697
▁बनाती	-13698
▁मरारी	-13699
▁विपुल	-13700
ंद्वारे	-13701
न्क्लेव	-13702
▁अस्थिर	-13703
▁कामाची	-13704
▁किनारी	-13705
▁पश्चात	-13706
▁खोऱ्यात	-13707
▁ग्रीष्म	-13708
▁प्रशासक	-13709
▁वर्धापन	-13710
▁इन्वेस्ट	-13711
▁पूर्वानु	-13712
▁शक्तिमान	-13713
▁दाखवण्यात	-13714
▁माझ्याजवळ	-13715
▁हेल्थकेयर	-13716
▁गर्भनिरोधक	-13717
▁प्रस्तावों	-13718
▁उपस्थितांना	-13719
▁नबूकदनेस्सर	-13720
▁भविष्यद्वक्ता	-13721
▁अर्थमंत्र्यांनी	-13722
).	-13723
PA	-13724
आस	-13725
ंगळ	-13726
एसई	-13727
नवे	-13728
निश	-13729
बेस	-13730
शाल	-13731
सेट	-13732
▁61	-13733
▁NC	-13734
दिनी	-13735
नेने	-13736
पट्ट	-13737
रिशस	-13738
सीयू	-13739
▁अती	-13740
▁ओपन	-13741
▁कस्	-13742
▁बुध	-13743
▁सटी	-13744
ग्रेड	-13745
वायचा	-13746
▁असोत	-13747
▁एक्ट	-13748
▁गुहा	-13749
▁जळजळ	-13750
▁तटों	-13751
▁तिकी	-13752
▁दावे	-13753
▁पतरस	-13754
▁भुके	-13755
▁रथों	-13756
भारतीय	-13757
ऱ्याचा	-13758
▁अविभा	-13759
▁ऑर्डर	-13760
▁घुड़स	-13761
▁जोडली	-13762
▁जोडून	-13763
▁तूफान	-13764
▁रूपये	-13765
▁विध्व	-13766
▁शुष्क	-13767
▁अद्यतन	-13768
▁अनुभवी	-13769
▁अन्यथा	-13770
▁इकट्ठे	-13771
▁करवाया	-13772
▁करावेत	-13773
▁गुस्सा	-13774
▁दिवसभर	-13775
▁होम्यो	-13776
विण्याचा	-13777
▁अग्रवाल	-13778
▁बाबेलचा	-13779
ल्यापासून	-13780
▁नात्याने	-13781
▁प्रभुत्व	-13782
▁प्राप्ति	-13783
▁युरोपियन	-13784
▁सन्मानित	-13785
▁एखाद्याने	-13786
▁पसरलेल्या	-13787
▁मूर्तियाँ	-13788
▁सॉफ्टवेयर	-13789
▁प्रभावशाली	-13790
▁स्वर्गातील	-13791
▁सुरक्षेसाठी	-13792
▁करण्याबरोबरच	-13793
नरी	-13794
यें	-13795
राह	-13796
लेज	-13797
विद	-13798
सित	-13799
▁ओस	-13800
CCEA	-13801
कुंड	-13802
र्की	-13803
र्थी	-13804
लोरी	-13805
शेखर	-13806
ॉर्क	-13807
▁350	-13808
▁अब्	-13809
▁इंफ	-13810
▁कसर	-13811
▁कीं	-13812
▁खजु	-13813
▁चौर	-13814
▁नास	-13815
▁नॉन	-13816
▁फसह	-13817
▁रक्	-13818
▁लिप	-13819
वीकडे	-13820
▁अखेर	-13821
▁अनाथ	-13822
▁इंजन	-13823
▁ऑडिट	-13824
▁कोसळ	-13825
▁क्षय	-13826
▁गायक	-13827
▁घड़ी	-13828
▁जमले	-13829
▁जमात	-13830
▁टेकड	-13831
▁बकरी	-13832
▁संगी	-13833
▁इस्सा	-13834
▁उठाना	-13835
▁एनिमा	-13836
▁धबधबा	-13837
▁पट्टी	-13838
▁प्रदी	-13839
▁यरीहो	-13840
▁योगाभ	-13841
▁अंतरिम	-13842
▁अप्रति	-13843
▁एजन्सी	-13844
▁खाएंगे	-13845
▁ग्रंथी	-13846
▁तत्वों	-13847
▁पुढारी	-13848
▁बरोबरच	-13849
▁संयोजन	-13850
▁ताबडतोब	-13851
▁मिश्रित	-13852
▁समावेशक	-13853
▁सिक्कीम	-13854
▁स्त्रोत	-13855
▁उत्पादित	-13856
▁राज्यपाला	-13857
▁संबंधांना	-13858
▁नागरिकांनी	-13859
▁समुद्राच्या	-13860
▁अधिकाऱ्यांच्या	-13861
42	-13862
पत्	-13863
पदा	-13864
ियत	-13865
▁छळ	-13866
जोरी	-13867
▁अटी	-13868
▁औरत	-13869
▁खाओ	-13870
▁गुज	-13871
▁घडत	-13872
▁ढँक	-13873
▁पीस	-13874
▁बैच	-13875
पत्रा	-13876
यच्या	-13877
र्लंड	-13878
वलिंग	-13879
ांतिक	-13880
ॉलॉजी	-13881
▁अशीच	-13882
▁आयआय	-13883
▁केबल	-13884
▁ड्रा	-13885
▁धावत	-13886
▁बनली	-13887
▁यरदन	-13888
▁हमसे	-13889
▁India	-13890
▁ओळखून	-13891
▁कातडी	-13892
▁तांदू	-13893
▁दिसला	-13894
▁विकृत	-13895
▁शौलने	-13896
▁समस्त	-13897
▁20,000	-13898
▁तपस्या	-13899
▁पुकारा	-13900
▁मॉरिशस	-13901
▁व्हिसा	-13902
प्रमाणात	-13903
▁अहवालात	-13904
▁कारागीर	-13905
▁जगासाठी	-13906
▁यहोयादा	-13907
▁युद्धात	-13908
▁समन्वित	-13909
▁सांत्वन	-13910
▁सुनेंगे	-13911
▁सौहार्द	-13912
▁स्कीइंग	-13913
▁कागदपत्र	-13914
▁पंचायतों	-13915
▁पुनर्वसन	-13916
▁प्रख्यात	-13917
▁सिद्कीया	-13918
▁अधिकारिता	-13919
▁देशव्यापी	-13920
▁सुविधांची	-13921
▁स्वैच्छिक	-13922
▁चिकित्सकों	-13923
▁दहशतवादाचा	-13924
▁व्यावहारिक	-13925
▁सरोवराच्या	-13926
▁छात्रवृत्ति	-13927
▁कार्यक्रमाचा	-13928
84	-13929
ech	-13930
तां	-13931
तोष	-13932
नीस	-13933
शाप	-13934
▁एप	-13935
ंबीर	-13936
करता	-13937
थावर	-13938
पाचे	-13939
मीरी	-13940
▁ओली	-13941
▁चाब	-13942
▁हेश	-13943
ियर्स	-13944
▁असीम	-13945
▁जश्न	-13946
▁प्रत	-13947
▁बंगळ	-13948
▁वरुन	-13949
▁शंका	-13950
सिस्टम	-13951
▁उलाढा	-13952
▁नोकरी	-13953
▁रुंदी	-13954
▁शिस्त	-13955
▁सुनता	-13956
▁स्टार	-13957
▁अनुकरण	-13958
▁केव्हा	-13959
▁ठेवावा	-13960
▁निगडीत	-13961
▁न्यायम	-13962
▁राज्या	-13963
▁ऑप्टिकल	-13964
▁नाकारले	-13965
▁परीक्षे	-13966
▁बनाऊंगा	-13967
▁मॉड्यूल	-13968
▁रागावला	-13969
▁शिखरावर	-13970
▁एक्सचेंज	-13971
▁तुझ्याशी	-13972
▁पक्षांनी	-13973
▁संबंधिता	-13974
▁प्रवृत्ति	-13975
▁सैनिकांना	-13976
▁पूर्वीच्या	-13977
▁वस्तूंच्या	-13978
▁विशाखापट्ट	-13979
▁स्वयंपूर्ण	-13980
▁व्यक्तींच्या	-13981
▁संकेतस्थळावर	-13982
▁दौऱ्यादरम्यान	-13983
▁भविष्यद्वक्ताओं	-13984
65	-13985
▁h	-13986
यकल	-13987
रेब	-13988
मानु	-13989
ष्णा	-13990
हाउस	-13991
▁टिड	-13992
▁तुट	-13993
▁माध	-13994
ासमोर	-13995
▁अप्स	-13996
▁कटाई	-13997
▁चौदह	-13998
▁बनना	-13999
▁बैंड	-14000
▁मिठा	-14001
▁मिनी	-14002
▁वाटू	-14003
▁काढली	-14004
▁गोदाम	-14005
▁घुटने	-14006
▁जेम्स	-14007
▁पशुओं	-14008
▁पांडे	-14009
▁राखणे	-14010
▁वार्ड	-14011
▁विजयी	-14012
▁तस्वीर	-14013
▁निभाने	-14014
▁निवडून	-14015
▁भरलेले	-14016
▁भागाला	-14017
▁सामाईक	-14018
▁अनियमित	-14019
▁आणण्यात	-14020
▁दुष्परि	-14021
▁देखरेखी	-14022
▁द्वीपों	-14023
ण्यामध्ये	-14024
▁माहितीचे	-14025
▁वधस्तंभा	-14026
▁कम्युनिटी	-14027
▁निर्दिष्ट	-14028
▁मिळणाऱ्या	-14029
▁यांच्यावर	-14030
▁कशाप्रकारे	-14031
▁क्षेत्राचे	-14032
▁जरूरतमंदों	-14033
▁विश्वासाने	-14034
▁तेव्हापासून	-14035
▁प्रेरणादायी	-14036
▁भारतीयांच्या	-14037
▁व्यवस्थापनासाठी	-14038
अस	-14039
्द	-14040
डेड	-14041
य्य	-14042
वळी	-14043
वेज	-14044
▁ख़	-14045
▁२१	-14046
ष्ठी	-14047
सेवे	-14048
▁आतड	-14049
▁खुर	-14050
▁जिम	-14051
▁देह	-14052
▁नाच	-14053
▁मोल	-14054
▁शूट	-14055
▁ईमेल	-14056
▁ओबेद	-14057
▁चंगा	-14058
▁नाटक	-14059
▁बेहो	-14060
▁मानो	-14061
▁यहोआ	-14062
▁लीटर	-14063
▁लोकं	-14064
▁वचना	-14065
ल्शियम	-14066
▁काहीं	-14067
▁थर्मल	-14068
▁शुक्र	-14069
▁संदेह	-14070
▁साधून	-14071
▁सुनाई	-14072
▁हटाने	-14073
▁तांदूळ	-14074
▁पापबलि	-14075
▁बजावली	-14076
▁यहोराम	-14077
▁हित्ती	-14078
▁ज्यांची	-14079
▁डाउनलोड	-14080
▁तेलंगणा	-14081
▁म्हणावे	-14082
▁विपत्ति	-14083
▁सर्वांत	-14084
▁जाण्याचा	-14085
▁नागालैंड	-14086
▁राजेंद्र	-14087
▁विश्वासू	-14088
▁ह्यासाठी	-14089
▁त्यापासून	-14090
▁सरकारांनी	-14091
▁अल्पसंख्या	-14092
▁दार्जिलिंग	-14093
▁निवासस्थान	-14094
▁वर्षांसाठी	-14095
▁गुंतवणुकीला	-14096
▁प्रयत्नांचा	-14097
▁स्वर्गदूतों	-14098
▁तुमच्यामध्ये	-14099
▁प्रकल्पामुळे	-14100
-0	-14101
लॉक	-14102
ैंक	-14103
▁एर	-14104
▁कं	-14105
▁झट	-14106
कुवत	-14107
चीही	-14108
दराज	-14109
ौषधी	-14110
▁ओझे	-14111
▁चलो	-14112
▁तर्	-14113
▁तुड	-14114
▁धडा	-14115
▁पेत	-14116
▁रोट	-14117
▁सीए	-14118
रेस्ट	-14119
ित्ता	-14120
ोपचार	-14121
▁काटे	-14122
▁खरीप	-14123
▁चैंप	-14124
▁चैतन	-14125
▁ट्रॉ	-14126
▁नजदी	-14127
▁रिक्	-14128
▁वयात	-14129
▁होईन	-14130
▁एग्री	-14131
▁कब्जे	-14132
▁किसने	-14133
▁चौकशी	-14134
▁जहाजा	-14135
▁तिथून	-14136
▁दुपार	-14137
▁बैठकर	-14138
▁राखून	-14139
▁वर्गी	-14140
▁वृध्द	-14141
▁सुलभी	-14142
▁हरदीप	-14143
▁इंदिरा	-14144
▁कमकुवत	-14145
▁कोरोनो	-14146
▁गिलगाल	-14147
▁घेताना	-14148
▁तासांत	-14149
▁नसबंदी	-14150
▁बनलेले	-14151
▁रोगिणी	-14152
▁वाढवली	-14153
▁सार्थक	-14154
▁आरक्षित	-14155
▁उड़ानें	-14156
▁खबरदारी	-14157
▁चिड़िया	-14158
▁दूतावास	-14159
▁बनाएंगे	-14160
▁मुकाबले	-14161
▁स्पेक्ट	-14162
▁नामांकित	-14163
▁फायदेशीर	-14164
▁मंगोलिया	-14165
▁म्यूजियम	-14166
▁सॅनिटायझ	-14167
▁कुटुंबिया	-14168
▁मार्गदर्श	-14169
▁उत्पादनांची	-14170
▁ग्रामोद्योग	-14171
▁टाळण्यासाठी	-14172
▁त्यांच्याकडून	-14173
▁दृष्टीकोनातून	-14174
AD	-14175
ईं	-14176
”.	-14177
बाध	-14178
ुआर	-14179
ोला	-14180
▁71	-14181
▁Go	-14182
▁छः	-14183
न्दर	-14184
बीपी	-14185
मतीत	-14186
ूंची	-14187
▁कौर	-14188
▁जीप	-14189
▁जीस	-14190
▁जूट	-14191
▁तीर	-14192
▁बही	-14193
▁मून	-14194
▁वहन	-14195
▁व्र	-14196
कल्या	-14197
गतीने	-14198
द्दीन	-14199
शुतोष	-14200
▁कारभ	-14201
▁कोमल	-14202
▁गोली	-14203
▁जीता	-14204
▁ब्री	-14205
▁मनमो	-14206
▁मनोज	-14207
▁वचने	-14208
▁वाढू	-14209
▁हिरा	-14210
ासारखे	-14211
्यांसह	-14212
▁कब्जा	-14213
▁चेतना	-14214
▁दोहरे	-14215
▁नमूने	-14216
▁मनाली	-14217
▁विज्ञ	-14218
▁आनंदित	-14219
▁फुफ्फु	-14220
▁ब्रॉडब	-14221
▁मेंढरे	-14222
▁योनातन	-14223
▁रहूंगा	-14224
▁कितीतरी	-14225
▁देशबांध	-14226
▁पाचव्या	-14227
▁बदलत्या	-14228
▁स्वतःचे	-14229
▁कलाकारों	-14230
▁धर्मशाला	-14231
▁प्रक्षेप	-14232
▁मेजबानों	-14233
▁योजनांची	-14234
▁वास्तव्य	-14235
▁असुरक्षित	-14236
▁आल्यानंतर	-14237
▁एखाद्याला	-14238
▁वचनबद्धता	-14239
▁तुझ्यासाठी	-14240
▁सार्वत्रिक	-14241
▁दिल्याबद्दल	-14242
▁प्रादुर्भाव	-14243
▁मंत्रालयाची	-14244
▁पुनर्निर्माण	-14245
▁अर्थव्यवस्थेत	-14246
▁गुंतवणुकीच्या	-14247
41	-14248
ऊंड	-14249
एआय	-14250
टित	-14251
▁ऊठ	-14252
▁गह	-14253
तिया	-14254
रानी	-14255
साइड	-14256
▁यकृ	-14257
▁साग	-14258
भगवान	-14259
यांचे	-14260
ानाला	-14261
▁अकरा	-14262
▁अष्ट	-14263
▁उडान	-14264
▁गादी	-14265
▁गावी	-14266
▁टीके	-14267
▁ध्वज	-14268
▁पैकी	-14269
▁फैली	-14270
▁बताओ	-14271
▁बाईं	-14272
▁महार	-14273
▁शकलो	-14274
▁समीप	-14275
ध्यापक	-14276
नात्मक	-14277
▁अवसाद	-14278
▁जितने	-14279
▁दयाळू	-14280
▁नाराज	-14281
▁प्रेष	-14282
▁फोर्ट	-14283
▁भोवती	-14284
▁मारता	-14285
▁हार्ट	-14286
नापासून	-14287
▁अनेकदा	-14288
▁अभिन्न	-14289
▁अर्जुन	-14290
▁आदित्य	-14291
▁उकसाया	-14292
▁कमजोरी	-14293
▁काळाची	-14294
▁कुणीही	-14295
▁डिफेंस	-14296
▁डीबीटी	-14297
▁दिशेला	-14298
▁हालिया	-14299
▁अश्विनी	-14300
▁जाण्यास	-14301
▁पोहोचला	-14302
▁बातम्या	-14303
▁बेहतरीन	-14304
▁समर्थित	-14305
▁अगरबत्ती	-14306
▁कॉरपोरेट	-14307
▁नगराच्या	-14308
▁परिषदेने	-14309
▁पाहिल्या	-14310
▁बेंजामिन	-14311
▁शत्रूंना	-14312
▁पर्वताच्या	-14313
▁संसर्गजन्य	-14314
▁आपल्याबरोबर	-14315
▁संरक्षणासाठी	-14316
36	-14317
87	-14318
.07	-14319
nic	-14320
खात	-14321
जिए	-14322
संग	-14323
िजन	-14324
▁ढी	-14325
जैसे	-14326
बॉडी	-14327
मवेत	-14328
▁115	-14329
▁550	-14330
▁छोट	-14331
▁योह	-14332
पुष्ट	-14333
यॉर्क	-14334
▁1200	-14335
▁अंडर	-14336
▁अज्ञ	-14337
▁अनार	-14338
▁अहमद	-14339
▁उदया	-14340
▁कृपे	-14341
▁खावे	-14342
▁वर्क	-14343
▁वागा	-14344
▁शेता	-14345
टीच्या	-14346
▁अपलोड	-14347
▁उठाते	-14348
▁किस्त	-14349
▁जन्मा	-14350
▁पडणार	-14351
▁प्याज	-14352
▁बनावट	-14353
▁बुलेट	-14354
▁बैठने	-14355
▁रूपों	-14356
▁संमेल	-14357
▁हिंसक	-14358
▁अयोग्य	-14359
▁इंग्रज	-14360
▁चैनलों	-14361
▁पिछड़े	-14362
▁प्रताप	-14363
▁मांडले	-14364
▁सोन्या	-14365
▁कामकाजा	-14366
▁नगरातील	-14367
▁संग्रहण	-14368
▁संस्कृत	-14369
▁ट्रेकिंग	-14370
▁नियमावली	-14371
▁मंडाविया	-14372
▁मोबिलिटी	-14373
▁रंगाच्या	-14374
▁बाहेरच्या	-14375
▁प्रदेशच्या	-14376
▁बाजारपेठेत	-14377
▁निर्णयामुळे	-14378
▁कार्यप्रणाली	-14379
▁केंद्रस्थानी	-14380
-9	-14381
गाळ	-14382
त्न	-14383
दाई	-14384
होर	-14385
▁My	-14386
▁गत	-14387
▁गद	-14388
बेटी	-14389
लेखा	-14390
ांति	-14391
▁गोद	-14392
▁तरच	-14393
▁रेक	-14394
ंबाबत	-14395
सीएआर	-14396
▁ऐकतो	-14397
▁कॉर्	-14398
▁गुणा	-14399
▁जनधन	-14400
▁ट्रक	-14401
▁डाली	-14402
▁फुला	-14403
▁भाले	-14404
▁रोका	-14405
▁वक्फ	-14406
संस्था	-14407
▁अजमेर	-14408
▁आखिरी	-14409
▁इच्छि	-14410
▁सिध्द	-14411
▁हसीना	-14412
.4.2020	-14413
विद्युत	-14414
▁अंमलात	-14415
▁अकाउंट	-14416
▁देवावर	-14417
▁पहुँचे	-14418
▁बढ़ाते	-14419
▁लाभांश	-14420
▁अनुयायी	-14421
▁दर्जाचे	-14422
▁मिद्यान	-14423
▁रवींद्र	-14424
▁रहिवासी	-14425
▁शिवलिंग	-14426
▁तुरुंगात	-14427
▁माध्यमिक	-14428
▁वर्गीकरण	-14429
▁हस्ताक्ष	-14430
▁कटिबद्धता	-14431
▁पातळीवरील	-14432
▁पुरवण्यात	-14433
▁लावल्याने	-14434
▁चित्रपटाचे	-14435
▁आरोग्यविषयक	-14436
ातच	-14437
ापे	-14438
▁कद	-14439
▁थि	-14440
जीएस	-14441
ड़की	-14442
न्शन	-14443
बीएस	-14444
भूती	-14445
लीचे	-14446
▁GeM	-14447
▁अटक	-14448
▁अॅप	-14449
▁एग्	-14450
▁गोप	-14451
▁नशी	-14452
▁बसे	-14453
▁समृ	-14454
भिमुख	-14455
वालों	-14456
ुत्तर	-14457
▁काळे	-14458
▁केवी	-14459
▁ग्रं	-14460
▁जड़ी	-14461
▁धावा	-14462
▁निगल	-14463
▁प्रव	-14464
▁बहीण	-14465
▁मनोव	-14466
▁वाळू	-14467
▁शकला	-14468
▁अर्थस	-14469
▁असमान	-14470
▁एकंदर	-14471
▁निदेश	-14472
▁प्रमो	-14473
▁फीसदी	-14474
▁फैक्ट	-14475
▁बगीचे	-14476
▁बांधा	-14477
▁बाजूस	-14478
▁बोलाव	-14479
▁मरणार	-14480
▁विधाय	-14481
▁संगमर	-14482
▁सेलाह	-14483
▁हल्का	-14484
▁होतास	-14485
▁खेळाडू	-14486
▁तंबाखू	-14487
▁द्रव्य	-14488
▁रखूंगा	-14489
▁इंग्रजी	-14490
▁कुळातील	-14491
▁सीरियाई	-14492
▁अस्वीकार	-14493
▁देवाकडून	-14494
▁पुनर्गठन	-14495
▁बनवण्यात	-14496
▁क्रमवारीत	-14497
▁नेतन्याहू	-14498
▁मूल्यमापन	-14499
▁सल्लामसलत	-14500
▁स्त्रियों	-14501
▁सामान्यपणे	-14502
▁अल्पसंख्याक	-14503
▁समुदायाच्या	-14504
▁प्रवेशद्वारा	-14505
PT	-14506
ig	-14507
ik	-14508
ul	-14509
शक	-14510
ओपी	-14511
कमी	-14512
कोर	-14513
िएत	-14514
▁आळ	-14515
पाची	-14516
ल्लम	-14517
विजन	-14518
वेली	-14519
ांडू	-14520
▁ऑर्	-14521
▁कुर	-14522
▁कैम	-14523
▁चित	-14524
▁तंद	-14525
▁भेड	-14526
▁लग्	-14527
मिश्क	-14528
ऱ्‍या	-14529
ानिया	-14530
▁अँटी	-14531
▁गप्प	-14532
▁जाईन	-14533
▁पेपर	-14534
▁फाइन	-14535
▁फिली	-14536
▁बदलत	-14537
▁चाहती	-14538
▁जर्मन	-14539
▁टाकीन	-14540
▁मौतें	-14541
▁वाद्य	-14542
▁स्टोन	-14543
व्यवसाय	-14544
▁आक्रमण	-14545
▁केनिया	-14546
▁कॉमर्स	-14547
▁घरातून	-14548
▁टाकावे	-14549
▁दफनाया	-14550
▁दूरस्थ	-14551
▁पर्यवे	-14552
▁सत्रात	-14553
▁औषधांचा	-14554
▁दीनदयाळ	-14555
▁ह्यांची	-14556
ण्याविषयी	-14557
▁खूबसूरती	-14558
▁द्राक्षे	-14559
▁याकोबाने	-14560
▁याजकांनी	-14561
▁सेंद्रिय	-14562
▁चर्चासत्र	-14563
▁जीवनाच्या	-14564
▁दूरदृष्टी	-14565
▁निर्मितीत	-14566
▁अभिव्यक्ति	-14567
▁स्पेक्ट्रम	-14568
▁कॉम्प्लेक्स	-14569
▁पूर्वानुमान	-14570
ुस	-14571
end	-14572
लोत	-14573
▁82	-14574
▁गम	-14575
एनसी	-14576
धिका	-14577
न्ने	-14578
पंचा	-14579
▁III	-14580
▁कपड	-14581
▁दही	-14582
▁धाव	-14583
▁बुड	-14584
▁रजि	-14585
▁रेत	-14586
▁शॉप	-14587
▁स्फ	-14588
.2018	-14589
न्सिल	-14590
योजना	-14591
▁कराई	-14592
▁गाणे	-14593
▁ताजी	-14594
▁त्यौ	-14595
▁मादक	-14596
▁योना	-14597
▁योनि	-14598
▁राशन	-14599
▁लाते	-14600
▁साबर	-14601
▁अरामी	-14602
▁चालून	-14603
▁नामित	-14604
▁भट्टी	-14605
▁लगाकर	-14606
▁वाचवू	-14607
▁वाढती	-14608
▁शहाणे	-14609
▁संतान	-14610
▁संसार	-14611
कामध्ये	-14612
▁अंत्यो	-14613
▁अतिचार	-14614
▁करारात	-14615
▁टॅक्सी	-14616
▁ताज्या	-14617
▁नीलामी	-14618
▁प्रेरक	-14619
▁रिफाइन	-14620
▁वर्णित	-14621
▁हेशबोन	-14622
्यांमुळे	-14623
▁उड़ानों	-14624
▁गंभीरता	-14625
▁छुड़ाया	-14626
▁तात्काळ	-14627
▁देशांची	-14628
▁निर्बाध	-14629
▁माइक्रो	-14630
▁वर्षाचा	-14631
▁शरीराचे	-14632
▁सीपीएसई	-14633
▁स्वाधीन	-14634
▁एनटीपीसी	-14635
▁कहानियों	-14636
▁जलदगतीने	-14637
▁तिच्यावर	-14638
▁कॉन्क्लेव	-14639
▁शिष्यांना	-14640
▁गतिविधियाँ	-14641
▁ग्राहकांना	-14642
▁निर्मितीला	-14643
▁अभियानाच्या	-14644
▁इस्त्राएलियों	-14645
68	-14646
डल	-14647
ुव	-14648
ंजर	-14649
गेट	-14650
भोग	-14651
सीन	-14652
स्ड	-14653
ोली	-14654
▁87	-14655
▁97	-14656
▁बख	-14657
डीटी	-14658
धाने	-14659
बाने	-14660
यांश	-14661
स्रो	-14662
ाराम	-14663
▁अमे	-14664
▁बचे	-14665
▁विघ	-14666
▁शखे	-14667
दुर्ग	-14668
संवाद	-14669
िनेंट	-14670
▁करेन	-14671
▁कारक	-14672
▁गटात	-14673
▁झंडी	-14674
▁दगडा	-14675
▁पीला	-14676
▁प्रण	-14677
▁लड़ा	-14678
▁लष्क	-14679
ध्येला	-14680
▁तुच्छ	-14681
▁पॉइंट	-14682
▁बंधूं	-14683
▁बर्या	-14684
▁मानवा	-14685
▁मीनार	-14686
▁लघुपट	-14687
▁विनोद	-14688
▁इंडियस	-14689
▁गोळ्या	-14690
▁जाणारा	-14691
▁दमिश्क	-14692
▁न्यायी	-14693
▁फिटनेस	-14694
▁रेटिंग	-14695
▁साधनों	-14696
▁गुरुदेव	-14697
▁पट्टिका	-14698
▁प्राधान	-14699
▁भावनेने	-14700
▁समकालीन	-14701
▁अविभाज्य	-14702
▁वस्तूंची	-14703
▁गुन्हेगार	-14704
▁बंगालच्या	-14705
▁सैलानियों	-14706
▁परवडणाऱ्या	-14707
▁येण्यासाठी	-14708
▁कोरोनोवायरस	-14709
▁डेव्हलपमेंट	-14710
▁आत्मनिर्भरता	-14711
48	-14712
FW	-14713
TC	-14714
फू	-14715
जिद	-14716
पोल	-14717
▁4.	-14718
▁शू	-14719
तीचा	-14720
पाती	-14721
शाळा	-14722
ुलिन	-14723
▁110	-14724
▁कसम	-14725
▁केश	-14726
▁जोश	-14727
▁टाय	-14728
▁नती	-14729
▁युव	-14730
▁लिं	-14731
नमेंट	-14732
पणाचे	-14733
वासीर	-14734
▁असती	-14735
▁खाल्	-14736
▁गवता	-14737
▁घेईन	-14738
▁चौकी	-14739
▁जलसं	-14740
▁तारे	-14741
▁द्रव	-14742
▁रोना	-14743
▁शोषण	-14744
▁सभेत	-14745
ंकरिंग	-14746
वामुळे	-14747
▁आभूषण	-14748
▁किसके	-14749
▁खतरों	-14750
▁ठेवता	-14751
▁तकलीफ	-14752
▁त्रिश	-14753
▁पर्दे	-14754
▁युगात	-14755
▁लाभले	-14756
▁अहिंसा	-14757
▁गेलेले	-14758
▁चमकदार	-14759
▁दाखवली	-14760
▁दिलाता	-14761
▁रक्तात	-14762
▁सांभाळ	-14763
▁स्नायू	-14764
▁आनंदाची	-14765
▁आवृत्ती	-14766
▁कलात्मक	-14767
▁गव्हर्न	-14768
▁पडताळणी	-14769
▁शरीरावर	-14770
▁शिफारसी	-14771
▁सणाच्या	-14772
▁समझौतों	-14773
▁हस्तकला	-14774
▁डॉक्टर्स	-14775
▁फिलिस्ती	-14776
▁बिमस्टेक	-14777
▁सांगितला	-14778
▁प्रेमियों	-14779
▁मिस्रियों	-14780
▁मैनेजमेंट	-14781
▁लांबीच्या	-14782
▁स्वीकारले	-14783
▁देशवासियां	-14784
▁प्रवासियों	-14785
▁आंध्रप्रदेश	-14786
▁सेवानिवृत्त	-14787
▁हस्ताक्षरित	-14788
▁रुपयांपेक्षा	-14789
तच	-14790
▁a	-14791
ज़ी	-14792
बीज	-14793
शार	-14794
सिम	-14795
िएट	-14796
्मा	-14797
▁81	-14798
▁NH	-14799
ंदना	-14800
▁किड	-14801
▁पडा	-14802
▁पोर	-14803
नॅशनल	-14804
संपदा	-14805
▁एंटर	-14806
▁गरजू	-14807
▁चंदन	-14808
▁दाने	-14809
▁पायर	-14810
▁ब्लड	-14811
▁मंदी	-14812
▁लखनौ	-14813
▁लेखन	-14814
▁साला	-14815
▁हलके	-14816
▁अबनेर	-14817
▁केसेस	-14818
▁चित्त	-14819
▁फील्ड	-14820
▁बताएं	-14821
▁सत्ते	-14822
▁स्नाय	-14823
विरूध्द	-14824
▁अमालेक	-14825
▁आयोजना	-14826
▁निकाली	-14827
▁परिचार	-14828
▁पाहुणे	-14829
▁पुरेशा	-14830
▁बढ़ेगा	-14831
▁बनाएगा	-14832
▁युध्दा	-14833
▁शाखाओं	-14834
▁हेतूने	-14835
▁उपन्यास	-14836
▁प्रजाती	-14837
▁माणसाचा	-14838
▁कंबोडिया	-14839
▁चार्टर्ड	-14840
▁बनलेल्या	-14841
▁भरलेल्या	-14842
▁वंशजांना	-14843
▁सेवेच्या	-14844
▁लक्षद्वीप	-14845
▁साम्राज्य	-14846
▁स्पोर्ट्स	-14847
▁दिल्लीच्या	-14848
▁करण्याकरिता	-14849
▁प्रवेशद्वार	-14850
▁यांच्यासाठी	-14851
▁संग्रहालयात	-14852
▁प्रकल्पासाठी	-14853
▁विद्यापीठाच्या	-14854
EP	-14855
इए	-14856
औष	-14857
.10	-14858
खाल	-14859
ढाओ	-14860
बोध	-14861
▁04	-14862
▁फ्	-14863
पाटी	-14864
प्ला	-14865
मेरा	-14866
ॉल्व	-14867
ोदरा	-14868
▁उरी	-14869
▁एलो	-14870
▁कसो	-14871
▁जगू	-14872
▁ज़र	-14873
▁डूब	-14874
▁पेल	-14875
▁रॉक	-14876
▁लोभ	-14877
▁सती	-14878
इजेशन	-14879
▁आणतो	-14880
▁उड़ा	-14881
▁ऐकला	-14882
▁ओमान	-14883
▁कमाई	-14884
▁झरने	-14885
▁तरूण	-14886
▁नाइट	-14887
▁लबान	-14888
▁संघा	-14889
▁सगाई	-14890
▁स्वर	-14891
ड़ियाँ	-14892
वासमोर	-14893
▁करूया	-14894
▁घडणार	-14895
▁डालने	-14896
▁तिथेच	-14897
▁निभाव	-14898
▁पाहणे	-14899
▁प्लॅट	-14900
▁यमुना	-14901
▁वाचले	-14902
▁सेनान	-14903
▁हेलिक	-14904
निर्मित	-14905
निहारना	-14906
स्वार्थ	-14907
▁Yojana	-14908
▁गोल्डन	-14909
▁जानमाल	-14910
▁बढ़ेगी	-14911
▁विकृति	-14912
▁विहिरी	-14913
▁वृक्षा	-14914
यांमध्ये	-14915
▁ज्यांचे	-14916
▁त्यौहार	-14917
▁राजांचा	-14918
▁लक्ष्मण	-14919
▁स्मरणात	-14920
▁कोटींहून	-14921
▁घेणाऱ्या	-14922
▁जोडण्यात	-14923
▁देवेंद्र	-14924
▁प्रेक्षक	-14925
▁मनुष्यों	-14926
▁रेल्वेगा	-14927
▁विश्वनाथ	-14928
▁सर्विसेज	-14929
▁सांगायचे	-14930
▁सुसज्जित	-14931
▁स्वयंपाक	-14932
▁हितासाठी	-14933
▁व्यवस्थेत	-14934
▁सेनानियों	-14935
▁असल्याचेही	-14936
▁डब्ल्यूटीओ	-14937
▁प्रकल्पाची	-14938
▁प्राध्यापक	-14939
▁सहकार्याचे	-14940
▁अर्थशास्त्र	-14941
▁व्यवस्थापकीय	-14942
▁पंतप्रधानांचा	-14943
टीज	-14944
यदि	-14945
हाल	-14946
ाति	-14947
ौदा	-14948
▁रच	-14949
रजमा	-14950
▁(19	-14951
▁अलं	-14952
▁आबे	-14953
▁छुआ	-14954
▁जले	-14955
▁बनत	-14956
▁भाड	-14957
▁वोट	-14958
एनएएम	-14959
▁ऑफिस	-14960
▁कराव	-14961
▁चुंब	-14962
▁जावा	-14963
▁जूते	-14964
▁नाना	-14965
▁बूँद	-14966
▁बेंच	-14967
▁लावू	-14968
▁लिखी	-14969
▁शिंप	-14970
मार्गा	-14971
▁अन्वे	-14972
▁असंतु	-14973
▁एक्शन	-14974
▁कराना	-14975
▁जवळून	-14976
▁प्यास	-14977
▁प्रबल	-14978
▁मोटार	-14979
▁रागाव	-14980
▁सज्जन	-14981
▁कितीही	-14982
▁घुटनों	-14983
▁चर्चेत	-14984
▁तिमाही	-14985
▁आजपासून	-14986
▁खातरजमा	-14987
▁न्यायनि	-14988
▁पाहिजेस	-14989
▁मागच्या	-14990
▁मातृत्व	-14991
▁सहाव्या	-14992
▁सांसदों	-14993
▁पवित्रता	-14994
▁पासपोर्ट	-14995
▁रिपब्लिक	-14996
▁वेळापत्र	-14997
▁सांगताना	-14998
▁मध्यवर्ती	-14999
▁अश्शूरच्या	-15000
▁कार्यात्मक	-15001
▁स्वर्गातून	-15002
▁एकमेकांच्या	-15003
▁कायद्याच्या	-15004
▁महामारीमुळे	-15005
▁उभारण्यासाठी	-15006
▁मंत्रिस्तरीय	-15007
▁यांच्याबरोबर	-15008
94	-15009
.50	-15010
जेर	-15011
भेद	-15012
माथ	-15013
शंस	-15014
▁(3	-15015
▁08	-15016
▁ओम	-15017
चाली	-15018
दर्द	-15019
पॅथी	-15020
राहो	-15021
िन्स	-15022
▁LMT	-15023
▁अहज	-15024
▁बघू	-15025
▁वान	-15026
▁सिड	-15027
यातील	-15028
ुआरों	-15029
▁अन्त	-15030
▁अरबी	-15031
▁इनका	-15032
▁एनआर	-15033
▁चौबे	-15034
▁टर्न	-15035
▁पहने	-15036
▁पैनल	-15037
▁पौंड	-15038
▁मरने	-15039
▁मसाज	-15040
▁वयोग	-15041
▁शेखर	-15042
▁सीधी	-15043
ळासाठी	-15044
▁आढळते	-15045
▁कल्पन	-15046
▁जीर्ण	-15047
▁जुलाब	-15048
▁वेस्ट	-15049
▁शिबिर	-15050
▁सफारी	-15051
▁हथिया	-15052
▁होशील	-15053
▁आशुतोष	-15054
▁उदघाटन	-15055
▁ठिकाणे	-15056
▁पांढरे	-15057
▁प्रहार	-15058
▁बरोबरी	-15059
▁मांडला	-15060
▁रामायण	-15061
▁उदाहरणे	-15062
▁एकजुटता	-15063
▁चित्रित	-15064
▁पार्वती	-15065
▁दर्शविली	-15066
▁दृष्ट्या	-15067
▁प्रदीर्घ	-15068
▁सूर्योदय	-15069
▁अपराधियों	-15070
▁चुनौतियां	-15071
▁सन्माननीय	-15072
▁स्वच्छाग्रह	-15073
▁पर्यटकांच्या	-15074
FC	-15075
av	-15076
ईर	-15077
गळ	-15078
णं	-15079
ॅग	-15080
५०	-15081
खोर	-15082
शाख	-15083
ेशर	-15084
▁ओल	-15085
केंद	-15086
मधली	-15087
वापर	-15088
ेक्स	-15089
▁अपू	-15090
▁दाट	-15091
▁बगल	-15092
पादित	-15093
ोत्सव	-15094
▁आचार	-15095
▁आयआर	-15096
▁जिगर	-15097
▁डीजी	-15098
▁तणाव	-15099
▁भाजी	-15100
▁वागत	-15101
▁हुकू	-15102
रीत्या	-15103
▁उघडले	-15104
▁काटने	-15105
▁कोलंब	-15106
▁ब्रेक	-15107
▁यादीत	-15108
▁राजेश	-15109
▁विनंत	-15110
▁विमुद	-15111
▁सकेगा	-15112
▁सारखी	-15113
▁सिंहा	-15114
▁सोचते	-15115
ग्रामीण	-15116
▁आकाशात	-15117
▁उच्चार	-15118
▁ऑपरेटर	-15119
▁किंगडम	-15120
▁प्राणा	-15121
▁अबीमलेख	-15122
▁चंद्रमा	-15123
▁बाबेलला	-15124
▁मछुआरों	-15125
▁मुदतवाढ	-15126
▁वनस्पति	-15127
▁वृक्षों	-15128
▁आपल्यावर	-15129
▁उपक्रमों	-15130
▁देशांतील	-15131
▁धोकादायक	-15132
▁बोलाविले	-15133
▁महापुरुष	-15134
▁याजकांना	-15135
▁काळामध्ये	-15136
▁चंद्रशेखर	-15137
▁देशांसाठी	-15138
▁निर्देशों	-15139
▁रक्तस्राव	-15140
▁रेगिस्तान	-15141
▁वर्षानंतर	-15142
▁दुष्परिणाम	-15143
▁मार्गक्रमण	-15144
▁युवकांच्या	-15145
▁करणाऱ्यांना	-15146
▁यांच्याकडून	-15147
▁शांततापूर्ण	-15148
▁नागरिकांसाठी	-15149
▁परिवर्तनकारी	-15150
▁राष्ट्रव्यापी	-15151
ND	-15152
os	-15153
छित	-15154
फाल	-15155
बास	-15156
ैरे	-15157
पंथी	-15158
र्वे	-15159
विते	-15160
शहरी	-15161
स्पी	-15162
स्मर	-15163
▁गेम	-15164
▁ठिक	-15165
▁दूं	-15166
▁भूष	-15167
▁मुक	-15168
▁लिन	-15169
▁सका	-15170
ताबिक	-15171
वणारी	-15172
हायचे	-15173
ुकेशन	-15174
▁अधिप	-15175
▁आंगन	-15176
▁कबीर	-15177
▁करवा	-15178
▁कळते	-15179
▁गाठी	-15180
▁गौतम	-15181
▁डेरा	-15182
▁तथाप	-15183
▁ताजे	-15184
▁पथरी	-15185
▁लैंड	-15186
▁सूखी	-15187
िएतनाम	-15188
▁क्रूज	-15189
▁जुकाम	-15190
▁टाइगर	-15191
▁बाळगा	-15192
▁साहाय	-15193
▁स्पीड	-15194
▁अंधेरा	-15195
▁असमर्थ	-15196
▁कायमचा	-15197
▁परिक्र	-15198
▁भेड़ों	-15199
▁येणारी	-15200
▁रविवार	-15201
▁सीमेवर	-15202
स्वच्छता	-15203
▁अनुदाना	-15204
▁पात्रता	-15205
▁ब्रिटेन	-15206
▁मुताबिक	-15207
▁लाभप्रद	-15208
▁स्तनपान	-15209
▁हितधारक	-15210
▁अनुकरणीय	-15211
▁अभियानात	-15212
▁वंशाच्या	-15213
▁सैन्याला	-15214
ण्यापेक्षा	-15215
▁आसपासच्या	-15216
▁न्यूयॉर्क	-15217
▁पाठवण्यात	-15218
▁रस्त्याने	-15219
▁लोकांकडून	-15220
▁क्षेत्राची	-15221
प्रधानमंत्री	-15222
▁अभ्यासक्रमा	-15223
▁आव्हानात्मक	-15224
▁कॉलेस्ट्रॉल	-15225
▁क्षतिग्रस्त	-15226
▁शोधण्यासाठी	-15227
▁अधिकाऱ्यांची	-15228
.)	-15229
RC	-15230
ht	-15231
इश	-15232
.06	-15233
RDO	-15234
तुस	-15235
साब	-15236
ोही	-15237
आईआई	-15238
एमएफ	-15239
करघा	-15240
टीएम	-15241
पाचा	-15242
मधला	-15243
रोहर	-15244
लिया	-15245
लेटर	-15246
व्हर	-15247
सादा	-15248
ोसिस	-15249
्रेल	-15250
▁अँग	-15251
▁इशा	-15252
▁चाम	-15253
▁नशे	-15254
▁नोब	-15255
▁पैश	-15256
दिवशी	-15257
ेलखंड	-15258
▁गीता	-15259
▁तृती	-15260
▁दोहर	-15261
▁पड़ी	-15262
▁पिका	-15263
▁पॉवर	-15264
▁बर्ण	-15265
▁माँग	-15266
▁सांध	-15267
गणदारी	-15268
प्रमुख	-15269
स्तानी	-15270
▁किरेन	-15271
▁गाड़ी	-15272
▁दसवें	-15273
▁नागाल	-15274
▁नावीन	-15275
▁निशान	-15276
▁परतले	-15277
▁बेचने	-15278
▁बेहोश	-15279
▁भोपाल	-15280
▁शुरूआ	-15281
▁साबुन	-15282
▁सुनील	-15283
▁अतिसार	-15284
▁ड्रग्स	-15285
▁देखेगा	-15286
▁लबानोन	-15287
▁शर्करा	-15288
▁समाजों	-15289
▁स्नायु	-15290
▁हातमाग	-15291
्यांबाबत	-15292
▁अनिवासी	-15293
▁इंडेक्स	-15294
▁खजुराहो	-15295
▁गलियारे	-15296
▁धोरणाचा	-15297
▁रविशंकर	-15298
▁सांगावे	-15299
ण्याकरिता	-15300
▁अंत्योदय	-15301
▁अबीमेलेक	-15302
▁चट्टानों	-15303
▁नवोन्मेष	-15304
▁योद्धाओं	-15305
▁शक्तियों	-15306
▁सचिवांनी	-15307
▁इस्राएलवर	-15308
▁उद्योगाला	-15309
▁त्यांनाही	-15310
▁नाविन्यता	-15311
▁प्रतिबंधक	-15312
▁रणनीतियों	-15313
▁परिवर्तनों	-15314
▁भ्रष्टाचारा	-15315
▁नियमशास्त्राचे	-15316
78	-15317
99	-15318
SA	-15319
हु	-15320
▁d	-15321
लाच	-15322
सरु	-15323
ाशी	-15324
िसर	-15325
▁88	-15326
GATI	-15327
ters	-15328
जीके	-15329
बूतर	-15330
र्गी	-15331
ळेचे	-15332
▁गगन	-15333
▁चरम	-15334
▁जुळ	-15335
▁मगर	-15336
▁युन	-15337
▁लोड	-15338
क्काम	-15339
यतनाम	-15340
▁अम्ब	-15341
▁कलंक	-15342
▁गाइड	-15343
▁चलती	-15344
▁ठरली	-15345
▁ठाणे	-15346
▁पॅरा	-15347
▁फरीस	-15348
▁भाला	-15349
▁मिसळ	-15350
▁मौके	-15351
▁रेकी	-15352
▁सराव	-15353
▁उभ्या	-15354
▁क्षणी	-15355
▁गर्भग	-15356
▁ग्वाल	-15357
▁चयनित	-15358
▁जितनी	-15359
▁थांबा	-15360
▁दलाचे	-15361
▁धरोहर	-15362
▁प्रगट	-15363
▁फिलिप	-15364
▁मिळणे	-15365
▁राबवत	-15366
▁वाटली	-15367
▁शोषित	-15368
▁सौंपा	-15369
वार्षिक	-15370
्यूमेंट	-15371
▁ईटानगर	-15372
▁कुणाला	-15373
▁क्षमते	-15374
▁गरजेवर	-15375
▁छोड़ने	-15376
▁देशांत	-15377
▁परिक्ष	-15378
▁राजकोट	-15379
▁शर्तों	-15380
▁सायन्स	-15381
▁सैन्या	-15382
▁अन्वेषण	-15383
▁घाटियों	-15384
▁जन्माला	-15385
▁पोहोचेल	-15386
▁साबरमती	-15387
▁एनडीआरएफ	-15388
▁ट्रायफेड	-15389
▁दूरदर्शी	-15390
▁बालविकास	-15391
▁मूत्राशय	-15392
▁येणार्या	-15393
▁राज्याचे	-15394
▁रेल्वेचे	-15395
▁हरिद्वार	-15396
▁वापरण्यात	-15397
▁डब्ल्यूएचओ	-15398
▁अनुप्रयोगों	-15399
▁त्याच्याजवळ	-15400
▁वर्षापर्यंत	-15401
▁सामर्थ्याने	-15402
43	-15403
61	-15404
ईई	-15405
अनु	-15406
काव	-15407
▁Ch	-15408
▁ऊस	-15409
inis	-15410
यारा	-15411
र्वा	-15412
▁GST	-15413
▁अबू	-15414
▁कंज	-15415
▁डिम	-15416
▁पाज	-15417
▁पॅन	-15418
▁बास	-15419
▁लिट	-15420
antri	-15421
्सटेक	-15422
▁उठने	-15423
▁उठला	-15424
▁करुब	-15425
▁क़ान	-15426
▁काठम	-15427
▁जावी	-15428
▁तमाम	-15429
▁तरंग	-15430
▁बनती	-15431
▁बेल्	-15432
▁मधुम	-15433
▁राइड	-15434
▁वाया	-15435
णीच्या	-15436
लक्षित	-15437
▁अनूठा	-15438
▁कारणी	-15439
▁चालला	-15440
▁टाकील	-15441
▁दराने	-15442
▁दिलाई	-15443
▁दिलेस	-15444
▁देणगी	-15445
▁मशहूर	-15446
▁समवेत	-15447
▁सरसों	-15448
▁धान्या	-15449
▁नावावर	-15450
▁बनविले	-15451
▁बिगाड़	-15452
▁राजवाड	-15453
▁वापरात	-15454
▁शहराला	-15455
▁अलीकडेच	-15456
▁आदर्शों	-15457
▁नीतिमान	-15458
▁पूर्वसं	-15459
▁राजाकडे	-15460
▁वर्चुअल	-15461
▁टिंकरिंग	-15462
▁नौकरियों	-15463
▁एप्लिकेशन	-15464
▁ठेवण्याची	-15465
▁न्यायाधिक	-15466
▁पाणीपुरवठा	-15467
▁प्रजातियों	-15468
▁प्लॅटफॉर्म	-15469
▁आतंकवादियों	-15470
▁आरोग्याच्या	-15471
▁कंपन्यांच्या	-15472
▁परस्परांच्या	-15473
्ण	-15474
-12	-15475
ers	-15476
परा	-15477
पूस	-15478
लिस	-15479
शलम	-15480
्ता	-15481
▁05	-15482
▁98	-15483
▁६०	-15484
ंतील	-15485
गिंग	-15486
रुग्	-15487
सीबत	-15488
▁1,0	-15489
▁MoS	-15490
▁पैल	-15491
▁बटन	-15492
▁माघ	-15493
▁सल्	-15494
▁हाश	-15495
स्युट	-15496
्राचे	-15497
्वाला	-15498
▁CSIR	-15499
▁असाच	-15500
▁आईबी	-15501
▁आजचा	-15502
▁इन्स	-15503
▁ट्यू	-15504
▁तहान	-15505
▁पारा	-15506
▁बनाओ	-15507
▁मैरी	-15508
▁रावत	-15509
▁स्टी	-15510
आरोग्य	-15511
▁असंभव	-15512
▁उन्‍ह	-15513
▁किर्ग	-15514
▁जाणतो	-15515
▁नमामि	-15516
[...]
